
#ifdef __has_attribute
#define HAVE_ATTRIBUTE(x) __has_attribute(x)
#else
#define HAVE_ATTRIBUTE(x) 0
#endif
#if HAVE_ATTRIBUTE(aligned) || (defined(__GNUC__) && !defined(__clang__))
#define DATA_ALIGN_ATTRIBUTE __attribute__((aligned(4)))
#else
#define DATA_ALIGN_ATTRIBUTE
#endif

const unsigned char integer[] DATA_ALIGN_ATTRIBUTE = {
	0x20, 0x00, 0x00, 0x00, 0x54, 0x46, 0x4c, 0x33, 0x00, 0x00, 0x00, 0x00, 
	0x14, 0x00, 0x20, 0x00, 0x1c, 0x00, 0x18, 0x00, 0x14, 0x00, 0x10, 0x00, 
	0x0c, 0x00, 0x00, 0x00, 0x08, 0x00, 0x04, 0x00, 0x14, 0x00, 0x00, 0x00, 
	0x1c, 0x00, 0x00, 0x00, 0x88, 0x00, 0x00, 0x00, 0xe0, 0x00, 0x00, 0x00, 
	0xdc, 0x23, 0x00, 0x00, 0xec, 0x23, 0x00, 0x00, 0x70, 0x2f, 0x00, 0x00, 
	0x03, 0x00, 0x00, 0x00, 0x01, 0x00, 0x00, 0x00, 0x04, 0x00, 0x00, 0x00, 
	0x92, 0xdb, 0xff, 0xff, 0x0c, 0x00, 0x00, 0x00, 0x1c, 0x00, 0x00, 0x00, 
	0x38, 0x00, 0x00, 0x00, 0x0f, 0x00, 0x00, 0x00, 0x73, 0x65, 0x72, 0x76, 
	0x69, 0x6e, 0x67, 0x5f, 0x64, 0x65, 0x66, 0x61, 0x75, 0x6c, 0x74, 0x00, 
	0x01, 0x00, 0x00, 0x00, 0x04, 0x00, 0x00, 0x00, 0x94, 0xff, 0xff, 0xff, 
	0x11, 0x00, 0x00, 0x00, 0x04, 0x00, 0x00, 0x00, 0x07, 0x00, 0x00, 0x00, 
	0x64, 0x65, 0x6e, 0x73, 0x65, 0x5f, 0x31, 0x00, 0x01, 0x00, 0x00, 0x00, 
	0x04, 0x00, 0x00, 0x00, 0xc2, 0xe6, 0xff, 0xff, 0x04, 0x00, 0x00, 0x00, 
	0x0e, 0x00, 0x00, 0x00, 0x63, 0x6f, 0x6e, 0x76, 0x32, 0x64, 0x5f, 0x33, 
	0x5f, 0x69, 0x6e, 0x70, 0x75, 0x74, 0x00, 0x00, 0x02, 0x00, 0x00, 0x00, 
	0x34, 0x00, 0x00, 0x00, 0x04, 0x00, 0x00, 0x00, 0xdc, 0xff, 0xff, 0xff, 
	0x14, 0x00, 0x00, 0x00, 0x04, 0x00, 0x00, 0x00, 0x13, 0x00, 0x00, 0x00, 
	0x43, 0x4f, 0x4e, 0x56, 0x45, 0x52, 0x53, 0x49, 0x4f, 0x4e, 0x5f, 0x4d, 
	0x45, 0x54, 0x41, 0x44, 0x41, 0x54, 0x41, 0x00, 0x08, 0x00, 0x0c, 0x00, 
	0x08, 0x00, 0x04, 0x00, 0x08, 0x00, 0x00, 0x00, 0x13, 0x00, 0x00, 0x00, 
	0x04, 0x00, 0x00, 0x00, 0x13, 0x00, 0x00, 0x00, 0x6d, 0x69, 0x6e, 0x5f, 
	0x72, 0x75, 0x6e, 0x74, 0x69, 0x6d, 0x65, 0x5f, 0x76, 0x65, 0x72, 0x73, 
	0x69, 0x6f, 0x6e, 0x00, 0x15, 0x00, 0x00, 0x00, 0xf8, 0x22, 0x00, 0x00, 
	0xf0, 0x22, 0x00, 0x00, 0xc0, 0x18, 0x00, 0x00, 0xa0, 0x18, 0x00, 0x00, 
	0x6c, 0x18, 0x00, 0x00, 0x5c, 0x0f, 0x00, 0x00, 0xcc, 0x0e, 0x00, 0x00, 
	0x9c, 0x0e, 0x00, 0x00, 0x6c, 0x0e, 0x00, 0x00, 0xdc, 0x09, 0x00, 0x00, 
	0xcc, 0x00, 0x00, 0x00, 0xc4, 0x00, 0x00, 0x00, 0xbc, 0x00, 0x00, 0x00, 
	0xb4, 0x00, 0x00, 0x00, 0xac, 0x00, 0x00, 0x00, 0xa4, 0x00, 0x00, 0x00, 
	0x9c, 0x00, 0x00, 0x00, 0x94, 0x00, 0x00, 0x00, 0x8c, 0x00, 0x00, 0x00, 
	0x6c, 0x00, 0x00, 0x00, 0x04, 0x00, 0x00, 0x00, 0x92, 0xe7, 0xff, 0xff, 
	0x04, 0x00, 0x00, 0x00, 0x58, 0x00, 0x00, 0x00, 0x0c, 0x00, 0x00, 0x00, 
	0x08, 0x00, 0x0e, 0x00, 0x08, 0x00, 0x04, 0x00, 0x08, 0x00, 0x00, 0x00, 
	0x10, 0x00, 0x00, 0x00, 0x28, 0x00, 0x00, 0x00, 0x00, 0x00, 0x06, 0x00, 
	0x08, 0x00, 0x04, 0x00, 0x06, 0x00, 0x00, 0x00, 0x04, 0x00, 0x00, 0x00, 
	0x01, 0x00, 0x00, 0x00, 0xea, 0x03, 0x00, 0x00, 0x00, 0x00, 0x0a, 0x00, 
	0x10, 0x00, 0x0c, 0x00, 0x08, 0x00, 0x04, 0x00, 0x0a, 0x00, 0x00, 0x00, 
	0x02, 0x00, 0x00, 0x00, 0x02, 0x00, 0x00, 0x00, 0x04, 0x00, 0x00, 0x00, 
	0x06, 0x00, 0x00, 0x00, 0x32, 0x2e, 0x31, 0x32, 0x2e, 0x30, 0x00, 0x00, 
	0xf6, 0xe7, 0xff, 0xff, 0x04, 0x00, 0x00, 0x00, 0x10, 0x00, 0x00, 0x00, 
	0x32, 0x2e, 0x34, 0x2e, 0x30, 0x00, 0x00, 0x00, 0x00, 0x00, 0x00, 0x00, 
	0x00, 0x00, 0x00, 0x00, 0x80, 0xd2, 0xff, 0xff, 0x84, 0xd2, 0xff, 0xff, 
	0x88, 0xd2, 0xff, 0xff, 0x8c, 0xd2, 0xff, 0xff, 0x90, 0xd2, 0xff, 0xff, 
	0x94, 0xd2, 0xff, 0xff, 0x98, 0xd2, 0xff, 0xff, 0x9c, 0xd2, 0xff, 0xff, 
	0x32, 0xe8, 0xff, 0xff, 0x04, 0x00, 0x00, 0x00, 0x00, 0x09, 0x00, 0x00, 
	0xf2, 0x05, 0x5f, 0x95, 0x49, 0x00, 0x02, 0x2e, 0x96, 0xe4, 0x3a, 0xbe, 
	0x3d, 0xac, 0x11, 0x0b, 0x42, 0xa1, 0x1e, 0xa1, 0xc6, 0xad, 0x13, 0xaa, 
	0x06, 0x6d, 0xa9, 0xb1, 0xc9, 0x10, 0xbc, 0xcb, 0xf1, 0xb7, 0x14, 0xdc, 
	0x41, 0x3a, 0xc2, 0xf6, 0x22, 0x69, 0xec, 0x40, 0xf2, 0x58, 0x28, 0x31, 
	0xc7, 0x45, 0xdd, 0x4d, 0x23, 0x12, 0xe3, 0xd5, 0xdf, 0xf6, 0xd4, 0xd1, 
	0xba, 0x5b, 0xdb, 0xfb, 0x91, 0x44, 0xce, 0x0f, 0xd7, 0x1d, 0x57, 0xb2, 
	0x39, 0xdf, 0x13, 0xd3, 0x4e, 0x3b, 0x01, 0x26, 0xd4, 0x0b, 0xdf, 0x21, 
	0xcd, 0x0b, 0x3f, 0xe5, 0x01, 0xdb, 0x45, 0x59, 0xc8, 0x88, 0xa8, 0xc7, 
	0xb5, 0xbf, 0x61, 0x4b, 0xdd, 0xfe, 0x27, 0xf3, 0x4b, 0x2e, 0x61, 0xe1, 
	0xf6, 0x92, 0xe1, 0xf6, 0x97, 0x61, 0x0d, 0x0f, 0x23, 0xdd, 0x2e, 0xa5, 
	0xa7, 0x09, 0xed, 0x20, 0x1d, 0x4f, 0x68, 0x35, 0xd5, 0xda, 0x15, 0xcf, 
	0x60, 0xb7, 0x37, 0x52, 0xc5, 0x01, 0xf3, 0x2b, 0xc9, 0x95, 0x60, 0x26, 
	0xa3, 0xb7, 0xac, 0xb7, 0xaf, 0x5e, 0xfd, 0x05, 0xf5, 0x0a, 0xc0, 0x69, 
	0xbf, 0xf4, 0xbd, 0xac, 0x66, 0xed, 0x2f, 0x0a, 0xba, 0xf8, 0x99, 0xe9, 
	0x20, 0xf5, 0xbd, 0x49, 0x15, 0x04, 0xfb, 0x1c, 0x2f, 0x00, 0x45, 0x24, 
	0x5b, 0xc2, 0xd7, 0x19, 0xd5, 0xa5, 0x47, 0x52, 0xc6, 0xb2, 0xfe, 0xd5, 
	0xa3, 0xa7, 0x33, 0x2e, 0xa2, 0x9f, 0x0b, 0xa7, 0x05, 0x93, 0x36, 0x92, 
	0xe9, 0xd6, 0x1b, 0x37, 0xbb, 0xef, 0xc1, 0x22, 0x3e, 0x10, 0x4e, 0xef, 
	0x01, 0x61, 0xd3, 0x90, 0x42, 0xd2, 0x01, 0x60, 0xa8, 0x3c, 0xee, 0x2c, 
	0xfe, 0x81, 0x7f, 0xdf, 0xfc, 0xad, 0xac, 0xb0, 0xf3, 0x41, 0xcc, 0x4f, 
	0x91, 0xa6, 0x91, 0x24, 0x4a, 0x4d, 0xc5, 0xe8, 0x3e, 0x43, 0xd3, 0x6b, 
	0xc5, 0x01, 0xb2, 0x5d, 0x3a, 0x54, 0xbc, 0x63, 0x10, 0xf8, 0xe7, 0x31, 
	0xe9, 0xb2, 0xbe, 0x42, 0x34, 0xf8, 0x19, 0xdb, 0x5a, 0xf6, 0x3b, 0x11, 
	0x47, 0xf5, 0xf8, 0xf0, 0x9c, 0x8d, 0x42, 0xb9, 0x04, 0x98, 0x0b, 0x02, 
	0xde, 0x6c, 0x50, 0xef, 0x51, 0x38, 0x09, 0xc7, 0x1b, 0xce, 0xd5, 0x98, 
	0x03, 0x70, 0x55, 0x5c, 0x1f, 0xc7, 0xcf, 0xec, 0x4f, 0xe1, 0x59, 0x78, 
	0x34, 0x02, 0xe9, 0x6d, 0xf9, 0xfc, 0x17, 0xcb, 0x97, 0xf7, 0xf3, 0x1e, 
	0x3d, 0xf6, 0x6c, 0x2f, 0xac, 0xf3, 0x53, 0x06, 0x49, 0x9c, 0xfd, 0xac, 
	0xfe, 0x29, 0xb9, 0xb5, 0xe7, 0xd0, 0x54, 0x06, 0xd3, 0x28, 0xaa, 0x54, 
	0x36, 0xc6, 0x07, 0xb1, 0x98, 0x5c, 0x58, 0x0b, 0x83, 0x15, 0xa3, 0xab, 
	0x9a, 0xf4, 0xc2, 0x4e, 0xfc, 0x3d, 0xcc, 0xb0, 0x34, 0x39, 0x01, 0xd8, 
	0xf6, 0xbb, 0xbf, 0x56, 0xa0, 0xc0, 0x44, 0xd1, 0x86, 0x49, 0x18, 0xf6, 
	0x02, 0x95, 0x3d, 0xca, 0x37, 0xe9, 0x2e, 0xdb, 0x1b, 0xdf, 0xf9, 0xd6, 
	0x5c, 0xd9, 0xc4, 0x2a, 0x67, 0x49, 0xf8, 0x97, 0x01, 0x95, 0x8d, 0xb7, 
	0xf9, 0xea, 0xbb, 0x13, 0x47, 0xd4, 0x70, 0xac, 0x18, 0x00, 0x29, 0xd0, 
	0xf2, 0xd8, 0x28, 0x5f, 0xed, 0xc2, 0xdb, 0xc2, 0x34, 0xaa, 0x5d, 0xaf, 
	0x9e, 0xa7, 0x44, 0xad, 0xf1, 0xf1, 0xf3, 0xb3, 0x4b, 0x9f, 0xd1, 0x67, 
	0xff, 0xdf, 0xfa, 0xec, 0x85, 0xad, 0xbf, 0x21, 0x2a, 0x2f, 0x63, 0x09, 
	0xf5, 0xa9, 0x13, 0x49, 0x2f, 0x8c, 0x23, 0x5f, 0xc1, 0x8b, 0x03, 0x1d, 
	0xd4, 0xbd, 0x35, 0xfa, 0x54, 0xe2, 0xc1, 0x48, 0x8e, 0xc0, 0xba, 0xd3, 
	0xcc, 0xa3, 0xa8, 0xad, 0x36, 0xf2, 0x00, 0x2d, 0x22, 0x9c, 0x4c, 0xb1, 
	0x4f, 0x9b, 0x7e, 0xa3, 0x3f, 0x45, 0x12, 0x28, 0xfc, 0x4c, 0xca, 0xee, 
	0xe7, 0xc5, 0xd3, 0x59, 0x4b, 0x5a, 0xc2, 0x4d, 0x05, 0x21, 0xeb, 0xb1, 
	0xcb, 0xda, 0x24, 0xd4, 0x7f, 0x23, 0x35, 0x6c, 0xf9, 0xe1, 0x6c, 0x22, 
	0x33, 0xa9, 0xd9, 0xd7, 0xae, 0x07, 0x2b, 0xbe, 0xd5, 0x18, 0x38, 0x1c, 
	0xea, 0xd0, 0xf6, 0x68, 0xb3, 0xd4, 0xb4, 0x2f, 0xd0, 0x51, 0x62, 0x5d, 
	0x14, 0x49, 0x1a, 0x10, 0xe9, 0xd0, 0x8f, 0xd0, 0xdd, 0x29, 0xe4, 0x30, 
	0xb1, 0xe8, 0x97, 0x17, 0xc8, 0xea, 0xef, 0xf9, 0xad, 0xc9, 0x5c, 0xbb, 
	0x45, 0x1a, 0xcd, 0x12, 0x5d, 0xcf, 0xf0, 0x22, 0x5d, 0xc8, 0x41, 0x43, 
	0x1f, 0x2c, 0xe6, 0x32, 0xf6, 0xd8, 0xc0, 0x42, 0xcc, 0xb2, 0xcd, 0xa8, 
	0x25, 0xbb, 0x1c, 0x05, 0xac, 0xd1, 0xf9, 0xca, 0x1c, 0x0e, 0x26, 0xa1, 
	0x02, 0xec, 0xdc, 0xa9, 0xbc, 0x3c, 0xe1, 0xa2, 0xc2, 0xcf, 0xe5, 0x2b, 
	0xc0, 0x2b, 0xe2, 0xa2, 0xdf, 0xe2, 0xb9, 0x25, 0x5a, 0x0c, 0xf0, 0x5b, 
	0xeb, 0x21, 0x50, 0xba, 0xf5, 0xb4, 0x4c, 0xf1, 0xf9, 0xa3, 0xa7, 0xd8, 
	0xf8, 0x19, 0x1b, 0xb8, 0x48, 0xeb, 0x14, 0xdb, 0xb3, 0xdf, 0x51, 0xfa, 
	0x21, 0x4f, 0x27, 0xbc, 0x3b, 0x1f, 0x64, 0xca, 0x2f, 0xb3, 0x26, 0xcb, 
	0x0c, 0xc6, 0x5d, 0xb4, 0x32, 0x13, 0xb3, 0xdf, 0x12, 0xe0, 0xe0, 0x54, 
	0x32, 0xbb, 0x10, 0xbe, 0x18, 0x02, 0xab, 0xa9, 0x0c, 0xdc, 0x48, 0xa5, 
	0xf5, 0xed, 0xa8, 0x30, 0x13, 0xfa, 0x18, 0xf9, 0x36, 0xe9, 0x01, 0xdd, 
	0x19, 0x4c, 0xf4, 0x30, 0xc9, 0xe7, 0x3e, 0x65, 0xdf, 0x5c, 0x04, 0xa6, 
	0x4b, 0xb5, 0x47, 0x9e, 0x30, 0x4a, 0x47, 0xdb, 0x08, 0xc9, 0x62, 0xae, 
	0xe1, 0xf0, 0xa1, 0x2f, 0xdb, 0xa5, 0xc4, 0xe8, 0x3f, 0x4b, 0x7f, 0x24, 
	0x1a, 0x28, 0xc1, 0xfb, 0x55, 0xa0, 0x35, 0xb2, 0x2b, 0x49, 0x16, 0x5e, 
	0xfc, 0xfe, 0xb2, 0x0d, 0xa1, 0xbc, 0x1b, 0x46, 0xde, 0x24, 0x3c, 0x04, 
	0xcb, 0xfe, 0x4d, 0xf0, 0x08, 0x14, 0xef, 0x64, 0x4e, 0xd8, 0xd0, 0xff, 
	0xc6, 0x2d, 0xd7, 0x12, 0xdd, 0xf1, 0x50, 0x5d, 0xcb, 0xdb, 0x14, 0x5d, 
	0xa9, 0x3e, 0x12, 0xe5, 0xbb, 0x36, 0xf8, 0xca, 0x3e, 0xab, 0x26, 0xf9, 
	0x37, 0x59, 0xc8, 0x98, 0x27, 0x33, 0xe8, 0x26, 0xff, 0x97, 0x4e, 0x1b, 
	0x40, 0xd4, 0x5b, 0xc9, 0xc0, 0x15, 0x0e, 0xff, 0x23, 0x33, 0xc4, 0xb8, 
	0xb6, 0x4b, 0x42, 0xe2, 0x0e, 0x51, 0x58, 0x2c, 0x54, 0x5d, 0xb4, 0x57, 
	0xa7, 0xa4, 0x0b, 0x0e, 0x4d, 0x4b, 0xc4, 0x4a, 0xbf, 0x09, 0x4a, 0xa7, 
	0x53, 0x19, 0x43, 0xad, 0x05, 0x1c, 0x0e, 0xdb, 0x02, 0x54, 0xf4, 0xa0, 
	0x5e, 0xc9, 0xd2, 0x9c, 0xec, 0x19, 0x02, 0x05, 0x3f, 0xa3, 0x5d, 0xd0, 
	0xd0, 0x5a, 0xf4, 0x0b, 0x31, 0xf9, 0x04, 0xa5, 0x2f, 0x10, 0xa0, 0xc5, 
	0xaa, 0x9a, 0x0e, 0xec, 0xb2, 0x49, 0xf0, 0xd4, 0x1c, 0xaf, 0x9e, 0xbb, 
	0x9c, 0x45, 0x64, 0xf7, 0x62, 0x26, 0xe4, 0xf5, 0xf4, 0xbf, 0x95, 0x03, 
	0xa9, 0x0b, 0xe2, 0xa0, 0xf7, 0x97, 0x63, 0xc1, 0xa9, 0xf7, 0x36, 0x9e, 
	0x2a, 0x1a, 0x3f, 0x07, 0x22, 0x34, 0x51, 0xf3, 0x16, 0x20, 0x17, 0x13, 
	0x6b, 0x60, 0x0a, 0xe2, 0x49, 0x98, 0xd5, 0x27, 0x4f, 0x3b, 0xfd, 0xbb, 
	0xfc, 0xb4, 0xf9, 0x16, 0xbe, 0x2b, 0x5e, 0x34, 0xb6, 0x46, 0xdf, 0x9f, 
	0xe4, 0x5e, 0x2f, 0x33, 0x5e, 0xdf, 0xc5, 0xf2, 0xd4, 0xe8, 0x18, 0xd3, 
	0x1b, 0xa5, 0x32, 0x1c, 0xef, 0x16, 0x8e, 0xbb, 0xd4, 0xca, 0x4f, 0x06, 
	0x2d, 0xc6, 0xb5, 0x4a, 0x06, 0x28, 0x40, 0x29, 0xb6, 0xc9, 0xf2, 0xe7, 
	0xf1, 0xd5, 0xa0, 0x43, 0xfc, 0x99, 0x06, 0x12, 0xf4, 0x3e, 0xc8, 0x56, 
	0x96, 0xa8, 0x0d, 0xed, 0x4b, 0x92, 0x3c, 0xda, 0x05, 0xba, 0xbf, 0x3b, 
	0xea, 0x30, 0xd6, 0x49, 0xf2, 0x01, 0xf6, 0xe0, 0x2d, 0x3c, 0x08, 0xf8, 
	0xbe, 0x13, 0xfe, 0x09, 0x1c, 0x15, 0xa3, 0x44, 0x07, 0x17, 0x1d, 0x0b, 
	0xf6, 0x33, 0x09, 0x3b, 0x35, 0x36, 0x25, 0x01, 0xc3, 0xc7, 0x61, 0x1a, 
	0x08, 0xd8, 0x0a, 0x4f, 0x1d, 0xca, 0xe3, 0xba, 0x52, 0xdc, 0x32, 0xdd, 
	0xd0, 0x99, 0xe2, 0x1f, 0xd3, 0x0f, 0x5b, 0xaa, 0xc4, 0x60, 0x50, 0x4d, 
	0x2a, 0xbe, 0x59, 0xaf, 0x38, 0x27, 0x5e, 0x12, 0x3f, 0x98, 0x5b, 0x26, 
	0xf3, 0xd0, 0xc6, 0x1a, 0x5c, 0x13, 0xb9, 0xf4, 0x2f, 0x32, 0x9a, 0xc2, 
	0x1a, 0x35, 0x7f, 0xf3, 0xea, 0x0e, 0xc9, 0x27, 0x40, 0x55, 0x16, 0x31, 
	0x5c, 0xee, 0xb3, 0xfc, 0x02, 0x03, 0xb5, 0xa0, 0x9f, 0xc1, 0x39, 0x0c, 
	0x0b, 0xaa, 0x14, 0x3e, 0xe3, 0xdb, 0x99, 0xa8, 0x9c, 0x1f, 0x50, 0x64, 
	0xe9, 0xda, 0xa7, 0xc1, 0x4c, 0x2a, 0xda, 0x1a, 0x39, 0x34, 0x15, 0xa4, 
	0xdd, 0xfb, 0xb5, 0x3c, 0x21, 0x04, 0x5b, 0xa7, 0x17, 0x4c, 0x15, 0x33, 
	0xd0, 0xf0, 0xde, 0x69, 0xc6, 0x2f, 0xac, 0x22, 0xfc, 0x24, 0x5b, 0x0c, 
	0xbe, 0x11, 0xfb, 0xd3, 0xf1, 0xcf, 0x69, 0xdd, 0x0e, 0xeb, 0x55, 0x56, 
	0x3a, 0x50, 0x99, 0x9e, 0x13, 0xfa, 0x4c, 0xeb, 0x02, 0xea, 0xf9, 0x1f, 
	0x40, 0x18, 0xb7, 0x58, 0x81, 0xa3, 0x5c, 0xe0, 0xaa, 0x2c, 0x3a, 0x04, 
	0xd4, 0xa4, 0xa8, 0xa5, 0xf0, 0x02, 0xda, 0xe7, 0xd7, 0x40, 0xc1, 0xeb, 
	0x0e, 0xf1, 0xf8, 0xd6, 0x0e, 0xae, 0x58, 0x3d, 0x28, 0x60, 0x41, 0x02, 
	0xf2, 0x26, 0xd8, 0xff, 0x58, 0x14, 0x96, 0x07, 0x67, 0xcb, 0xc2, 0xd3, 
	0x32, 0x10, 0xa5, 0xed, 0x58, 0xd9, 0x0a, 0x54, 0x15, 0xa3, 0xaa, 0xb7, 
	0xc0, 0x10, 0xbd, 0x9b, 0x31, 0x51, 0xf0, 0xb1, 0x19, 0xe5, 0x5f, 0x12, 
	0x36, 0x19, 0xfc, 0xbb, 0x68, 0x20, 0xe6, 0x4e, 0xbb, 0x19, 0xfd, 0xcb, 
	0xdf, 0x01, 0x5f, 0xb5, 0x5b, 0x17, 0x15, 0x3d, 0xa2, 0xc3, 0xd0, 0xc8, 
	0x62, 0xb8, 0x63, 0x22, 0x52, 0xca, 0x17, 0xf5, 0x2d, 0x63, 0xd7, 0x0d, 
	0x07, 0x19, 0xbd, 0xf8, 0x4c, 0xf4, 0xdc, 0xa1, 0x2b, 0x44, 0xda, 0xb0, 
	0x14, 0xaf, 0x38, 0x5d, 0x93, 0xfd, 0xee, 0xaf, 0x30, 0xd0, 0xf7, 0x19, 
	0xc7, 0x2a, 0xef, 0x0c, 0x09, 0xf3, 0xb8, 0xff, 0x0f, 0x4c, 0x02, 0x40, 
	0xd6, 0x08, 0x47, 0x57, 0x68, 0xcd, 0x17, 0xc8, 0x34, 0xd4, 0xf9, 0xe2, 
	0x37, 0x22, 0x5a, 0x95, 0xbe, 0xac, 0x33, 0x04, 0x8d, 0x45, 0xe3, 0x31, 
	0xd9, 0x2f, 0xd5, 0x22, 0x2b, 0x6b, 0x5f, 0x1d, 0x5d, 0xee, 0x12, 0x94, 
	0x3b, 0x88, 0x4c, 0xce, 0xf5, 0x54, 0x29, 0xbb, 0x8e, 0x53, 0xea, 0x5f, 
	0x1e, 0x4a, 0x99, 0xf4, 0x18, 0x92, 0x96, 0xb2, 0x00, 0x82, 0x56, 0x62, 
	0x32, 0x59, 0x63, 0x4f, 0xe4, 0x20, 0xe2, 0x07, 0x02, 0x19, 0xa2, 0x92, 
	0x54, 0x55, 0x50, 0xd4, 0x1e, 0x3b, 0xbf, 0x06, 0xb4, 0x49, 0x23, 0x14, 
	0xad, 0x3c, 0xa6, 0xd8, 0xb0, 0x10, 0x12, 0xa2, 0x12, 0x4c, 0xf0, 0x41, 
	0xaa, 0x2d, 0x2c, 0xab, 0x33, 0xb2, 0xd1, 0x68, 0xd2, 0x62, 0xef, 0x08, 
	0xf1, 0x14, 0x0d, 0x3a, 0x53, 0x54, 0x2d, 0x74, 0xcf, 0xee, 0xcd, 0xd0, 
	0xb1, 0x75, 0xfc, 0xcc, 0x03, 0x42, 0xb5, 0x08, 0x3f, 0x98, 0xc1, 0x63, 
	0x4b, 0xe9, 0x65, 0x46, 0xc6, 0xdb, 0xd1, 0x90, 0xd1, 0xf1, 0xb4, 0xb3, 
	0x94, 0xbe, 0x39, 0xff, 0x65, 0x1a, 0xd8, 0xbb, 0x04, 0xae, 0x2f, 0xfc, 
	0x05, 0x35, 0x06, 0xd7, 0x08, 0x97, 0x32, 0xe7, 0xe9, 0xab, 0x1b, 0x03, 
	0x39, 0x31, 0x2d, 0xce, 0x08, 0x64, 0x40, 0x1b, 0x7c, 0x53, 0xce, 0xd5, 
	0xee, 0x16, 0x3f, 0x0b, 0xf4, 0x36, 0x03, 0x00, 0xe7, 0xb3, 0x3c, 0x45, 
	0xcd, 0x16, 0x12, 0x1e, 0xf5, 0xb1, 0xb4, 0xc9, 0x7f, 0x04, 0xa2, 0x0f, 
	0xf9, 0x1b, 0x9c, 0xae, 0x5e, 0x3b, 0x66, 0x07, 0x21, 0x5a, 0x0b, 0xac, 
	0xe2, 0xbb, 0x10, 0x1a, 0xab, 0x38, 0x30, 0xc3, 0xda, 0xb5, 0x5a, 0xb5, 
	0xb7, 0x2e, 0x45, 0x67, 0xdf, 0x28, 0xcf, 0xad, 0x15, 0x5e, 0x29, 0x1f, 
	0x5c, 0x37, 0xca, 0x52, 0x3e, 0xd6, 0x44, 0xa6, 0x51, 0xd6, 0xf1, 0xec, 
	0x43, 0x5e, 0x67, 0x4e, 0x4a, 0xd9, 0x52, 0xdb, 0x6b, 0xc6, 0x0f, 0xb6, 
	0x5c, 0x2d, 0x2c, 0x1e, 0x47, 0x25, 0xa7, 0xcf, 0xf4, 0x2b, 0x67, 0x64, 
	0x7e, 0x55, 0xd4, 0xdf, 0x53, 0x46, 0x2f, 0x16, 0xf2, 0xa2, 0x6f, 0xea, 
	0xa8, 0x48, 0xe1, 0xf0, 0xf7, 0xd4, 0x30, 0x0f, 0x6c, 0x97, 0x6a, 0x14, 
	0x5a, 0x93, 0x5b, 0x23, 0xcd, 0xd2, 0x21, 0x15, 0x41, 0x46, 0xd7, 0x00, 
	0xde, 0x99, 0x08, 0x9a, 0x59, 0xc8, 0xca, 0x1a, 0xe7, 0xfd, 0xcf, 0x66, 
	0xd3, 0xa6, 0xcf, 0xd8, 0x66, 0xdc, 0xe9, 0xce, 0x3e, 0xc6, 0xf5, 0xc4, 
	0x4a, 0x5d, 0x18, 0x4e, 0x23, 0xe1, 0xc6, 0xbc, 0x0c, 0x3b, 0x9d, 0x36, 
	0xd0, 0xab, 0xf3, 0x5f, 0xe3, 0x43, 0x4a, 0xf8, 0x54, 0xe0, 0x20, 0xf8, 
	0xf5, 0x43, 0xa0, 0x09, 0xce, 0x5a, 0xd4, 0xb4, 0xfc, 0x59, 0xd6, 0xf5, 
	0xa0, 0x5d, 0xb1, 0xf9, 0x4b, 0xc4, 0xf7, 0x13, 0xb1, 0xaa, 0xb8, 0x69, 
	0xdc, 0x2d, 0x4f, 0xe8, 0x06, 0x25, 0xe4, 0xd9, 0xbd, 0xcb, 0xd2, 0x43, 
	0x51, 0xf3, 0xaa, 0x1f, 0xcd, 0xff, 0xdd, 0x53, 0x3a, 0xd8, 0xcb, 0x4b, 
	0x18, 0xa8, 0x3a, 0x10, 0x25, 0xa4, 0x26, 0xc5, 0x2e, 0x39, 0x30, 0x54, 
	0x36, 0xae, 0xab, 0xa4, 0x01, 0xbf, 0x59, 0x2a, 0xf4, 0x30, 0x54, 0x00, 
	0x0a, 0xbf, 0x03, 0xa1, 0xae, 0x3f, 0xe2, 0x93, 0xbd, 0xca, 0xe1, 0x29, 
	0x5c, 0x9f, 0x66, 0xef, 0xde, 0xb6, 0x1b, 0x47, 0x2d, 0xef, 0x2a, 0x55, 
	0x34, 0x9e, 0xd9, 0xeb, 0xac, 0xda, 0xf7, 0x59, 0x30, 0xc6, 0xa9, 0x59, 
	0xd9, 0x20, 0xe1, 0xf7, 0x51, 0x4e, 0x61, 0xb9, 0x11, 0xf9, 0x27, 0xb5, 
	0xb9, 0x1c, 0x2f, 0xbb, 0xfc, 0x08, 0x2d, 0xfa, 0xdc, 0x48, 0xce, 0xb3, 
	0xaf, 0x45, 0x3e, 0xe2, 0x1d, 0x3a, 0xd1, 0x3b, 0xf1, 0x09, 0xb9, 0x9e, 
	0x31, 0x02, 0xfd, 0x0b, 0x0f, 0x3e, 0x19, 0xe6, 0xf6, 0xd4, 0x4e, 0x21, 
	0xc4, 0xd2, 0x54, 0xc9, 0x0e, 0xc4, 0xd1, 0x9f, 0xba, 0x57, 0x46, 0x10, 
	0x64, 0x51, 0xe6, 0xd0, 0xc8, 0x22, 0x3e, 0x47, 0x38, 0x06, 0x1c, 0xd2, 
	0xf4, 0xee, 0xcb, 0xa8, 0x03, 0x07, 0x05, 0xbf, 0xd3, 0xba, 0x13, 0xee, 
	0xc4, 0x46, 0xa5, 0x01, 0x46, 0xe2, 0xcd, 0x20, 0x1c, 0x50, 0x81, 0xba, 
	0xea, 0x0d, 0x43, 0xea, 0x15, 0x08, 0xa3, 0xf6, 0x28, 0xb2, 0x1b, 0xc9, 
	0x50, 0xe2, 0xc9, 0x0d, 0xb5, 0x40, 0x23, 0xd5, 0x9a, 0x3d, 0x13, 0x4c, 
	0xe0, 0x36, 0x3f, 0xd3, 0xe0, 0x12, 0x2a, 0x35, 0x9d, 0xcf, 0xa7, 0x34, 
	0x19, 0x37, 0x25, 0xf8, 0x5c, 0x51, 0x08, 0x1a, 0x47, 0x52, 0x29, 0xad, 
	0xfd, 0xbf, 0xbb, 0x27, 0x92, 0xe6, 0xde, 0xd6, 0xec, 0xef, 0x34, 0x51, 
	0x09, 0xa5, 0x9c, 0xa3, 0xb3, 0x36, 0xdd, 0xd4, 0xc1, 0x19, 0x87, 0xaa, 
	0x45, 0x28, 0xf5, 0xfa, 0x3c, 0x2a, 0x4d, 0x17, 0xb2, 0xcb, 0x55, 0xaa, 
	0xb1, 0x12, 0xe5, 0x4f, 0x2c, 0x3c, 0xc7, 0x42, 0xcd, 0x15, 0xda, 0x20, 
	0x1c, 0xa7, 0x4d, 0xd2, 0xe8, 0xa1, 0xda, 0xfd, 0xaa, 0xa9, 0xc9, 0x52, 
	0xef, 0xf7, 0x60, 0xc6, 0x97, 0xf8, 0xe4, 0xab, 0x67, 0xe4, 0xb9, 0xc7, 
	0xf4, 0x2a, 0xb5, 0x8b, 0xc0, 0x37, 0x32, 0x04, 0x63, 0x10, 0x17, 0x99, 
	0x5f, 0xbf, 0xc3, 0xc4, 0xb4, 0x1e, 0xc8, 0x6c, 0x3f, 0xf5, 0xfb, 0xff, 
	0x16, 0x38, 0xd4, 0xa4, 0xe9, 0xbb, 0x51, 0x58, 0x4a, 0xf8, 0x91, 0x87, 
	0x2c, 0x27, 0x29, 0xe2, 0x6a, 0x77, 0xff, 0xb7, 0x02, 0xfd, 0x59, 0xe1, 
	0xb8, 0xf8, 0x6a, 0x24, 0xdf, 0xdc, 0x07, 0x47, 0xc7, 0xec, 0x29, 0x8f, 
	0xf6, 0xc4, 0xf3, 0xdb, 0x19, 0x26, 0x5c, 0x5f, 0x51, 0xba, 0x61, 0x16, 
	0x7b, 0x73, 0xd2, 0x0c, 0x1e, 0x10, 0xcf, 0x61, 0x23, 0x38, 0xaa, 0xa8, 
	0xc8, 0x66, 0x23, 0x15, 0x1d, 0xe2, 0x40, 0xb8, 0x30, 0xa0, 0x94, 0xd9, 
	0xd8, 0x59, 0xce, 0x53, 0x5a, 0xf0, 0xaf, 0x4d, 0x40, 0xfa, 0xaf, 0x25, 
	0xf2, 0x1c, 0xd1, 0xf0, 0x1e, 0xb0, 0x49, 0xf2, 0x37, 0x1b, 0x2b, 0xed, 
	0x3d, 0x18, 0xa5, 0xa2, 0x24, 0x33, 0x05, 0x1b, 0xe8, 0x27, 0x66, 0xc0, 
	0x27, 0x3a, 0xde, 0xef, 0xbb, 0x01, 0x40, 0x43, 0x8f, 0xac, 0xdf, 0xda, 
	0x0e, 0x42, 0xa1, 0x13, 0x4a, 0x3b, 0xee, 0xb6, 0x5d, 0x0a, 0x0a, 0x9c, 
	0xa8, 0x90, 0x2c, 0x19, 0xa5, 0x1c, 0xf8, 0x04, 0x6d, 0x62, 0xd8, 0xa9, 
	0x1e, 0x2e, 0x9d, 0x74, 0x5d, 0xab, 0x6a, 0x24, 0x6b, 0x9c, 0xae, 0x8c, 
	0xd3, 0xf7, 0x5f, 0x64, 0x6e, 0xc1, 0xc9, 0xea, 0x2e, 0xb4, 0x3e, 0xae, 
	0x12, 0x06, 0x3c, 0x89, 0xed, 0xf7, 0x1d, 0x2c, 0xc8, 0xa1, 0xfd, 0x15, 
	0x37, 0x12, 0x5b, 0x0c, 0x3f, 0x6f, 0xc7, 0xce, 0xa4, 0x87, 0xdf, 0x3e, 
	0xb6, 0x9a, 0xdf, 0xf8, 0xcf, 0x3b, 0x54, 0x66, 0x44, 0x56, 0x90, 0xf9, 
	0x3c, 0x11, 0x2a, 0x93, 0xb1, 0xcc, 0x9b, 0xae, 0x32, 0xae, 0xa2, 0xf0, 
	0x5e, 0x54, 0x81, 0x42, 0x56, 0x2c, 0x5c, 0xa4, 0xb8, 0xda, 0x45, 0xab, 
	0x14, 0x8e, 0xb3, 0xf3, 0xa2, 0x2f, 0x18, 0x0f, 0xfa, 0xb4, 0xd3, 0x47, 
	0x37, 0xdb, 0xf9, 0x94, 0xc6, 0xb4, 0x64, 0x09, 0xcc, 0xdc, 0x76, 0xaf, 
	0x3e, 0xf1, 0xff, 0xff, 0x04, 0x00, 0x00, 0x00, 0x80, 0x04, 0x00, 0x00, 
	0x7e, 0x49, 0x88, 0x3d, 0x3b, 0xb4, 0x8f, 0xbd, 0x5f, 0x1c, 0xc6, 0x3d, 
	0x76, 0x93, 0x89, 0x3d, 0x98, 0x3a, 0x54, 0x3d, 0x29, 0x44, 0xbe, 0xbd, 
	0xc8, 0x54, 0xde, 0x3b, 0x56, 0xeb, 0xca, 0xbb, 0x88, 0x44, 0x91, 0x3d, 
	0xca, 0xb6, 0xfa, 0x3d, 0x61, 0xf4, 0x93, 0xbb, 0xd3, 0xb2, 0xb2, 0x3d, 
	0xfc, 0x41, 0x44, 0xbc, 0xe1, 0xcf, 0xe2, 0x3d, 0xd1, 0x82, 0x5e, 0xbc, 
	0x28, 0x21, 0xa3, 0x3b, 0xdd, 0x1e, 0xcc, 0x3d, 0xad, 0x55, 0xb7, 0x3d, 
	0x3a, 0xd8, 0xf1, 0x3d, 0xe6, 0xfe, 0x45, 0x3d, 0x20, 0x57, 0x9b, 0x3d, 
	0xcf, 0xab, 0x7e, 0xbd, 0x6f, 0x5c, 0x02, 0x3d, 0x1d, 0x18, 0xe9, 0xbd, 
	0x4b, 0xc7, 0x8f, 0xbd, 0xd5, 0x20, 0xd5, 0xbc, 0x25, 0xcf, 0xb3, 0xbd, 
	0x2c, 0x6b, 0x34, 0xbd, 0x4b, 0xda, 0xf6, 0x3d, 0x82, 0x5e, 0xf3, 0x3c, 
	0x76, 0x2d, 0x61, 0x3d, 0x81, 0x2c, 0x05, 0xbd, 0x20, 0x9b, 0xc9, 0xbd, 
	0x99, 0x80, 0x95, 0xbd, 0x9d, 0x85, 0x74, 0x3c, 0xe5, 0x94, 0xe3, 0x3d, 
	0x1c, 0xad, 0x00, 0x3e, 0xb5, 0x1e, 0x35, 0xbd, 0x3f, 0xab, 0xb3, 0xbd, 
	0x70, 0xd6, 0x08, 0xbd, 0xa2, 0xe8, 0xaa, 0xbd, 0xb1, 0x06, 0xb4, 0x3c, 
	0x3f, 0x94, 0x96, 0x3d, 0xb3, 0x9a, 0xea, 0xbd, 0x7b, 0xde, 0x44, 0x3b, 
	0x7a, 0x4a, 0xc6, 0xbd, 0x0d, 0xaa, 0x33, 0xbc, 0x78, 0x9f, 0x42, 0xbd, 
	0x91, 0xe1, 0xc4, 0xbd, 0xe8, 0x71, 0x2c, 0xbd, 0x88, 0x6f, 0xa9, 0xbd, 
	0x6f, 0xb9, 0x43, 0x3d, 0x3b, 0x43, 0x62, 0xbd, 0xbc, 0xa8, 0x84, 0x3d, 
	0x8f, 0x93, 0x5f, 0xbd, 0xfb, 0xeb, 0xe0, 0x3c, 0x78, 0xb5, 0x36, 0xbd, 
	0x7b, 0x86, 0x62, 0xbd, 0xb3, 0xc3, 0x62, 0xbd, 0xb7, 0x0f, 0xa0, 0x3d, 
	0xd7, 0x71, 0x8b, 0xbd, 0x81, 0xd0, 0x5d, 0xbd, 0x87, 0xde, 0xde, 0xbc, 
	0x34, 0x1a, 0xe0, 0x3c, 0x00, 0x83, 0x55, 0x3d, 0x28, 0x38, 0x04, 0xbe, 
	0x6e, 0xad, 0xeb, 0x3d, 0xeb, 0xff, 0x1d, 0x3c, 0x41, 0x7a, 0x04, 0x3c, 
	0x76, 0xb2, 0x0e, 0xbd, 0x00, 0xef, 0xcf, 0xbc, 0xe0, 0xc3, 0x77, 0x3d, 
	0x05, 0xc3, 0x83, 0xbd, 0xb5, 0x53, 0xb2, 0x3c, 0x69, 0x17, 0x11, 0xbc, 
	0x2b, 0x06, 0xe4, 0x3d, 0x48, 0x29, 0xcc, 0xbd, 0xf8, 0xdb, 0xa6, 0x3c, 
	0xcb, 0x97, 0x89, 0xbd, 0x3d, 0x90, 0xd3, 0xbd, 0xe4, 0x92, 0x30, 0xbd, 
	0xd2, 0x5a, 0x04, 0xbc, 0xcd, 0xe9, 0x7b, 0xbc, 0xd4, 0xc4, 0x2b, 0xbd, 
	0x04, 0x5c, 0x49, 0x3d, 0x1a, 0xac, 0x10, 0x3c, 0xf8, 0xb9, 0xa9, 0x3d, 
	0x6f, 0x5a, 0xc6, 0xbd, 0xa7, 0x58, 0xcb, 0x3d, 0x3f, 0x55, 0x35, 0x3d, 
	0x50, 0x99, 0x8f, 0x3c, 0x73, 0xbf, 0x21, 0xbc, 0x7a, 0xa3, 0xc2, 0x3d, 
	0xc5, 0x6c, 0xad, 0xbd, 0x65, 0x37, 0xa6, 0xbd, 0xa5, 0x91, 0xb8, 0xbd, 
	0xdd, 0xb3, 0x3e, 0xbc, 0x3f, 0x84, 0xf7, 0x3d, 0x02, 0x64, 0xe1, 0xbd, 
	0xf3, 0xc1, 0xa1, 0xbd, 0x42, 0xbc, 0x76, 0xbd, 0xbd, 0xb6, 0xd0, 0xbd, 
	0xce, 0xa9, 0x00, 0x3e, 0x56, 0x7a, 0xe5, 0xbd, 0x9e, 0x22, 0x1e, 0x3d, 
	0x96, 0x60, 0xd2, 0xbd, 0xc2, 0x7e, 0xb2, 0x3c, 0xa0, 0xc1, 0xdc, 0x3c, 
	0x44, 0xd9, 0xcc, 0x3b, 0xd7, 0xe7, 0xaa, 0xbd, 0xf8, 0xf9, 0x4e, 0x3d, 
	0x1f, 0x53, 0x20, 0xbd, 0x22, 0x87, 0x92, 0xbd, 0xaa, 0xc3, 0x35, 0xbd, 
	0xd9, 0xba, 0x7b, 0x3c, 0x89, 0xe1, 0x03, 0x3e, 0x8b, 0x09, 0xae, 0xbc, 
	0xf6, 0x8f, 0xe6, 0x3d, 0x9e, 0xa1, 0xbd, 0x3b, 0x0e, 0xac, 0xd2, 0x3d, 
	0xb5, 0x7c, 0xf6, 0xbd, 0x0a, 0x0d, 0x3c, 0xbd, 0xf3, 0x5d, 0x25, 0x3d, 
	0x29, 0xf5, 0x7b, 0x3d, 0x22, 0x05, 0x08, 0x3c, 0x98, 0x01, 0xcf, 0xbd, 
	0x64, 0x6d, 0x9f, 0xbd, 0x11, 0x0d, 0x92, 0x3d, 0x27, 0x8f, 0x8c, 0xbc, 
	0x20, 0x1e, 0xa0, 0xbd, 0x4a, 0xed, 0x8f, 0x3c, 0x3d, 0x8b, 0x0e, 0x3d, 
	0xe8, 0x72, 0x80, 0xbd, 0x43, 0x7f, 0x84, 0xbd, 0x6b, 0xa8, 0xe2, 0xbd, 
	0x56, 0xef, 0xfc, 0xbc, 0x5e, 0xdb, 0x02, 0x3d, 0x2e, 0x09, 0x24, 0x3d, 
	0x7b, 0xfe, 0x24, 0xbd, 0x54, 0x63, 0xdf, 0x3c, 0x0b, 0x93, 0xc5, 0x3d, 
	0xa5, 0x31, 0xc2, 0x3d, 0x26, 0x9c, 0x61, 0x3d, 0x17, 0x88, 0xa5, 0xbd, 
	0x03, 0xb8, 0xe2, 0x3d, 0x3f, 0x83, 0x6d, 0x3d, 0xec, 0x75, 0x09, 0xbe, 
	0x32, 0xab, 0x0b, 0xbc, 0x8a, 0x4b, 0xff, 0xbd, 0x50, 0xd6, 0xa3, 0xbd, 
	0xc2, 0xae, 0x54, 0xbd, 0x18, 0x6f, 0x00, 0x3e, 0x01, 0x4d, 0xcf, 0xbd, 
	0x58, 0x02, 0x84, 0x3c, 0x3b, 0x42, 0xae, 0x3c, 0x3f, 0x15, 0x41, 0x3b, 
	0xc1, 0x43, 0x5f, 0x3d, 0x1c, 0x15, 0x57, 0x3d, 0x84, 0xff, 0xf7, 0x3c, 
	0x33, 0xe4, 0x80, 0x3c, 0xe0, 0x7a, 0x89, 0x3d, 0xdd, 0xa0, 0xc4, 0xbd, 
	0xaf, 0xd2, 0x9d, 0x3d, 0xc2, 0xb9, 0xee, 0xbd, 0x59, 0xb5, 0x97, 0x3d, 
	0xad, 0x1e, 0xaf, 0x3c, 0xa3, 0x61, 0x8c, 0xbd, 0x56, 0x43, 0x05, 0x3d, 
	0xa7, 0x15, 0xa5, 0xbd, 0x6b, 0x03, 0xf7, 0xbd, 0x16, 0x4b, 0xf3, 0x3d, 
	0xd1, 0x67, 0x61, 0x3d, 0x25, 0x58, 0xea, 0x3d, 0x8e, 0x0e, 0x4a, 0xbc, 
	0x5f, 0x4a, 0x42, 0xbd, 0x01, 0xe2, 0xe5, 0xbd, 0x94, 0x9a, 0xfb, 0xbc, 
	0x33, 0xbe, 0xb5, 0x3d, 0xaf, 0xde, 0xb1, 0xbd, 0x9e, 0x51, 0x68, 0xbb, 
	0xbd, 0x1b, 0xb6, 0xbd, 0x32, 0x25, 0x03, 0x3e, 0xd1, 0x55, 0xee, 0xbc, 
	0x94, 0x75, 0x03, 0x3e, 0x0f, 0xc8, 0xb8, 0xbd, 0x63, 0x82, 0xef, 0xbb, 
	0xd8, 0xdc, 0xbe, 0xbd, 0x5d, 0x02, 0x2d, 0xbd, 0x36, 0xa5, 0x9e, 0xbc, 
	0x35, 0xc2, 0x56, 0xbd, 0x55, 0x7c, 0x7b, 0x3d, 0xc9, 0x6a, 0xdd, 0xbd, 
	0x55, 0x1d, 0xa3, 0xbd, 0xa3, 0xee, 0xcd, 0x3d, 0x72, 0xc7, 0x91, 0xbd, 
	0x5f, 0x5f, 0xe3, 0x3d, 0xe1, 0xe9, 0x04, 0x3d, 0x6a, 0x58, 0x16, 0x3c, 
	0x8e, 0xe0, 0xaa, 0xbc, 0x1c, 0x2b, 0xd3, 0xbd, 0x55, 0xaf, 0xe0, 0x3d, 
	0x6f, 0xe0, 0x6c, 0x3d, 0x63, 0x3f, 0x07, 0x3d, 0xc4, 0x0d, 0xa7, 0x3c, 
	0x0f, 0x3d, 0xca, 0x3d, 0xff, 0x8c, 0x56, 0xbd, 0xde, 0xa4, 0xd1, 0x3c, 
	0xcb, 0x35, 0x9c, 0xbd, 0x8f, 0xd5, 0x9d, 0x3d, 0x31, 0x0f, 0x97, 0xbc, 
	0x48, 0xe1, 0xeb, 0xbd, 0x31, 0xd0, 0x54, 0xbd, 0x6f, 0x84, 0x58, 0x3d, 
	0xf2, 0xfa, 0xca, 0xbd, 0x97, 0x3e, 0x85, 0xbd, 0xa2, 0x58, 0x98, 0x3d, 
	0x63, 0x3e, 0xc5, 0xbd, 0x9a, 0xf8, 0xd0, 0x3c, 0x98, 0xd7, 0xcd, 0x3d, 
	0xb3, 0xc6, 0x4a, 0x3d, 0x35, 0x42, 0x99, 0xbd, 0x1f, 0x0d, 0xd3, 0x3d, 
	0x1a, 0x05, 0xd9, 0x3d, 0x45, 0xfe, 0x11, 0xba, 0xd0, 0x9f, 0x96, 0xbd, 
	0x9c, 0xb1, 0xa7, 0x3d, 0xb8, 0xe3, 0xca, 0x3c, 0xab, 0x12, 0x95, 0xbc, 
	0x99, 0x27, 0x86, 0xbd, 0x36, 0x2f, 0x08, 0x3e, 0x33, 0x81, 0xff, 0x3d, 
	0xd3, 0x83, 0xc1, 0xbd, 0xe3, 0xda, 0xd5, 0xbd, 0xd9, 0xc3, 0xa9, 0xbc, 
	0x1d, 0x61, 0x52, 0x3d, 0xb7, 0x3b, 0xfc, 0xbd, 0xb9, 0xef, 0xa1, 0xbd, 
	0xeb, 0xb8, 0x2b, 0x3d, 0xe1, 0xd1, 0x90, 0xbc, 0xca, 0x36, 0xbf, 0xbc, 
	0x1e, 0x3b, 0xec, 0xbd, 0x50, 0x4e, 0xca, 0xbd, 0x64, 0x58, 0x2c, 0xbd, 
	0x39, 0xd2, 0x6f, 0xbd, 0x47, 0x70, 0xb7, 0x3d, 0x0c, 0xfe, 0x99, 0x3d, 
	0x30, 0x11, 0x93, 0xbc, 0x2e, 0xbf, 0xd3, 0x3d, 0xaa, 0xa4, 0xaf, 0xbc, 
	0xeb, 0xb7, 0xc3, 0x3c, 0xa8, 0x1b, 0x19, 0x3d, 0xe4, 0x8a, 0xf4, 0xbb, 
	0x1e, 0xf5, 0x06, 0xbe, 0x2f, 0x6b, 0xf7, 0x3d, 0xb3, 0xcc, 0x5a, 0x3d, 
	0x28, 0x0e, 0xe8, 0x3d, 0xfa, 0xec, 0x17, 0xbd, 0x3a, 0x9e, 0x1c, 0xbd, 
	0xee, 0x7f, 0x30, 0x3c, 0x32, 0xfb, 0xaf, 0x3d, 0x17, 0x95, 0x0d, 0x3c, 
	0x89, 0xb9, 0x3d, 0xbd, 0xb3, 0x7f, 0x7a, 0xbb, 0xba, 0x9a, 0x37, 0xbd, 
	0x58, 0xe3, 0xf4, 0xbd, 0x2b, 0x8b, 0xd7, 0xbd, 0xfb, 0x03, 0x7b, 0x3d, 
	0xe2, 0xab, 0x97, 0x3d, 0xaf, 0x71, 0xa1, 0xbc, 0xda, 0x5b, 0xd4, 0xbd, 
	0xd2, 0x08, 0xb5, 0x3d, 0x5a, 0x49, 0xdb, 0xbd, 0x4b, 0x64, 0xa9, 0xbd, 
	0xac, 0xe0, 0xd2, 0xbd, 0x72, 0x64, 0x08, 0xbb, 0xc9, 0xc4, 0xe2, 0xbd, 
	0xa9, 0x9b, 0x74, 0x3d, 0xd2, 0x7b, 0x8a, 0x3d, 0x8e, 0xf5, 0x01, 0xbe, 
	0xb8, 0xfc, 0x64, 0xbc, 0x57, 0x55, 0xdf, 0xbd, 0x4e, 0x86, 0x42, 0xbd, 
	0x8a, 0xa2, 0xcf, 0x3d, 0xd2, 0xbf, 0xdc, 0x3d, 0xbd, 0x26, 0x5f, 0x3d, 
	0xca, 0x0d, 0xb9, 0xbc, 0xb9, 0xba, 0xef, 0x3d, 0x01, 0x12, 0x3b, 0xbd, 
	0xca, 0xf5, 0xff, 0xff, 0x04, 0x00, 0x00, 0x00, 0x20, 0x00, 0x00, 0x00, 
	0x6b, 0x17, 0x95, 0xbb, 0xab, 0xab, 0x12, 0x3c, 0xff, 0x0c, 0xec, 0xbc, 
	0xd0, 0x4c, 0xe6, 0xbb, 0xe1, 0xd9, 0xa0, 0xbc, 0x5d, 0x5d, 0x3f, 0xbd, 
	0xce, 0xb7, 0x0c, 0x3c, 0xa3, 0x86, 0xd7, 0x3c, 0xf6, 0xf5, 0xff, 0xff, 
	0x04, 0x00, 0x00, 0x00, 0x20, 0x00, 0x00, 0x00, 0xee, 0xa9, 0xc2, 0xba, 
	0x74, 0x4f, 0xd9, 0xbb, 0x58, 0x04, 0x9d, 0xba, 0x1e, 0xf5, 0x82, 0xbb, 
	0xad, 0x26, 0x87, 0x3c, 0xc0, 0xad, 0x64, 0x3b, 0xa7, 0x11, 0x2d, 0x3c, 
	0xb8, 0xbd, 0x1c, 0xbb, 0x22, 0xf6, 0xff, 0xff, 0x04, 0x00, 0x00, 0x00, 
	0x80, 0x00, 0x00, 0x00, 0x7d, 0x35, 0xd6, 0x3b, 0x7c, 0x54, 0x23, 0x3b, 
	0x03, 0x14, 0x7b, 0x3c, 0xca, 0xe8, 0x80, 0xbc, 0xf6, 0xae, 0x3d, 0xbc, 
	0x2a, 0x4a, 0xa8, 0x3a, 0x63, 0xce, 0x58, 0xbb, 0x39, 0xb7, 0x8a, 0xbc, 
	0xb5, 0x1e, 0xa9, 0x3b, 0x1e, 0xfe, 0xdf, 0xbb, 0xa5, 0x87, 0xa2, 0xbc, 
	0xdb, 0xab, 0xb9, 0x3c, 0xa9, 0xea, 0x30, 0x3c, 0x26, 0x26, 0x96, 0x3b, 
	0x1f, 0x1c, 0x6b, 0xbc, 0xe2, 0x64, 0x2c, 0xbc, 0xbf, 0x27, 0x9f, 0x3c, 
	0x4f, 0x20, 0x76, 0x3a, 0xb6, 0xdb, 0x2f, 0x3d, 0x8c, 0xea, 0x62, 0xba, 
	0x9b, 0x8f, 0xe8, 0x3b, 0x58, 0xd6, 0x93, 0x3c, 0x70, 0x9a, 0x06, 0xbd, 
	0xab, 0xa6, 0xb1, 0xbc, 0x4b, 0xfc, 0xb8, 0xb9, 0xfd, 0x07, 0x06, 0x3c, 
	0x9b, 0x45, 0x5f, 0xba, 0x9e, 0x13, 0x54, 0xbc, 0xa7, 0xc3, 0xce, 0x3c, 
	0x6a, 0x5a, 0x0a, 0xbc, 0xa6, 0x92, 0x7d, 0x3c, 0x64, 0x1f, 0x52, 0xbb, 
	0xae, 0xf6, 0xff, 0xff, 0x04, 0x00, 0x00, 0x00, 0x00, 0x09, 0x00, 0x00, 
	0xbd, 0xfa, 0x1a, 0xbe, 0xe8, 0xc3, 0x50, 0x3d, 0xae, 0x0f, 0xf7, 0xbd, 
	0x87, 0x51, 0xf5, 0x3d, 0x7e, 0x5f, 0x24, 0xbe, 0x84, 0x47, 0x2e, 0x3d, 
	0xf3, 0x28, 0x04, 0xbe, 0xb6, 0x40, 0x2c, 0xbe, 0xf2, 0x6c, 0x14, 0x3d, 
	0xf0, 0x69, 0x36, 0x3d, 0xa0, 0x7c, 0x94, 0x3d, 0x6b, 0xcd, 0x36, 0xbe, 
	0x16, 0x9a, 0x0f, 0xbe, 0x8e, 0x1a, 0x2d, 0xbe, 0x39, 0x33, 0xc9, 0xbd, 
	0x18, 0xaa, 0x8d, 0x3d, 0x38, 0x4c, 0x06, 0xbd, 0x1b, 0x0c, 0xbb, 0x3d, 
	0x06, 0x4b, 0xbd, 0x3d, 0x83, 0x29, 0x47, 0xbe, 0x5d, 0xcc, 0xe1, 0x3d, 
	0x93, 0xdb, 0x6c, 0xbd, 0x52, 0x6a, 0xc2, 0xbd, 0x7c, 0x6d, 0x5c, 0xbd, 
	0xd6, 0xc8, 0x10, 0x3e, 0x49, 0x65, 0x14, 0x3e, 0x7e, 0x9a, 0xa9, 0xbd, 
	0xd0, 0x87, 0xed, 0x3d, 0x12, 0xab, 0x0c, 0x3e, 0x33, 0x47, 0x25, 0xbc, 
	0x22, 0x20, 0xce, 0x3a, 0x87, 0xb3, 0x30, 0xbe, 0xe3, 0x20, 0x9d, 0xbd, 
	0x60, 0xe6, 0x87, 0xbd, 0x5e, 0xce, 0xb9, 0xbd, 0x77, 0x5a, 0x1c, 0xbe, 
	0x2c, 0x6b, 0x1a, 0xbd, 0xce, 0x86, 0x8b, 0xbd, 0xb3, 0xf8, 0x2d, 0xbe, 
	0x1b, 0xcc, 0xcf, 0xbd, 0xfb, 0x6a, 0xd3, 0x3d, 0x33, 0x95, 0xc6, 0x3d, 
	0xfe, 0x11, 0xb4, 0xbd, 0x68, 0x8f, 0x0c, 0xbe, 0x75, 0xe0, 0xc4, 0x3d, 
	0xf8, 0xf7, 0x35, 0x3d, 0xad, 0x5f, 0x91, 0xbd, 0x9e, 0xc9, 0x2e, 0x3e, 
	0x27, 0x46, 0x0c, 0xbe, 0x57, 0x56, 0xc2, 0x3d, 0xd2, 0x93, 0x45, 0xbe, 
	0xca, 0x63, 0x21, 0xbd, 0x6e, 0xf9, 0x20, 0x3e, 0x3a, 0xb3, 0x8e, 0x3d, 
	0x7d, 0x11, 0xf0, 0xbd, 0xa2, 0x08, 0x23, 0x3e, 0xbf, 0xe8, 0x22, 0x3e, 
	0x14, 0x09, 0x8e, 0xbd, 0xeb, 0x47, 0xfc, 0xbb, 0xfb, 0x5f, 0xf4, 0x3c, 
	0x7a, 0x5a, 0x4c, 0x3d, 0x36, 0x2f, 0x6b, 0xbd, 0xc1, 0x75, 0xc5, 0xbd, 
	0xd8, 0xdc, 0x6f, 0xbd, 0x37, 0xd9, 0x01, 0xbd, 0x5b, 0xb1, 0x09, 0xbd, 
	0x0b, 0xb8, 0xa4, 0x3d, 0xad, 0x36, 0x87, 0x3c, 0x9a, 0x89, 0x1d, 0xbe, 
	0x7c, 0x06, 0xf9, 0x3d, 0x8b, 0x30, 0xf3, 0x3d, 0x9d, 0x9a, 0x25, 0x3e, 
	0x39, 0x44, 0xd8, 0x3c, 0x88, 0xbd, 0x04, 0x3e, 0x5c, 0xc3, 0x5e, 0x3d, 
	0x35, 0x61, 0xa5, 0x3d, 0x2c, 0x79, 0xcf, 0xb9, 0x71, 0x14, 0x89, 0x3d, 
	0xcb, 0xa7, 0xff, 0x3d, 0x56, 0x60, 0x53, 0xbd, 0x80, 0xe1, 0x88, 0xbd, 
	0xcb, 0x74, 0x24, 0xbe, 0xbc, 0x14, 0x4d, 0xbe, 0xa9, 0x31, 0x2b, 0x3e, 
	0x4b, 0x25, 0xb8, 0xbd, 0x78, 0x19, 0x06, 0xbe, 0x2e, 0x86, 0x2f, 0x3e, 
	0x13, 0xaf, 0xb9, 0xbd, 0xbd, 0x2b, 0x0a, 0xbe, 0x1c, 0xd0, 0xc9, 0x3d, 
	0x40, 0x25, 0x07, 0x3d, 0x27, 0xb6, 0x84, 0xbb, 0x11, 0xd9, 0x10, 0xbe, 
	0x0d, 0x0a, 0x22, 0xbe, 0x04, 0x76, 0x1a, 0xbc, 0x05, 0xf7, 0x43, 0x3d, 
	0xd7, 0x6a, 0x14, 0x3e, 0xf4, 0x14, 0x9b, 0x3d, 0xf7, 0x22, 0xe9, 0x3d, 
	0xa9, 0x30, 0x29, 0x3e, 0xbc, 0xf1, 0xb9, 0xbd, 0x08, 0xbf, 0xd8, 0x3d, 
	0x1f, 0x1e, 0xd0, 0xbc, 0xf7, 0x84, 0x17, 0x3c, 0xaa, 0xf9, 0x0e, 0xbe, 
	0x76, 0x8a, 0x53, 0x3c, 0xee, 0xd3, 0x9b, 0x3b, 0xad, 0xfe, 0xda, 0x3d, 
	0x46, 0xf3, 0xfe, 0x3d, 0x01, 0xe3, 0x17, 0x3e, 0xa0, 0x32, 0xb0, 0xbd, 
	0x8b, 0x30, 0x0e, 0x3e, 0xf3, 0xd8, 0x0f, 0x3c, 0xce, 0x81, 0x2c, 0x3e, 
	0x2c, 0x51, 0x1e, 0x3c, 0xc6, 0x0d, 0x0f, 0x3d, 0x32, 0x64, 0x1e, 0xbe, 
	0xce, 0x99, 0x1a, 0xbe, 0x31, 0xdd, 0x1c, 0xbd, 0x6a, 0xa8, 0xb3, 0x3d, 
	0xfe, 0x4a, 0x42, 0x3d, 0x19, 0x5a, 0x9b, 0xbd, 0x48, 0x60, 0x2f, 0xbe, 
	0x43, 0x61, 0xf5, 0xbd, 0x5e, 0x87, 0x30, 0xbe, 0x24, 0x50, 0x92, 0x3d, 
	0x9e, 0xad, 0xb5, 0xbd, 0xf0, 0xf5, 0xdf, 0xbd, 0x64, 0xe4, 0xea, 0x3b, 
	0x57, 0xaa, 0x20, 0x3e, 0x5e, 0x59, 0x09, 0x3e, 0x87, 0x64, 0xc7, 0x3d, 
	0x4d, 0xe1, 0x80, 0xbd, 0x0d, 0x2d, 0x8d, 0xbd, 0x60, 0x56, 0x26, 0xbe, 
	0x29, 0x98, 0xd7, 0xbc, 0xe9, 0xc6, 0x80, 0x3d, 0x74, 0x6c, 0xdc, 0xbd, 
	0x34, 0x3b, 0x85, 0xbd, 0x4c, 0xda, 0x12, 0x3e, 0x5a, 0x2f, 0x89, 0x3b, 
	0x24, 0xf0, 0x93, 0x3c, 0x72, 0xbc, 0x8f, 0xbd, 0x8f, 0xa6, 0x36, 0xbd, 
	0x2d, 0x89, 0x84, 0xbd, 0xfe, 0x41, 0x56, 0xbd, 0x6e, 0xf0, 0x05, 0x3e, 
	0xe8, 0xbc, 0xb2, 0xbd, 0xd9, 0xad, 0xec, 0x3c, 0xe4, 0xc1, 0x17, 0xbd, 
	0xb3, 0xcb, 0x82, 0xbd, 0xc6, 0x1c, 0xeb, 0xbd, 0xca, 0x4b, 0x48, 0x3d, 
	0x00, 0x0e, 0x77, 0x3d, 0x7f, 0x8d, 0x36, 0xbe, 0x27, 0x82, 0x32, 0x3e, 
	0x93, 0x9c, 0x9c, 0x3d, 0x20, 0xfc, 0xb6, 0xbd, 0x75, 0xe5, 0x3d, 0xbe, 
	0x7c, 0x08, 0xf0, 0xbd, 0x37, 0x8a, 0x32, 0xbe, 0x9b, 0x0c, 0xbc, 0x3d, 
	0xaa, 0xf8, 0xe6, 0x3c, 0xbf, 0x73, 0x8b, 0x3c, 0x05, 0x48, 0x69, 0xbc, 
	0x65, 0x5f, 0xa7, 0xbd, 0x8e, 0xd5, 0x4c, 0xbe, 0x34, 0x4c, 0x26, 0xbe, 
	0x90, 0xde, 0x49, 0x3d, 0x5c, 0xe5, 0xcc, 0xbc, 0x8d, 0x04, 0xef, 0xbc, 
	0x86, 0xee, 0x22, 0xbe, 0x06, 0x04, 0x0f, 0x3e, 0xc7, 0xa4, 0x81, 0x3d, 
	0x34, 0xe0, 0x12, 0x3e, 0xca, 0x61, 0x32, 0xbe, 0x8a, 0x80, 0x04, 0x3e, 
	0x7d, 0xee, 0xd1, 0xbd, 0xb6, 0x40, 0xa6, 0x3d, 0x7a, 0x89, 0x2e, 0x3e, 
	0xe8, 0x63, 0x8a, 0x3c, 0xe0, 0x0b, 0x6c, 0xbd, 0x13, 0x16, 0xd1, 0xbd, 
	0xea, 0xf4, 0x33, 0x3d, 0x30, 0x52, 0xc5, 0xbc, 0x14, 0x11, 0xa1, 0x3c, 
	0xe5, 0x49, 0xdd, 0xbd, 0x51, 0xe0, 0x0a, 0x3e, 0xac, 0xba, 0x3c, 0x3d, 
	0x97, 0xbf, 0xf2, 0xbd, 0xa2, 0x83, 0xb4, 0xbc, 0xed, 0x2f, 0x64, 0x3d, 
	0xf6, 0x1e, 0x33, 0xbe, 0x84, 0x1c, 0xb8, 0xbd, 0x1d, 0x77, 0xca, 0xbd, 
	0x44, 0xc1, 0x8f, 0xbb, 0xc7, 0x9c, 0x96, 0xbd, 0x12, 0xd6, 0xd4, 0xbd, 
	0x93, 0xb0, 0x0d, 0xbe, 0xcf, 0x3b, 0x90, 0x3d, 0x47, 0x4c, 0xb8, 0x3d, 
	0x99, 0xc3, 0x65, 0xbd, 0x88, 0x2f, 0x22, 0x3e, 0xc9, 0xdc, 0x3f, 0x3d, 
	0x0d, 0x2a, 0x0b, 0x3e, 0x3d, 0x27, 0x28, 0xbe, 0x31, 0x67, 0xa6, 0x3d, 
	0x36, 0x6f, 0x4c, 0xbc, 0x23, 0x13, 0x13, 0x3e, 0xcc, 0xc2, 0x15, 0x3e, 
	0x0b, 0xf4, 0x60, 0xbd, 0xd2, 0xac, 0x8a, 0xbd, 0x85, 0x86, 0x37, 0xbe, 
	0x00, 0x2b, 0xce, 0xbd, 0xc3, 0x9a, 0xbc, 0x3d, 0x45, 0x61, 0x1f, 0xbe, 
	0x0a, 0xc8, 0x29, 0xbe, 0xe1, 0xbb, 0x5a, 0xbd, 0x06, 0xab, 0xfe, 0xbc, 
	0x40, 0x00, 0x9b, 0xbd, 0x0c, 0xe9, 0xfd, 0xbd, 0x7c, 0x51, 0xe9, 0x3d, 
	0xa3, 0x3b, 0x0c, 0xbc, 0x1f, 0xe5, 0x1d, 0x3e, 0x67, 0xac, 0x4f, 0xbd, 
	0x34, 0x18, 0x38, 0x3e, 0xd1, 0x87, 0xba, 0x3d, 0x30, 0xfa, 0x84, 0x3d, 
	0x5d, 0x7a, 0x79, 0x3b, 0x1b, 0xf4, 0x83, 0x3d, 0x9f, 0x67, 0xa3, 0xbc, 
	0x08, 0x53, 0x3a, 0xbd, 0xec, 0x91, 0x20, 0xbe, 0xa5, 0x78, 0xf1, 0xbd, 
	0x82, 0xbd, 0x82, 0x3d, 0x88, 0xeb, 0xa7, 0x3d, 0x84, 0x7b, 0x15, 0x3e, 
	0x5d, 0x36, 0x40, 0xbe, 0xfa, 0xc0, 0xe4, 0x3d, 0x80, 0x61, 0x32, 0xbd, 
	0xc3, 0xbc, 0x29, 0x3e, 0x99, 0x14, 0x25, 0xbe, 0x62, 0x29, 0x14, 0xbd, 
	0xdd, 0x59, 0x2b, 0x3e, 0x34, 0xfd, 0x0f, 0xbd, 0x23, 0xcf, 0x66, 0xbd, 
	0xbb, 0xa1, 0xa1, 0x3d, 0x3b, 0x36, 0x27, 0xbe, 0xf9, 0xa7, 0x35, 0xbe, 
	0x86, 0x32, 0x3a, 0x3e, 0x58, 0x42, 0xa4, 0x3d, 0xdd, 0xed, 0xbb, 0xbc, 
	0x5f, 0x58, 0x1b, 0xbe, 0x2e, 0x86, 0x19, 0xbd, 0x72, 0xab, 0xb7, 0x3c, 
	0xdb, 0xcf, 0xc8, 0x3d, 0xe0, 0x96, 0xac, 0x3d, 0x54, 0xee, 0x39, 0x3e, 
	0x2c, 0x30, 0x3d, 0x3e, 0xdc, 0xcc, 0x25, 0xbe, 0x3e, 0x5f, 0x00, 0x3d, 
	0x7f, 0x9e, 0x84, 0xbc, 0x5a, 0x1e, 0x13, 0xbe, 0xfd, 0x5d, 0x38, 0x3e, 
	0xc2, 0x70, 0x09, 0x3d, 0xf7, 0x05, 0xa2, 0x3c, 0xda, 0xd2, 0x7e, 0xbc, 
	0x88, 0x1a, 0xa2, 0x3d, 0xc4, 0x91, 0xe0, 0xbc, 0xfa, 0xcf, 0x64, 0xbd, 
	0x45, 0x3c, 0x5d, 0x3c, 0x23, 0x20, 0x89, 0xbd, 0x4c, 0x72, 0x46, 0xbd, 
	0xe3, 0x6d, 0x41, 0xbe, 0xaa, 0x45, 0x08, 0xbe, 0x1f, 0xfb, 0x2d, 0x3e, 
	0xe0, 0xfb, 0x23, 0x3d, 0xe2, 0x6b, 0x1b, 0x3e, 0xdd, 0x3c, 0x2a, 0xbe, 
	0x21, 0xbf, 0x30, 0x3e, 0xdf, 0xf8, 0x03, 0xbd, 0x9a, 0xd5, 0x07, 0xbd, 
	0xac, 0xa5, 0xfb, 0x3d, 0x9f, 0x07, 0x0b, 0x3e, 0x52, 0x11, 0x31, 0xbe, 
	0xdf, 0xc6, 0x6e, 0x3d, 0xdf, 0x22, 0xc4, 0x3c, 0x19, 0x0b, 0x35, 0x3e, 
	0x9f, 0x6b, 0x5e, 0xbc, 0xb5, 0x93, 0x81, 0x3c, 0x09, 0x95, 0xa8, 0x3c, 
	0x71, 0x68, 0x2e, 0x3e, 0xed, 0x08, 0xd8, 0xbd, 0xfc, 0xd1, 0xed, 0xbd, 
	0x05, 0x7e, 0x41, 0xbe, 0xc0, 0xd2, 0x05, 0xbe, 0xb6, 0x55, 0x95, 0xbd, 
	0xa4, 0xbc, 0x46, 0x3c, 0xa2, 0xb3, 0x94, 0xbd, 0xb5, 0x43, 0x35, 0x3e, 
	0x73, 0x31, 0x03, 0xbe, 0x18, 0x57, 0x33, 0xbe, 0x82, 0x93, 0x24, 0x3e, 
	0x9e, 0xa5, 0xbf, 0xbb, 0xfa, 0x4c, 0xcc, 0xbd, 0x3f, 0x06, 0xe1, 0xbd, 
	0x96, 0x53, 0x19, 0x3e, 0xae, 0x08, 0x14, 0x3e, 0xd3, 0x53, 0x67, 0x3d, 
	0xf5, 0x3f, 0xcb, 0x3d, 0x34, 0xbc, 0xf7, 0xbd, 0xab, 0xa8, 0xe1, 0xbd, 
	0x7c, 0x44, 0xca, 0x3b, 0xfe, 0x83, 0x37, 0xbe, 0x3b, 0x2b, 0xe8, 0x3d, 
	0x72, 0x1b, 0x9f, 0x3d, 0xfe, 0x6e, 0xa6, 0x3d, 0x89, 0x9f, 0x33, 0x3d, 
	0xfe, 0x30, 0x10, 0x3e, 0x2f, 0xed, 0xe1, 0x3b, 0x9d, 0x79, 0x44, 0xbe, 
	0x7f, 0x32, 0x06, 0x3e, 0xe1, 0x98, 0x43, 0xbe, 0x16, 0xc8, 0x10, 0x3e, 
	0xbe, 0x8f, 0x2b, 0xbe, 0x5b, 0x06, 0x0f, 0xbe, 0x8e, 0xdc, 0x06, 0xbe, 
	0x12, 0xa7, 0x93, 0xbc, 0x02, 0x49, 0xfd, 0xbc, 0xe6, 0xd6, 0xae, 0x3d, 
	0x39, 0xd7, 0xc2, 0x3d, 0x81, 0x8e, 0xff, 0xbd, 0xb9, 0xde, 0x62, 0x3c, 
	0x99, 0x69, 0x82, 0x3d, 0x7b, 0x2b, 0x4f, 0x3d, 0x31, 0x1b, 0x34, 0x3e, 
	0x63, 0xfd, 0x64, 0xbd, 0xe4, 0xae, 0x12, 0x3e, 0xda, 0x6d, 0xc5, 0x3d, 
	0xee, 0xe5, 0x3a, 0xbd, 0x53, 0x31, 0x37, 0xbe, 0x18, 0xbf, 0xf2, 0x3d, 
	0xcc, 0x66, 0x0f, 0xbe, 0xbf, 0xa2, 0xcd, 0xbd, 0x79, 0x42, 0x17, 0xbe, 
	0x9b, 0x38, 0x1c, 0x3e, 0x92, 0x53, 0x92, 0xbd, 0x18, 0x56, 0xd8, 0x3c, 
	0x34, 0xcb, 0x11, 0xbb, 0xd3, 0xed, 0x64, 0xbd, 0x19, 0xa2, 0xdb, 0x3d, 
	0x17, 0x1c, 0xf7, 0xbd, 0xb2, 0xe8, 0x8a, 0xbd, 0xb1, 0xd6, 0x99, 0xbd, 
	0xe0, 0xbc, 0xf7, 0x3d, 0xf0, 0xce, 0xff, 0xbc, 0xe3, 0x1a, 0xea, 0xbd, 
	0x56, 0x5c, 0x08, 0xbe, 0x33, 0x25, 0x0f, 0xbe, 0xc4, 0x82, 0x38, 0x3e, 
	0xaa, 0x4b, 0xe9, 0xbd, 0x0b, 0x34, 0xca, 0xbd, 0xa5, 0x92, 0x16, 0xbe, 
	0x4d, 0xbb, 0x0f, 0xbe, 0x5f, 0x62, 0x0c, 0xbe, 0xdb, 0x15, 0x22, 0x3d, 
	0xfe, 0x97, 0xd8, 0x3d, 0x26, 0x7d, 0xb2, 0xbd, 0xe2, 0xdc, 0x23, 0xbe, 
	0x9f, 0xb3, 0x6f, 0xbd, 0x29, 0x05, 0xfa, 0xbc, 0xf5, 0x24, 0x20, 0x3e, 
	0xe4, 0x8b, 0x4f, 0xbe, 0x7f, 0xca, 0x0f, 0xbe, 0xc1, 0xe1, 0xe2, 0xbd, 
	0x86, 0xb3, 0x44, 0xbe, 0xbc, 0xd6, 0x2b, 0x3e, 0xea, 0xd2, 0x5c, 0x3d, 
	0xfd, 0x18, 0xff, 0xbd, 0xea, 0xd5, 0x7e, 0x3d, 0x32, 0x44, 0x98, 0xbd, 
	0xb1, 0x87, 0xf1, 0xbd, 0x64, 0xfd, 0xa0, 0xbc, 0xc0, 0x9d, 0x10, 0x3d, 
	0x7e, 0x59, 0xe5, 0xbd, 0xd2, 0xda, 0x2c, 0xbe, 0x61, 0xb0, 0xf6, 0x3d, 
	0xad, 0x06, 0xd4, 0xbd, 0x46, 0x8a, 0x94, 0xbd, 0xd1, 0x1e, 0x3b, 0xbe, 
	0xfd, 0x94, 0xfb, 0x3d, 0xbf, 0xd5, 0xe6, 0x3d, 0x41, 0x80, 0xd7, 0xbd, 
	0x50, 0xec, 0xec, 0xbd, 0x06, 0xc3, 0x13, 0xbe, 0x5e, 0x90, 0xf0, 0xbc, 
	0x01, 0xdb, 0x0a, 0xbe, 0x13, 0xea, 0xf6, 0x3d, 0xf0, 0x1b, 0x1f, 0x3d, 
	0xfe, 0xa9, 0x34, 0xbe, 0x7b, 0x7b, 0xa1, 0xbd, 0x86, 0x12, 0xea, 0x3d, 
	0xb8, 0x28, 0xd6, 0x3d, 0x42, 0x27, 0x42, 0xbe, 0x08, 0xc6, 0xf1, 0xbd, 
	0x94, 0x85, 0xcd, 0x3d, 0xdc, 0x75, 0x2d, 0xbe, 0xf9, 0x03, 0xba, 0x3d, 
	0xfe, 0x4c, 0x65, 0x3d, 0x48, 0x52, 0x4c, 0x3e, 0x7a, 0x95, 0x72, 0x3d, 
	0x6e, 0x74, 0x9e, 0x3c, 0xa7, 0x05, 0xd0, 0x3c, 0x9f, 0xa8, 0x7d, 0xbb, 
	0xb9, 0xbc, 0x10, 0x3e, 0x98, 0xbb, 0xed, 0x3d, 0x96, 0xbe, 0xdd, 0x3c, 
	0xf1, 0x29, 0xcc, 0x3d, 0x9e, 0xd7, 0x18, 0x3e, 0xfe, 0xc1, 0xbd, 0xbd, 
	0xe6, 0xed, 0x18, 0x3e, 0xd3, 0xfb, 0xdc, 0xbd, 0xc0, 0xc4, 0xef, 0xbd, 
	0x86, 0xff, 0xa2, 0x3c, 0x63, 0x4f, 0xc1, 0xbd, 0x26, 0x11, 0x04, 0x3e, 
	0xbc, 0xa6, 0x1f, 0xbe, 0x44, 0xf4, 0x09, 0xbe, 0x1a, 0x2b, 0xbe, 0x3d, 
	0xf0, 0xc8, 0xf7, 0xbc, 0x9f, 0x76, 0x9f, 0x3d, 0x6d, 0x95, 0x2a, 0x3e, 
	0xf7, 0x95, 0x59, 0x3b, 0x1e, 0x85, 0xb7, 0xbd, 0xa6, 0x35, 0x01, 0xbe, 
	0xbd, 0x36, 0x23, 0x3e, 0x46, 0x71, 0x36, 0xbe, 0x9f, 0xc3, 0xf1, 0xbd, 
	0xcd, 0x99, 0xa1, 0x3d, 0xf3, 0x24, 0x68, 0x3d, 0x4d, 0xc4, 0x01, 0x3e, 
	0x31, 0xe6, 0x5a, 0xbd, 0xdf, 0x0f, 0x04, 0x3d, 0x29, 0xd2, 0xe4, 0x3d, 
	0xfa, 0x9f, 0xfa, 0xbd, 0x43, 0xa4, 0x78, 0x3d, 0x24, 0x9f, 0xce, 0x3c, 
	0xf4, 0xe4, 0x27, 0xbe, 0x41, 0xd1, 0xc7, 0xbd, 0x3d, 0x18, 0x2b, 0x3e, 
	0x43, 0xcb, 0xb6, 0xbd, 0xd1, 0x76, 0xe4, 0xbb, 0x27, 0x6d, 0x6e, 0x3d, 
	0x34, 0x6f, 0x60, 0xbd, 0x34, 0x86, 0x10, 0x3d, 0x90, 0x5f, 0x58, 0xbd, 
	0xa3, 0x75, 0xe7, 0x3c, 0xb6, 0x52, 0x0a, 0x3c, 0x37, 0x36, 0x12, 0x3e, 
	0x03, 0x66, 0x21, 0x3e, 0x7d, 0x36, 0x0b, 0x3c, 0x54, 0x40, 0x62, 0x3d, 
	0xf1, 0xd4, 0x8c, 0x3d, 0xab, 0xfb, 0xe5, 0xbd, 0x37, 0x6c, 0xc1, 0x3d, 
	0x00, 0xef, 0x13, 0x3e, 0x6b, 0xa3, 0x55, 0x3d, 0xf4, 0xbc, 0xaf, 0xbd, 
	0x88, 0xe7, 0xd0, 0x3d, 0x92, 0x76, 0xbd, 0xbd, 0xa8, 0x0e, 0x12, 0xbe, 
	0x5c, 0x83, 0xc1, 0x3c, 0x0c, 0x11, 0x0b, 0xbd, 0xfa, 0x18, 0x9e, 0xbd, 
	0x46, 0x89, 0x5b, 0xbd, 0xf2, 0xdc, 0x1f, 0x3d, 0x53, 0x5f, 0xaf, 0x3c, 
	0xa1, 0xbc, 0x6c, 0xbc, 0xbc, 0x5a, 0x5b, 0xbd, 0x66, 0x80, 0x1b, 0xbd, 
	0xbb, 0x06, 0x08, 0x3d, 0x47, 0x4c, 0xf3, 0x3d, 0xea, 0x09, 0x56, 0xbd, 
	0xf4, 0x2e, 0x45, 0x3e, 0xba, 0x02, 0x80, 0x3d, 0xf8, 0x41, 0xe8, 0x3d, 
	0x8b, 0x3e, 0xf1, 0xbd, 0x8b, 0x04, 0xea, 0xbc, 0x75, 0xc9, 0x34, 0xbe, 
	0x70, 0xfe, 0x8d, 0xbd, 0xff, 0x42, 0x2d, 0x3e, 0xb4, 0xbe, 0x88, 0xbd, 
	0xd6, 0xe6, 0xe5, 0xbd, 0xdb, 0x16, 0x37, 0x3e, 0x0c, 0x5d, 0xc9, 0x3c, 
	0x96, 0xa4, 0xb0, 0x3c, 0x1f, 0xfa, 0x0f, 0xbe, 0x08, 0x7f, 0xa1, 0xbd, 
	0x33, 0x9d, 0x42, 0xbd, 0xc0, 0x59, 0x0a, 0xbe, 0x08, 0x13, 0xc4, 0x3d, 
	0xfd, 0x25, 0x70, 0x3d, 0x18, 0x9c, 0x27, 0xbd, 0x96, 0xe3, 0x12, 0xbd, 
	0x8b, 0x5b, 0x77, 0xbd, 0x0c, 0xcf, 0x0f, 0xbd, 0x84, 0x54, 0x3d, 0x3d, 
	0x24, 0xfc, 0x60, 0xbd, 0x6b, 0x00, 0xb3, 0xbd, 0xc9, 0x3e, 0xfe, 0xbc, 
	0x6d, 0x65, 0x20, 0xbe, 0xf1, 0xf6, 0x5a, 0x3d, 0x7a, 0xb8, 0x33, 0xbe, 
	0xe7, 0x18, 0xe6, 0x3d, 0x7a, 0xec, 0xdf, 0xbd, 0xf0, 0x61, 0x38, 0xbd, 
	0xeb, 0x76, 0x2c, 0x3e, 0xb9, 0x6e, 0x19, 0xbe, 0x8b, 0x3c, 0xf8, 0xbd, 
	0x97, 0x04, 0x6a, 0x3c, 0x91, 0xf2, 0x96, 0x3d, 0xcd, 0xc0, 0xba, 0xbd, 
	0xc2, 0x00, 0x86, 0xbd, 0x78, 0x8b, 0x92, 0x3d, 0x22, 0xba, 0xb9, 0x3d, 
	0x8a, 0x54, 0x10, 0x3e, 0x3d, 0x52, 0x31, 0x3d, 0xb9, 0xa1, 0xbf, 0xbc, 
	0x7e, 0xf0, 0x44, 0xbd, 0x12, 0xe6, 0xab, 0x3c, 0xa1, 0x5f, 0x4b, 0xbe, 
	0xcd, 0xd8, 0xd9, 0xbd, 0x3c, 0x3a, 0xde, 0xbc, 0x5e, 0x01, 0xc8, 0xbd, 
	0xbb, 0x47, 0x6c, 0x3d, 0x19, 0xd5, 0xf6, 0x3c, 0x90, 0xa8, 0xf9, 0xbd, 
	0xa9, 0xfb, 0x9e, 0xbd, 0xda, 0xec, 0x9b, 0xbd, 0xc4, 0x2f, 0xa3, 0xbc, 
	0xd3, 0x4e, 0x06, 0xbd, 0x8b, 0x79, 0x5e, 0xbd, 0x08, 0x4b, 0x0a, 0x3e, 
	0x24, 0x80, 0x29, 0x3e, 0x0e, 0x5d, 0x86, 0xbd, 0x97, 0x2d, 0x2e, 0xbc, 
	0x28, 0x45, 0x89, 0xbd, 0x4b, 0x3c, 0xb0, 0xbd, 0xb5, 0x54, 0x27, 0x3e, 
	0x50, 0x68, 0x14, 0xbd, 0xa6, 0x29, 0x05, 0xbd, 0xb9, 0x2d, 0xbf, 0xbd, 
	0x06, 0xd1, 0xf9, 0xbd, 0xab, 0xef, 0x87, 0x3d, 0xcd, 0x0c, 0x8c, 0x3c, 
	0x6c, 0x0d, 0xaa, 0xbd, 0x22, 0x59, 0x9a, 0x3d, 0x51, 0x26, 0xf9, 0xbd, 
	0x6d, 0xf1, 0x03, 0x3e, 0x19, 0xb1, 0x20, 0x3e, 0x72, 0xe6, 0x28, 0xbe, 
	0xa3, 0x94, 0xec, 0xbb, 0xb6, 0xc2, 0x3b, 0xbe, 0xdc, 0x76, 0x1a, 0xbe, 
	0x89, 0x0e, 0x95, 0xbd, 0x9c, 0xb8, 0x94, 0x3d, 0x89, 0xa9, 0x6f, 0x3d, 
	0xb4, 0xc6, 0x27, 0x3d, 0x6c, 0xd8, 0xa3, 0xbd, 0x61, 0x03, 0x18, 0x3e, 
	0x7f, 0xb6, 0x06, 0x3d, 0x4b, 0x63, 0xcc, 0xbd, 0x87, 0xa0, 0x0b, 0x3e, 
	0x5f, 0x03, 0x06, 0xbd, 0xfb, 0x49, 0x20, 0xbc, 0x8f, 0x07, 0xba, 0xbd, 
	0xba, 0xff, 0xff, 0xff, 0x04, 0x00, 0x00, 0x00, 0x24, 0x00, 0x00, 0x00, 
	0x6e, 0x4c, 0x5f, 0x3d, 0x20, 0x6f, 0xcb, 0xbc, 0x85, 0xea, 0x34, 0xbb, 
	0xc0, 0xae, 0x37, 0x3d, 0x22, 0x34, 0x03, 0xbe, 0xb0, 0x3d, 0xbb, 0xbc, 
	0x96, 0xa0, 0xe5, 0xbd, 0xde, 0xd6, 0x17, 0xbe, 0xdb, 0xce, 0x08, 0xbe, 
	0xea, 0xff, 0xff, 0xff, 0x04, 0x00, 0x00, 0x00, 0x08, 0x00, 0x00, 0x00, 
	0xff, 0xff, 0xff, 0xff, 0x48, 0x00, 0x00, 0x00, 0x00, 0x00, 0x06, 0x00, 
	0x08, 0x00, 0x04, 0x00, 0x06, 0x00, 0x00, 0x00, 0x04, 0x00, 0x00, 0x00, 
	0x20, 0x0a, 0x00, 0x00, 0xbf, 0xaa, 0xf0, 0x3d, 0xb0, 0x0b, 0x3f, 0xbd, 
	0xd4, 0xa6, 0xec, 0xbd, 0x2d, 0xb9, 0x3d, 0xbd, 0x06, 0xd3, 0x4a, 0xbe, 
	0xed, 0x73, 0x6a, 0x3e, 0x7b, 0xe9, 0x03, 0x3e, 0xd1, 0x42, 0x6e, 0x3d, 
	0x22, 0x37, 0xf4, 0x3d, 0xbd, 0x61, 0xe2, 0xbc, 0x2b, 0x3e, 0xe3, 0x3c, 
	0x26, 0x82, 0x76, 0x3d, 0x37, 0x74, 0x4d, 0xbe, 0xdb, 0x35, 0xd6, 0xbd, 
	0xb6, 0x97, 0xcb, 0xbd, 0x80, 0x42, 0x06, 0x3c, 0xaa, 0x63, 0x4e, 0x3e, 
	0xbf, 0x41, 0x59, 0x3e, 0x13, 0x06, 0x04, 0x3e, 0x73, 0xc8, 0x5e, 0xbc, 
	0x81, 0x00, 0xc6, 0x3d, 0x3d, 0xab, 0xa7, 0xbd, 0x75, 0xc2, 0xbd, 0xbc, 
	0x5d, 0xb9, 0x32, 0xbe, 0x09, 0x13, 0x19, 0x3e, 0x0a, 0xb8, 0x11, 0xbe, 
	0x14, 0xd2, 0xb4, 0x3c, 0xfa, 0x5e, 0xdd, 0xbb, 0x8e, 0x0f, 0x01, 0x3d, 
	0xa5, 0x09, 0x14, 0x3e, 0xe4, 0x5f, 0x96, 0xbd, 0x52, 0x59, 0x34, 0xbe, 
	0x2b, 0x3e, 0x65, 0xbe, 0x72, 0x7d, 0x6c, 0x3e, 0x2b, 0xe0, 0xbe, 0x3d, 
	0xc7, 0x34, 0xde, 0xbd, 0x9b, 0xd4, 0x97, 0x3c, 0x91, 0x99, 0x53, 0x3e, 
	0x6c, 0x45, 0x69, 0xbe, 0xb4, 0x97, 0x25, 0x3e, 0x2e, 0x56, 0x38, 0xbe, 
	0x2a, 0x69, 0x01, 0x3d, 0x31, 0x04, 0xc9, 0xbd, 0x0e, 0xbd, 0x75, 0x3e, 
	0xbf, 0x8d, 0x1a, 0xbe, 0xe6, 0x9a, 0x3e, 0x3e, 0x46, 0x5e, 0x60, 0xbe, 
	0xcb, 0x38, 0x76, 0xbd, 0x8e, 0xb0, 0x51, 0x3e, 0xbd, 0xfa, 0x48, 0x3e, 
	0x2f, 0xf7, 0x90, 0x3d, 0xa2, 0xd3, 0x25, 0x3e, 0x6f, 0x4b, 0x51, 0xbe, 
	0x9e, 0x00, 0x71, 0x3d, 0x40, 0xaa, 0xdb, 0x3d, 0x5f, 0x07, 0x7f, 0x3e, 
	0x91, 0xcd, 0x6a, 0x3e, 0xbc, 0xbe, 0x7e, 0x3e, 0x2a, 0x7a, 0x72, 0x3e, 
	0xcb, 0x1e, 0xdb, 0x3d, 0x49, 0xd8, 0xb1, 0x3c, 0x01, 0x6a, 0x35, 0x3e, 
	0x53, 0xd1, 0xc1, 0x3d, 0x45, 0x91, 0xa0, 0x3d, 0xef, 0x8d, 0x97, 0xbc, 
	0x31, 0x2e, 0x79, 0xbd, 0xc8, 0x06, 0x0f, 0xbe, 0x6f, 0x3f, 0x04, 0xbe, 
	0x71, 0xde, 0x60, 0x3e, 0x2b, 0xa0, 0x4a, 0xbe, 0xd7, 0x1f, 0xd5, 0xbd, 
	0x9f, 0x1e, 0x45, 0x3e, 0x37, 0x17, 0xab, 0x3d, 0xe0, 0x70, 0x62, 0xbe, 
	0xf1, 0x24, 0x0d, 0x3e, 0x34, 0x09, 0x54, 0xbe, 0x2d, 0xc6, 0x57, 0xbe, 
	0xd7, 0xfb, 0x49, 0xba, 0x96, 0xdb, 0x3b, 0xbd, 0xb4, 0x51, 0x5a, 0x3e, 
	0xcb, 0xe6, 0xd8, 0xbd, 0x42, 0x1f, 0x84, 0x3c, 0x2b, 0x80, 0x5c, 0xbe, 
	0x16, 0x5b, 0x84, 0x3d, 0xe8, 0x75, 0x53, 0xbe, 0x2b, 0x43, 0x00, 0x3d, 
	0x2f, 0x1e, 0x0d, 0x3e, 0x42, 0xb4, 0x33, 0x3d, 0xf0, 0x7c, 0x5b, 0x3e, 
	0x31, 0x16, 0xa8, 0xbd, 0xc5, 0xdd, 0x04, 0xbe, 0x64, 0xc1, 0xd7, 0x3b, 
	0x33, 0x1c, 0x55, 0x3e, 0xcb, 0x42, 0xd0, 0x3b, 0x44, 0x32, 0xda, 0xbc, 
	0x53, 0x8c, 0x73, 0x3d, 0xf7, 0xf8, 0x93, 0x3d, 0x96, 0x87, 0x5d, 0xbe, 
	0x8e, 0x7a, 0x67, 0xbc, 0x9d, 0x4e, 0xb8, 0x3c, 0x16, 0x9b, 0x3c, 0x3c, 
	0x22, 0x6d, 0x15, 0x3e, 0x01, 0x4e, 0x88, 0xbd, 0x58, 0x80, 0x62, 0xbe, 
	0x0c, 0x0d, 0x4a, 0xbe, 0x60, 0x20, 0x44, 0x3e, 0xe9, 0xd8, 0x1d, 0x3e, 
	0x29, 0xfa, 0x54, 0xbe, 0xe2, 0xcf, 0x8d, 0x3d, 0x10, 0xad, 0xcd, 0xbd, 
	0x72, 0x71, 0x0b, 0x3e, 0x2e, 0x8f, 0x08, 0x3e, 0x13, 0x42, 0x43, 0x3e, 
	0x53, 0x88, 0x1e, 0xbd, 0x12, 0x3d, 0xd8, 0x3d, 0xd7, 0x17, 0x1b, 0xbe, 
	0xe8, 0x8e, 0x5c, 0x3e, 0x5a, 0xff, 0x0e, 0x3e, 0xe3, 0x50, 0x3a, 0x3e, 
	0xe8, 0xb1, 0x56, 0xbd, 0x2e, 0xb6, 0x3d, 0x3e, 0x09, 0xbb, 0x6b, 0xbe, 
	0x21, 0x58, 0x49, 0x3d, 0xcd, 0x5d, 0x1c, 0xbd, 0x7b, 0x69, 0xbf, 0x3d, 
	0x0b, 0x64, 0x3f, 0x3d, 0x8b, 0x0e, 0xc1, 0x3b, 0x11, 0x63, 0xb2, 0x3d, 
	0xdc, 0x7f, 0xb4, 0xbd, 0xaf, 0x1e, 0x39, 0x3e, 0x17, 0x41, 0xd5, 0x3d, 
	0x4d, 0x54, 0x6c, 0xbe, 0xde, 0x19, 0xe9, 0xbc, 0xed, 0xde, 0x5f, 0xbe, 
	0xcb, 0x98, 0xc7, 0x3c, 0xf6, 0xb2, 0x7d, 0x3c, 0x82, 0x3a, 0x37, 0xbe, 
	0x37, 0xc6, 0x1d, 0xbe, 0xb7, 0x12, 0x06, 0xbe, 0x5d, 0xe3, 0xbd, 0x3d, 
	0xfa, 0xf2, 0x86, 0xbc, 0xb8, 0x41, 0x89, 0x3d, 0xf2, 0x84, 0x36, 0x3e, 
	0xdc, 0xc2, 0x33, 0x3e, 0x38, 0x9f, 0x51, 0x3c, 0x3e, 0xf3, 0x52, 0x3d, 
	0x83, 0x98, 0xda, 0xbc, 0x17, 0x67, 0xe1, 0x3d, 0x56, 0xda, 0x06, 0x3e, 
	0x6e, 0xf6, 0x53, 0xbe, 0xf3, 0x18, 0x42, 0x3d, 0x3f, 0xfc, 0x18, 0xbe, 
	0x07, 0x72, 0x52, 0xbe, 0xa4, 0xcd, 0x6c, 0xbe, 0x95, 0x8c, 0x53, 0x3d, 
	0x00, 0x8f, 0x9d, 0xbd, 0xa4, 0xa1, 0x5b, 0xbe, 0x1e, 0x5b, 0x7f, 0x3e, 
	0x97, 0xf6, 0x22, 0x3e, 0xb4, 0x1b, 0x65, 0x3d, 0xd2, 0xf6, 0x60, 0x3e, 
	0x8e, 0x98, 0xd0, 0x3d, 0x18, 0x0a, 0xd1, 0x3d, 0xca, 0x26, 0x12, 0x3d, 
	0x27, 0xa5, 0xde, 0xbd, 0xb8, 0x38, 0x0d, 0x3e, 0xbc, 0x3d, 0x37, 0x3e, 
	0x78, 0x51, 0xe4, 0xbc, 0x84, 0x11, 0x62, 0x3d, 0xb3, 0x2c, 0x7b, 0x3e, 
	0xab, 0xa2, 0xe2, 0xbd, 0x0a, 0xe0, 0x60, 0x3e, 0xab, 0x6b, 0x5d, 0x3e, 
	0x3e, 0x53, 0x7e, 0x3e, 0x68, 0x1e, 0x92, 0xbd, 0x08, 0xcd, 0xa0, 0x3d, 
	0x01, 0x18, 0x93, 0xbd, 0xe2, 0x48, 0x77, 0x3d, 0x51, 0x94, 0x7f, 0x3e, 
	0x6b, 0xb8, 0xf8, 0x39, 0x61, 0x3a, 0xaa, 0xbc, 0xec, 0x37, 0x24, 0xbe, 
	0xb0, 0x0c, 0x51, 0x3d, 0xc0, 0x37, 0x12, 0xbe, 0x13, 0x4c, 0x86, 0x3e, 
	0x87, 0xca, 0x35, 0xbe, 0x54, 0x0f, 0x43, 0xbe, 0x7b, 0x0a, 0x3e, 0x3e, 
	0xac, 0xe7, 0x1c, 0x3e, 0x80, 0x3c, 0x32, 0xbe, 0x9b, 0x43, 0x59, 0x3e, 
	0xd0, 0x6e, 0xb8, 0xbd, 0xba, 0x29, 0x59, 0xbe, 0x12, 0xf5, 0x72, 0xbe, 
	0x8c, 0xa6, 0x6c, 0x3e, 0xdc, 0xc0, 0x40, 0x3e, 0xe2, 0x7e, 0x3f, 0xbe, 
	0xcf, 0x39, 0xcd, 0x3d, 0x10, 0xf2, 0xf2, 0x3d, 0x3c, 0x31, 0xeb, 0x3d, 
	0x50, 0x3c, 0xaf, 0xbd, 0xa0, 0x1c, 0x81, 0x3d, 0xa3, 0x6d, 0xa3, 0xbd, 
	0xf4, 0x50, 0xf5, 0x3d, 0x78, 0x53, 0x4e, 0xbe, 0x8f, 0x86, 0x09, 0xbe, 
	0x14, 0x14, 0x57, 0xbe, 0x47, 0x50, 0x07, 0x3e, 0x9a, 0xb8, 0x35, 0x3e, 
	0x64, 0x5b, 0xfa, 0xbc, 0xd1, 0xe3, 0x5c, 0x3e, 0x61, 0x94, 0xea, 0x3d, 
	0xa5, 0xe5, 0xc4, 0xbd, 0x3e, 0x81, 0x76, 0xbd, 0xcf, 0xc8, 0xd6, 0x3d, 
	0x1f, 0x64, 0xf8, 0x3d, 0xd7, 0xa8, 0xfd, 0xbc, 0xb8, 0x05, 0xd0, 0x3d, 
	0x85, 0x69, 0x04, 0x3e, 0x26, 0x9f, 0x79, 0x3e, 0x5b, 0x18, 0x54, 0xbe, 
	0xfc, 0xbb, 0x61, 0x3d, 0x08, 0x98, 0xd3, 0x3d, 0xba, 0xc1, 0x94, 0xbc, 
	0x30, 0x9a, 0xad, 0xbd, 0xbc, 0x03, 0xe2, 0xbd, 0x26, 0xc4, 0x13, 0xbe, 
	0x2c, 0x8d, 0x30, 0xbe, 0x70, 0xbf, 0xcf, 0x3c, 0x71, 0x88, 0x18, 0x3d, 
	0xb5, 0x05, 0xda, 0x3c, 0x9f, 0xed, 0xc4, 0x3d, 0xf1, 0x4e, 0x63, 0x3e, 
	0x15, 0xa0, 0x61, 0xbd, 0x76, 0xfe, 0x6c, 0x3d, 0xe5, 0x33, 0x87, 0x3d, 
	0x54, 0xa3, 0x07, 0xbe, 0xed, 0x6b, 0x4d, 0x3d, 0x15, 0x43, 0x7f, 0x3d, 
	0x99, 0x18, 0x3f, 0x3e, 0x21, 0xac, 0x9a, 0x3d, 0x1b, 0x4d, 0xeb, 0xbc, 
	0xe6, 0xb5, 0x00, 0xbe, 0x85, 0xf5, 0x0a, 0x3d, 0xaf, 0xe5, 0xfe, 0xbd, 
	0x0e, 0xdb, 0x8e, 0xbd, 0xc9, 0x7a, 0x3d, 0x3e, 0x8f, 0x81, 0xfa, 0x3d, 
	0x60, 0xc8, 0x25, 0xbe, 0xb5, 0xc6, 0x08, 0x3d, 0x08, 0x12, 0xcb, 0x3d, 
	0x81, 0x29, 0x6d, 0x3e, 0x19, 0x6c, 0xfa, 0x3d, 0x9c, 0x98, 0x85, 0x3d, 
	0x75, 0x0a, 0x3f, 0x3e, 0xc2, 0x82, 0xc2, 0xbd, 0x2f, 0x74, 0xe9, 0x3c, 
	0x35, 0x60, 0x69, 0x3e, 0xfb, 0x5e, 0xa0, 0xbd, 0x09, 0xe9, 0x13, 0x3e, 
	0xa9, 0xba, 0x0d, 0xbe, 0xe5, 0xf4, 0xc5, 0x3d, 0x0d, 0xde, 0xf5, 0xbd, 
	0x0b, 0xca, 0x92, 0xbd, 0xc3, 0x64, 0xe4, 0x3d, 0x59, 0x68, 0x95, 0x3c, 
	0xd7, 0x4a, 0x66, 0xbe, 0xa3, 0x59, 0x38, 0xbe, 0x5b, 0x3c, 0x31, 0x3e, 
	0x0c, 0x8a, 0x70, 0xbd, 0x87, 0x43, 0xe1, 0x3d, 0x80, 0x8b, 0x8d, 0xbd, 
	0xd9, 0xc2, 0x4c, 0xbe, 0x03, 0x13, 0x50, 0x3e, 0x04, 0x47, 0x6b, 0x3e, 
	0xa4, 0x1b, 0xd4, 0x3b, 0x10, 0x96, 0x1f, 0x3c, 0xd4, 0xc7, 0x01, 0x3e, 
	0x64, 0x83, 0xf2, 0xbd, 0x2c, 0xba, 0x1e, 0x3d, 0x62, 0x56, 0xc8, 0xbd, 
	0xf9, 0x2d, 0x7b, 0x3e, 0x95, 0x2a, 0x44, 0xbe, 0xeb, 0xea, 0x2e, 0xbe, 
	0x40, 0xbe, 0xeb, 0x3d, 0x9d, 0x9a, 0x46, 0x3e, 0x0d, 0xf1, 0x30, 0xbe, 
	0xba, 0x75, 0x53, 0xbd, 0x4e, 0x4d, 0x6d, 0xbe, 0xa9, 0x42, 0xfd, 0xbc, 
	0x7c, 0x01, 0x23, 0xbe, 0xdb, 0x3c, 0x0c, 0xbe, 0x80, 0x72, 0x2e, 0xbd, 
	0xc8, 0x0b, 0x49, 0xbc, 0x85, 0x1c, 0xe8, 0xbc, 0x03, 0x17, 0xf6, 0x3d, 
	0x0c, 0x3d, 0x7b, 0xbe, 0x1a, 0xac, 0x74, 0xbe, 0x7e, 0x93, 0x81, 0x3d, 
	0x1e, 0x8f, 0x04, 0x3c, 0x9a, 0x46, 0xdf, 0xbd, 0x83, 0x3d, 0xf6, 0xbd, 
	0x71, 0x0d, 0xa5, 0xbe, 0x55, 0x99, 0x4e, 0x3d, 0x55, 0x2e, 0xb3, 0xbc, 
	0x54, 0x70, 0x73, 0xbc, 0xd6, 0xe3, 0x47, 0xbe, 0xb0, 0xf9, 0x31, 0x3e, 
	0x16, 0xd7, 0x0b, 0xbe, 0xd7, 0xb9, 0x5d, 0xbc, 0x84, 0x90, 0x76, 0xbe, 
	0xa6, 0xc0, 0xf7, 0x3d, 0x5d, 0x35, 0x8f, 0xbd, 0x68, 0x28, 0x4b, 0xbe, 
	0xcf, 0xe4, 0x83, 0xbe, 0x8f, 0x1f, 0x0b, 0x3e, 0x10, 0x79, 0x4c, 0x3e, 
	0x8a, 0x2f, 0x02, 0xbe, 0x8f, 0x1b, 0xbc, 0xbe, 0x25, 0x6b, 0xa3, 0xbd, 
	0x70, 0xcf, 0x8c, 0x3d, 0x10, 0x40, 0x81, 0x3d, 0x50, 0xa0, 0xc2, 0xbc, 
	0xbc, 0xd9, 0xa1, 0xbd, 0xf9, 0x2f, 0x4a, 0xbe, 0x44, 0x1a, 0x18, 0x3e, 
	0x8b, 0x91, 0xb0, 0xbd, 0xe6, 0x37, 0x35, 0x3d, 0x20, 0x46, 0xfd, 0x3c, 
	0x77, 0xd4, 0x28, 0x3d, 0x2a, 0x5f, 0x5d, 0xbe, 0x56, 0xa3, 0x94, 0xbd, 
	0x64, 0x1c, 0x22, 0xbe, 0xf4, 0x7f, 0x50, 0x3e, 0xbb, 0xd0, 0xc4, 0xbd, 
	0x38, 0xce, 0x39, 0xbe, 0x72, 0xee, 0x0b, 0x3e, 0x2b, 0xe1, 0x20, 0x3e, 
	0xc0, 0xa8, 0x55, 0x3e, 0xd7, 0x90, 0x0a, 0x3d, 0x98, 0xee, 0xcb, 0x3c, 
	0x1e, 0x52, 0x84, 0x3c, 0x2a, 0xdf, 0x7f, 0x3d, 0xdc, 0x43, 0xae, 0xbd, 
	0x57, 0xf8, 0x83, 0x3d, 0x64, 0x68, 0xd4, 0x3d, 0x64, 0x46, 0x4b, 0x3e, 
	0xd6, 0x80, 0x2d, 0xbe, 0x50, 0xb5, 0x66, 0xbe, 0x36, 0x37, 0x94, 0x3d, 
	0x24, 0x2a, 0x6f, 0xbe, 0xc4, 0x3b, 0x1e, 0xbe, 0x63, 0x30, 0xb3, 0xbd, 
	0xb8, 0xeb, 0x85, 0x3c, 0x36, 0xfa, 0xdb, 0xbb, 0xee, 0xa4, 0x73, 0xbe, 
	0x3c, 0xbe, 0x82, 0x3c, 0xb6, 0xfe, 0x74, 0x3b, 0xac, 0x1a, 0xf9, 0x3d, 
	0xe9, 0xbd, 0x8c, 0xbe, 0x2d, 0xb9, 0x27, 0xbe, 0x40, 0x39, 0xa0, 0x3d, 
	0x65, 0x4a, 0x14, 0xbd, 0xed, 0x3c, 0xe4, 0x3d, 0x85, 0xf8, 0xc6, 0xbd, 
	0xbf, 0x42, 0x28, 0x3c, 0xd3, 0xa3, 0x00, 0xbd, 0xfa, 0x0f, 0x7c, 0xbd, 
	0xc4, 0xf6, 0xa1, 0xbd, 0x9f, 0xc1, 0x28, 0xbd, 0x6e, 0x83, 0xc8, 0xbc, 
	0x47, 0x30, 0x33, 0x3e, 0x0a, 0xb7, 0x1f, 0x3e, 0x23, 0x7c, 0xfa, 0x3d, 
	0x88, 0xbb, 0x2d, 0x3e, 0x41, 0x56, 0x36, 0x3d, 0x6f, 0xe9, 0x1c, 0xbe, 
	0x93, 0xfb, 0xd3, 0x3d, 0xda, 0x04, 0x09, 0xbe, 0x23, 0x58, 0x07, 0x3e, 
	0xe5, 0x1d, 0x4a, 0xbd, 0xf0, 0x65, 0x2f, 0x3e, 0xfc, 0x47, 0x10, 0xbe, 
	0xad, 0xdc, 0x14, 0x3d, 0xc0, 0xf0, 0x42, 0xbe, 0xc5, 0xc0, 0xba, 0xbc, 
	0x73, 0xad, 0xda, 0x3d, 0x08, 0xfb, 0x2f, 0xbe, 0xac, 0x45, 0xbf, 0xbd, 
	0x10, 0xb6, 0x56, 0x3d, 0xf5, 0x75, 0x3f, 0xbd, 0xb5, 0xfa, 0x61, 0xbd, 
	0x52, 0xdc, 0x90, 0xbd, 0x4b, 0x2b, 0x48, 0x3e, 0x53, 0xe3, 0x53, 0xbe, 
	0x0b, 0xa6, 0x6e, 0x3d, 0x00, 0x7b, 0x0d, 0xbe, 0xbe, 0x9d, 0x77, 0x3e, 
	0x1b, 0x90, 0x28, 0x3e, 0x3a, 0x08, 0x66, 0xbe, 0x37, 0x18, 0x8b, 0xbc, 
	0x59, 0x63, 0xc5, 0xbc, 0x2c, 0xba, 0xb0, 0xbc, 0xe2, 0x70, 0xb1, 0x3d, 
	0x9f, 0x34, 0xc9, 0xbd, 0x6f, 0x53, 0x99, 0xbd, 0x79, 0x13, 0xeb, 0xbd, 
	0x57, 0x05, 0x63, 0xbe, 0xc2, 0x83, 0xbe, 0x3d, 0x5d, 0x23, 0xbb, 0xbb, 
	0x6d, 0x06, 0xf7, 0x3d, 0xb8, 0xde, 0x04, 0x3e, 0x44, 0x8a, 0x8e, 0x3d, 
	0xd3, 0x05, 0x5b, 0xbe, 0xef, 0x93, 0x4a, 0x3d, 0xf2, 0xc6, 0x7b, 0xbe, 
	0x5d, 0xa2, 0x82, 0x3b, 0x1c, 0x63, 0xa8, 0x3d, 0x32, 0x29, 0x13, 0xbe, 
	0x1e, 0xf5, 0x77, 0x3e, 0x91, 0x24, 0xe4, 0xbd, 0x76, 0xe8, 0x5e, 0x3d, 
	0x92, 0x52, 0x27, 0x3e, 0xec, 0x30, 0x3f, 0xbd, 0x26, 0x92, 0xbe, 0xbd, 
	0x17, 0xb2, 0xd0, 0x3d, 0xbe, 0xad, 0xdd, 0x3d, 0xee, 0x4c, 0x62, 0xbe, 
	0x76, 0x9e, 0x91, 0xbd, 0xd2, 0x45, 0xc9, 0x3c, 0x21, 0xa7, 0x63, 0xbd, 
	0xee, 0x41, 0xbd, 0xbd, 0x96, 0xb4, 0x2c, 0x3e, 0x7b, 0x98, 0x82, 0x3d, 
	0x85, 0x72, 0x66, 0xbb, 0x73, 0xfe, 0x3f, 0xbe, 0xf5, 0x6c, 0x1d, 0x3d, 
	0xdb, 0x61, 0x41, 0xbe, 0x0a, 0x45, 0x9a, 0x3d, 0x60, 0xc0, 0x0f, 0x3d, 
	0xd1, 0x45, 0x04, 0x3e, 0x12, 0x38, 0x12, 0xbe, 0x56, 0x1f, 0x17, 0x3e, 
	0xd4, 0xd4, 0x02, 0x3e, 0x13, 0xe7, 0x1e, 0x3c, 0x67, 0x7b, 0x0a, 0xbe, 
	0x5e, 0x71, 0x4b, 0xbe, 0xbf, 0xdd, 0x64, 0xbd, 0x21, 0x2f, 0xb9, 0xbd, 
	0xe1, 0x65, 0x17, 0x3e, 0xc8, 0xc3, 0x58, 0xbe, 0x63, 0x30, 0x2b, 0xbe, 
	0x19, 0x5b, 0x28, 0xbe, 0x98, 0xcf, 0x6a, 0xbd, 0xdc, 0x60, 0x12, 0xbd, 
	0x5c, 0x88, 0x64, 0xbe, 0x33, 0x54, 0x55, 0x3e, 0x45, 0x5b, 0x3d, 0x3e, 
	0x7f, 0xa2, 0xb1, 0xbd, 0x23, 0x07, 0xb7, 0x3d, 0x29, 0x94, 0xdd, 0xbd, 
	0xb4, 0x08, 0xf8, 0xbd, 0xa0, 0x38, 0xe0, 0xbb, 0x95, 0xb9, 0xdd, 0x3d, 
	0x64, 0xc0, 0x35, 0xbc, 0xf3, 0x74, 0x38, 0x3e, 0x99, 0x8d, 0x60, 0x3d, 
	0xe2, 0xbf, 0xb7, 0x3d, 0xb3, 0xed, 0x4a, 0xbe, 0xfd, 0xb2, 0xfb, 0xbd, 
	0x87, 0x4e, 0x9c, 0xbe, 0x1a, 0x1f, 0x74, 0xbe, 0x9e, 0xb4, 0x0e, 0x3e, 
	0x58, 0xba, 0xe6, 0x3d, 0xd7, 0xda, 0xdf, 0xbd, 0x16, 0xe9, 0x00, 0xbe, 
	0x78, 0x8e, 0x4b, 0x3d, 0x63, 0x93, 0x17, 0x3d, 0x93, 0x59, 0x44, 0x3e, 
	0xaf, 0x16, 0x06, 0xbe, 0x69, 0xf8, 0x23, 0xbe, 0x9d, 0x49, 0xfb, 0xbc, 
	0x08, 0x2c, 0x28, 0xbe, 0x38, 0xe7, 0x18, 0x3e, 0x21, 0xbc, 0x16, 0x3e, 
	0x71, 0x2a, 0x27, 0xbc, 0x58, 0x60, 0x7d, 0x3d, 0x9e, 0x27, 0x9f, 0xbd, 
	0xe4, 0x5f, 0x85, 0xbe, 0x3c, 0xcb, 0x67, 0x3e, 0xd4, 0x76, 0xb1, 0x3d, 
	0xd4, 0x3b, 0x7b, 0xbe, 0xf2, 0x34, 0x7c, 0xbe, 0xb5, 0xcf, 0x99, 0xbd, 
	0x4b, 0x80, 0x59, 0xbe, 0x9a, 0xcd, 0x52, 0xbe, 0x6f, 0x23, 0x77, 0x3d, 
	0x37, 0x34, 0x4e, 0x3e, 0x46, 0x30, 0x44, 0xbe, 0xa4, 0x50, 0x10, 0x3e, 
	0xa3, 0x73, 0x33, 0x3d, 0x86, 0xd2, 0x35, 0x3e, 0xc2, 0xfd, 0x4f, 0xbe, 
	0x56, 0xda, 0x18, 0x3e, 0x40, 0xb5, 0x62, 0xbe, 0xa0, 0x53, 0x55, 0xbe, 
	0x8c, 0x98, 0x94, 0xbe, 0x2d, 0xa8, 0xbf, 0xbd, 0x29, 0x91, 0x95, 0xbd, 
	0x05, 0x7f, 0xc2, 0x3d, 0x8b, 0xc4, 0x0c, 0xbc, 0x07, 0xbc, 0xa5, 0xbe, 
	0x65, 0xb3, 0x1a, 0x3e, 0xa8, 0x0c, 0x2e, 0xbe, 0xbb, 0xb9, 0x40, 0xbd, 
	0x4d, 0xb2, 0x10, 0xbd, 0x1a, 0x88, 0xfb, 0x3d, 0xfc, 0xb9, 0x5d, 0x3c, 
	0x2f, 0x4a, 0xa3, 0xbd, 0x0a, 0x6f, 0xb9, 0xbe, 0x4a, 0x48, 0x20, 0xbd, 
	0xb2, 0x5e, 0xa0, 0xbe, 0x59, 0x29, 0x06, 0xbe, 0x3f, 0x0f, 0xbf, 0x3d, 
	0x1e, 0x73, 0x4f, 0xbc, 0xd9, 0x37, 0x40, 0x3e, 0x39, 0x3e, 0xe7, 0xbd, 
	0x9a, 0xf8, 0xc6, 0x3d, 0xcc, 0x6c, 0xa8, 0x3d, 0x65, 0x26, 0xdd, 0xbc, 
	0x13, 0xb4, 0x02, 0xbd, 0xd9, 0x8b, 0x44, 0x3d, 0x78, 0xc3, 0x3e, 0xbe, 
	0xc0, 0xa0, 0x26, 0x3d, 0x94, 0x29, 0x29, 0xbe, 0x76, 0xb9, 0x07, 0x3e, 
	0x9a, 0xd0, 0xcd, 0xbd, 0x9d, 0x10, 0x02, 0x3e, 0xfb, 0x68, 0x4a, 0x3e, 
	0x7b, 0xa3, 0x2b, 0x3e, 0x00, 0x63, 0x22, 0xbe, 0xd0, 0x84, 0xaa, 0xbd, 
	0x1e, 0x32, 0x9f, 0xbe, 0x21, 0x0b, 0xad, 0xbe, 0x57, 0x24, 0x17, 0xbe, 
	0xa6, 0x59, 0x3c, 0xbe, 0x7a, 0x3f, 0x8b, 0xbe, 0xe7, 0x28, 0xba, 0x3d, 
	0x48, 0xe7, 0xf0, 0xbc, 0xdf, 0x96, 0xa1, 0xbc, 0x55, 0x2a, 0xa5, 0xbe, 
	0xbd, 0x4d, 0x88, 0x3d, 0x9d, 0x1b, 0x80, 0xbe, 0xd8, 0x94, 0x37, 0x3d, 
	0xdb, 0x5c, 0xe2, 0x3c, 0x39, 0x6b, 0x45, 0xbd, 0x24, 0x0c, 0x76, 0xbe, 
	0xf3, 0x2e, 0x5b, 0xba, 0x45, 0xa5, 0xc1, 0x3d, 0x05, 0xdc, 0xb6, 0xbe, 
	0x3b, 0x9f, 0x20, 0x3d, 0x76, 0xfd, 0x6c, 0xbe, 0x69, 0x33, 0x2e, 0xbe, 
	0x4e, 0xea, 0xfb, 0xbc, 0xc9, 0x2a, 0xb6, 0xbd, 0xce, 0x24, 0xaf, 0xbc, 
	0xdc, 0x33, 0x03, 0xbe, 0xb9, 0x50, 0x56, 0x3d, 0x69, 0x47, 0x4e, 0xbd, 
	0xe4, 0xe6, 0xae, 0xbd, 0xd3, 0x0e, 0x93, 0xbd, 0x35, 0x13, 0x02, 0xbe, 
	0x07, 0x53, 0x31, 0x3e, 0xde, 0xd0, 0xcd, 0x3d, 0xe0, 0x35, 0x09, 0xbd, 
	0x28, 0x84, 0xb9, 0xbe, 0x43, 0x56, 0x91, 0x3d, 0x6a, 0xfe, 0x24, 0x3e, 
	0xfd, 0xac, 0x0a, 0xbe, 0xbe, 0x53, 0x77, 0xbe, 0x7a, 0xf3, 0x0b, 0xbe, 
	0x92, 0x9e, 0x0b, 0xbe, 0x8a, 0xfd, 0xab, 0xbe, 0x23, 0x33, 0xfd, 0x3d, 
	0x2c, 0x07, 0x71, 0xbd, 0x48, 0xd8, 0x9c, 0xbd, 0x25, 0x29, 0x0d, 0xbd, 
	0x4c, 0x1e, 0x01, 0xbe, 0x5f, 0x61, 0x80, 0xbe, 0xb0, 0x83, 0x30, 0xbe, 
	0xab, 0x7c, 0xbc, 0xbe, 0xb0, 0x8c, 0x5d, 0xbe, 0x79, 0xab, 0xf2, 0x3c, 
	0x4d, 0x22, 0x9e, 0xbd, 0xf8, 0x4a, 0x14, 0xbe, 0x03, 0x6b, 0xcb, 0x3d, 
	0xd7, 0x48, 0x33, 0xbd, 0x48, 0xf7, 0xdd, 0x3d, 0xec, 0x4a, 0x0f, 0xbd, 
	0xb6, 0xb3, 0x94, 0xbd, 0x9c, 0x7d, 0x17, 0x3d, 0x62, 0x97, 0x71, 0x3e, 
	0x06, 0x9d, 0x6f, 0xbe, 0xf5, 0xd6, 0x42, 0xbe, 0xb0, 0x88, 0xa9, 0x3d, 
	0x8c, 0x98, 0x16, 0xbe, 0xa3, 0x68, 0xb7, 0xbc, 0x61, 0x66, 0xc8, 0xbd, 
	0x26, 0x11, 0x9a, 0xbd, 0x84, 0x51, 0x9f, 0x3c, 0x3d, 0xf5, 0x87, 0x3d, 
	0xad, 0x17, 0x2e, 0xbe, 0x6f, 0x86, 0x13, 0xbe, 0xab, 0x8e, 0x68, 0x3d, 
	0xd4, 0x72, 0x12, 0xbe, 0x3a, 0x18, 0xb3, 0xbd, 0x31, 0x85, 0x66, 0x3e, 
	0x69, 0x6a, 0x4f, 0xbd, 0xe8, 0x1a, 0x5e, 0x3e, 0x8e, 0xca, 0x4b, 0xbe, 
	0x1c, 0x11, 0xaa, 0x3d, 0xc2, 0x65, 0x4d, 0xbe, 0x48, 0x9a, 0x8a, 0x3b, 
	0x1d, 0xfa, 0x34, 0x3e, 0x4c, 0x23, 0x2a, 0xbe, 0x33, 0xc8, 0xf2, 0x3d, 
	0x05, 0xa8, 0xab, 0x3d, 0xb7, 0x5e, 0x04, 0x3d, 0x77, 0xa7, 0xc2, 0x3d, 
	0xc9, 0xfc, 0x12, 0xbe, 0x3b, 0xef, 0xc4, 0x3d, 0x3c, 0x99, 0xf5, 0xbc, 
	0x2c, 0xe1, 0x54, 0xbd, 0x45, 0x04, 0xc2, 0x3c, 0x93, 0x90, 0x76, 0x3c, 
	0x41, 0x33, 0xc2, 0x3b, 0x77, 0xf9, 0x0f, 0x3e, 0x72, 0x6a, 0x75, 0x3d, 
	0xe7, 0x24, 0x74, 0xbe, 0x26, 0xa1, 0x35, 0x3d, 0xcb, 0x3f, 0x24, 0xbd, 
	0x39, 0x67, 0x89, 0xbe, 0xc7, 0xf8, 0xee, 0x3d, 0x0e, 0x2b, 0x44, 0x3e, 
	0x25, 0xea, 0x0b, 0x3e, 0xc9, 0xd5, 0x32, 0x3e, 0x6a, 0x06, 0x83, 0xbe, 
	0xb5, 0x79, 0x5c, 0xbe, 0xa0, 0xf4, 0xff, 0xff, 0xa4, 0xf4, 0xff, 0xff, 
	0x0f, 0x00, 0x00, 0x00, 0x4d, 0x4c, 0x49, 0x52, 0x20, 0x43, 0x6f, 0x6e, 
	0x76, 0x65, 0x72, 0x74, 0x65, 0x64, 0x2e, 0x00, 0x01, 0x00, 0x00, 0x00, 
	0x14, 0x00, 0x00, 0x00, 0x00, 0x00, 0x0e, 0x00, 0x18, 0x00, 0x14, 0x00, 
	0x10, 0x00, 0x0c, 0x00, 0x08, 0x00, 0x04, 0x00, 0x0e, 0x00, 0x00, 0x00, 
	0x14, 0x00, 0x00, 0x00, 0x1c, 0x00, 0x00, 0x00, 0x44, 0x02, 0x00, 0x00, 
	0x48, 0x02, 0x00, 0x00, 0x4c, 0x02, 0x00, 0x00, 0x04, 0x00, 0x00, 0x00, 
	0x6d, 0x61, 0x69, 0x6e, 0x00, 0x00, 0x00, 0x00, 0x08, 0x00, 0x00, 0x00, 
	0xe0, 0x01, 0x00, 0x00, 0x80, 0x01, 0x00, 0x00, 0x30, 0x01, 0x00, 0x00, 
	0xf0, 0x00, 0x00, 0x00, 0xb0, 0x00, 0x00, 0x00, 0x70, 0x00, 0x00, 0x00, 
	0x48, 0x00, 0x00, 0x00, 0x04, 0x00, 0x00, 0x00, 0xaa, 0xfe, 0xff, 0xff, 
	0x14, 0x00, 0x00, 0x00, 0x00, 0x00, 0x00, 0x08, 0x10, 0x00, 0x00, 0x00, 
	0x14, 0x00, 0x00, 0x00, 0x03, 0x00, 0x00, 0x00, 0x34, 0xf5, 0xff, 0xff, 
	0x01, 0x00, 0x00, 0x00, 0x11, 0x00, 0x00, 0x00, 0x03, 0x00, 0x00, 0x00, 
	0x10, 0x00, 0x00, 0x00, 0x01, 0x00, 0x00, 0x00, 0x03, 0x00, 0x00, 0x00, 
	0x00, 0x00, 0x0a, 0x00, 0x10, 0x00, 0x0c, 0x00, 0x08, 0x00, 0x04, 0x00, 
	0x0a, 0x00, 0x00, 0x00, 0x0c, 0x00, 0x00, 0x00, 0x10, 0x00, 0x00, 0x00, 
	0x02, 0x00, 0x00, 0x00, 0x01, 0x00, 0x00, 0x00, 0x10, 0x00, 0x00, 0x00, 
	0x02, 0x00, 0x00, 0x00, 0x0f, 0x00, 0x00, 0x00, 0x02, 0x00, 0x00, 0x00, 
	0x0e, 0xff, 0xff, 0xff, 0x14, 0x00, 0x00, 0x00, 0x00, 0x00, 0x00, 0x05, 
	0x20, 0x00, 0x00, 0x00, 0x24, 0x00, 0x00, 0x00, 0x01, 0x00, 0x00, 0x00, 
	0xfe, 0xfe, 0xff, 0xff, 0x02, 0x00, 0x00, 0x00, 0x02, 0x00, 0x00, 0x00, 
	0x02, 0x00, 0x00, 0x00, 0x02, 0x00, 0x00, 0x00, 0x01, 0x00, 0x00, 0x00, 
	0x0f, 0x00, 0x00, 0x00, 0x01, 0x00, 0x00, 0x00, 0x0e, 0x00, 0x00, 0x00, 
	0xee, 0xfe, 0xff, 0xff, 0x10, 0x00, 0x00, 0x00, 0x00, 0x00, 0x00, 0x01, 
	0x18, 0x00, 0x00, 0x00, 0x1c, 0x00, 0x00, 0x00, 0xe0, 0xfe, 0xff, 0xff, 
	0x00, 0x00, 0x00, 0x01, 0x01, 0x00, 0x00, 0x00, 0x01, 0x00, 0x00, 0x00, 
	0x01, 0x00, 0x00, 0x00, 0x0e, 0x00, 0x00, 0x00, 0x03, 0x00, 0x00, 0x00, 
	0x0d, 0x00, 0x00, 0x00, 0x04, 0x00, 0x00, 0x00, 0x07, 0x00, 0x00, 0x00, 
	0x86, 0xff, 0xff, 0xff, 0x14, 0x00, 0x00, 0x00, 0x00, 0x00, 0x00, 0x05, 
	0x20, 0x00, 0x00, 0x00, 0x24, 0x00, 0x00, 0x00, 0x01, 0x00, 0x00, 0x00, 
	0x76, 0xff, 0xff, 0xff, 0x02, 0x00, 0x00, 0x00, 0x02, 0x00, 0x00, 0x00, 
	0x02, 0x00, 0x00, 0x00, 0x02, 0x00, 0x00, 0x00, 0x01, 0x00, 0x00, 0x00, 
	0x0d, 0x00, 0x00, 0x00, 0x01, 0x00, 0x00, 0x00, 0x0c, 0x00, 0x00, 0x00, 
	0x66, 0xff, 0xff, 0xff, 0x10, 0x00, 0x00, 0x00, 0x00, 0x00, 0x00, 0x01, 
	0x18, 0x00, 0x00, 0x00, 0x1c, 0x00, 0x00, 0x00, 0x58, 0xff, 0xff, 0xff, 
	0x00, 0x00, 0x00, 0x01, 0x01, 0x00, 0x00, 0x00, 0x01, 0x00, 0x00, 0x00, 
	0x01, 0x00, 0x00, 0x00, 0x0c, 0x00, 0x00, 0x00, 0x03, 0x00, 0x00, 0x00, 
	0x0b, 0x00, 0x00, 0x00, 0x09, 0x00, 0x00, 0x00, 0x06, 0x00, 0x00, 0x00, 
	0x00, 0x00, 0x0e, 0x00, 0x1a, 0x00, 0x14, 0x00, 0x10, 0x00, 0x0c, 0x00, 
	0x0b, 0x00, 0x04, 0x00, 0x0e, 0x00, 0x00, 0x00, 0x24, 0x00, 0x00, 0x00, 
	0x00, 0x00, 0x00, 0x05, 0x30, 0x00, 0x00, 0x00, 0x34, 0x00, 0x00, 0x00, 
	0x01, 0x00, 0x00, 0x00, 0x00, 0x00, 0x0e, 0x00, 0x14, 0x00, 0x00, 0x00, 
	0x10, 0x00, 0x0c, 0x00, 0x08, 0x00, 0x04, 0x00, 0x0e, 0x00, 0x00, 0x00, 
	0x02, 0x00, 0x00, 0x00, 0x02, 0x00, 0x00, 0x00, 0x02, 0x00, 0x00, 0x00, 
	0x02, 0x00, 0x00, 0x00, 0x01, 0x00, 0x00, 0x00, 0x0b, 0x00, 0x00, 0x00, 
	0x01, 0x00, 0x00, 0x00, 0x0a, 0x00, 0x00, 0x00, 0x00, 0x00, 0x0e, 0x00, 
	0x14, 0x00, 0x00, 0x00, 0x10, 0x00, 0x0c, 0x00, 0x0b, 0x00, 0x04, 0x00, 
	0x0e, 0x00, 0x00, 0x00, 0x1c, 0x00, 0x00, 0x00, 0x00, 0x00, 0x00, 0x01, 
	0x24, 0x00, 0x00, 0x00, 0x28, 0x00, 0x00, 0x00, 0x0c, 0x00, 0x10, 0x00, 
	0x00, 0x00, 0x0c, 0x00, 0x08, 0x00, 0x07, 0x00, 0x0c, 0x00, 0x00, 0x00, 
	0x00, 0x00, 0x00, 0x01, 0x01, 0x00, 0x00, 0x00, 0x01, 0x00, 0x00, 0x00, 
	0x01, 0x00, 0x00, 0x00, 0x0a, 0x00, 0x00, 0x00, 0x03, 0x00, 0x00, 0x00, 
	0x00, 0x00, 0x00, 0x00, 0x08, 0x00, 0x00, 0x00, 0x05, 0x00, 0x00, 0x00, 
	0x01, 0x00, 0x00, 0x00, 0x11, 0x00, 0x00, 0x00, 0x01, 0x00, 0x00, 0x00, 
	0x00, 0x00, 0x00, 0x00, 0x12, 0x00, 0x00, 0x00, 0x98, 0x08, 0x00, 0x00, 
	0x34, 0x08, 0x00, 0x00, 0xcc, 0x07, 0x00, 0x00, 0x5c, 0x07, 0x00, 0x00, 
	0x04, 0x07, 0x00, 0x00, 0xa8, 0x06, 0x00, 0x00, 0x4c, 0x06, 0x00, 0x00, 
	0xf0, 0x05, 0x00, 0x00, 0x98, 0x05, 0x00, 0x00, 0xc0, 0x04, 0x00, 0x00, 
	0xec, 0x03, 0x00, 0x00, 0x74, 0x03, 0x00, 0x00, 0x84, 0x02, 0x00, 0x00, 
	0x0c, 0x02, 0x00, 0x00, 0x38, 0x01, 0x00, 0x00, 0xc0, 0x00, 0x00, 0x00, 
	0x60, 0x00, 0x00, 0x00, 0x04, 0x00, 0x00, 0x00, 0xc6, 0xf7, 0xff, 0xff, 
	0x00, 0x00, 0x00, 0x01, 0x14, 0x00, 0x00, 0x00, 0x1c, 0x00, 0x00, 0x00, 
	0x1c, 0x00, 0x00, 0x00, 0x12, 0x00, 0x00, 0x00, 0x34, 0x00, 0x00, 0x00, 
	0x02, 0x00, 0x00, 0x00, 0xff, 0xff, 0xff, 0xff, 0x09, 0x00, 0x00, 0x00, 
	0xa8, 0xf7, 0xff, 0xff, 0x19, 0x00, 0x00, 0x00, 0x53, 0x74, 0x61, 0x74, 
	0x65, 0x66, 0x75, 0x6c, 0x50, 0x61, 0x72, 0x74, 0x69, 0x74, 0x69, 0x6f, 
	0x6e, 0x65, 0x64, 0x43, 0x61, 0x6c, 0x6c, 0x3a, 0x30, 0x00, 0x00, 0x00, 
	0x02, 0x00, 0x00, 0x00, 0x01, 0x00, 0x00, 0x00, 0x09, 0x00, 0x00, 0x00, 
	0x1e, 0xf8, 0xff, 0xff, 0x00, 0x00, 0x00, 0x01, 0x14, 0x00, 0x00, 0x00, 
	0x1c, 0x00, 0x00, 0x00, 0x1c, 0x00, 0x00, 0x00, 0x11, 0x00, 0x00, 0x00, 
	0x38, 0x00, 0x00, 0x00, 0x02, 0x00, 0x00, 0x00, 0xff, 0xff, 0xff, 0xff, 
	0x48, 0x00, 0x00, 0x00, 0x00, 0xf8, 0xff, 0xff, 0x1e, 0x00, 0x00, 0x00, 
	0x73, 0x65, 0x71, 0x75, 0x65, 0x6e, 0x74, 0x69, 0x61, 0x6c, 0x5f, 0x31, 
	0x2f, 0x66, 0x6c, 0x61, 0x74, 0x74, 0x65, 0x6e, 0x5f, 0x31, 0x2f, 0x52, 
	0x65, 0x73, 0x68, 0x61, 0x70, 0x65, 0x00, 0x00, 0x02, 0x00, 0x00, 0x00, 
	0x01, 0x00, 0x00, 0x00, 0x48, 0x00, 0x00, 0x00, 0x7a, 0xf8, 0xff, 0xff, 
	0x00, 0x00, 0x00, 0x01, 0x14, 0x00, 0x00, 0x00, 0x24, 0x00, 0x00, 0x00, 
	0x24, 0x00, 0x00, 0x00, 0x10, 0x00, 0x00, 0x00, 0x48, 0x00, 0x00, 0x00, 
	0x04, 0x00, 0x00, 0x00, 0xff, 0xff, 0xff, 0xff, 0x03, 0x00, 0x00, 0x00, 
	0x03, 0x00, 0x00, 0x00, 0x08, 0x00, 0x00, 0x00, 0x64, 0xf8, 0xff, 0xff, 
	0x24, 0x00, 0x00, 0x00, 0x73, 0x65, 0x71, 0x75, 0x65, 0x6e, 0x74, 0x69, 
	0x61, 0x6c, 0x5f, 0x31, 0x2f, 0x6d, 0x61, 0x78, 0x5f, 0x70, 0x6f, 0x6f, 
	0x6c, 0x69, 0x6e, 0x67, 0x32, 0x64, 0x5f, 0x35, 0x2f, 0x4d, 0x61, 0x78, 
	0x50, 0x6f, 0x6f, 0x6c, 0x00, 0x00, 0x00, 0x00, 0x04, 0x00, 0x00, 0x00, 
	0x01, 0x00, 0x00, 0x00, 0x03, 0x00, 0x00, 0x00, 0x03, 0x00, 0x00, 0x00, 
	0x08, 0x00, 0x00, 0x00, 0xee, 0xf8, 0xff, 0xff, 0x00, 0x00, 0x00, 0x01, 
	0x14, 0x00, 0x00, 0x00, 0x24, 0x00, 0x00, 0x00, 0x24, 0x00, 0x00, 0x00, 
	0x0f, 0x00, 0x00, 0x00, 0xa4, 0x00, 0x00, 0x00, 0x04, 0x00, 0x00, 0x00, 
	0xff, 0xff, 0xff, 0xff, 0x06, 0x00, 0x00, 0x00, 0x06, 0x00, 0x00, 0x00, 
	0x08, 0x00, 0x00, 0x00, 0xd8, 0xf8, 0xff, 0xff, 0x82, 0x00, 0x00, 0x00, 
	0x73, 0x65, 0x71, 0x75, 0x65, 0x6e, 0x74, 0x69, 0x61, 0x6c, 0x5f, 0x31, 
	0x2f, 0x63, 0x6f, 0x6e, 0x76, 0x32, 0x64, 0x5f, 0x35, 0x2f, 0x52, 0x65, 
	0x6c, 0x75, 0x3b, 0x73, 0x65, 0x71, 0x75, 0x65, 0x6e, 0x74, 0x69, 0x61, 
	0x6c, 0x5f, 0x31, 0x2f, 0x63, 0x6f, 0x6e, 0x76, 0x32, 0x64, 0x5f, 0x35, 
	0x2f, 0x42, 0x69, 0x61, 0x73, 0x41, 0x64, 0x64, 0x3b, 0x73, 0x65, 0x71, 
	0x75, 0x65, 0x6e, 0x74, 0x69, 0x61, 0x6c, 0x5f, 0x31, 0x2f, 0x63, 0x6f, 
	0x6e, 0x76, 0x32, 0x64, 0x5f, 0x35, 0x2f, 0x43, 0x6f, 0x6e, 0x76, 0x32, 
	0x44, 0x3b, 0x73, 0x65, 0x71, 0x75, 0x65, 0x6e, 0x74, 0x69, 0x61, 0x6c, 
	0x5f, 0x31, 0x2f, 0x63, 0x6f, 0x6e, 0x76, 0x32, 0x64, 0x5f, 0x35, 0x2f, 
	0x42, 0x69, 0x61, 0x73, 0x41, 0x64, 0x64, 0x2f, 0x52, 0x65, 0x61, 0x64, 
	0x56, 0x61, 0x72, 0x69, 0x61, 0x62, 0x6c, 0x65, 0x4f, 0x70, 0x00, 0x00, 
	0x04, 0x00, 0x00, 0x00, 0x01, 0x00, 0x00, 0x00, 0x06, 0x00, 0x00, 0x00, 
	0x06, 0x00, 0x00, 0x00, 0x08, 0x00, 0x00, 0x00, 0xbe, 0xf9, 0xff, 0xff, 
	0x00, 0x00, 0x00, 0x01, 0x14, 0x00, 0x00, 0x00, 0x24, 0x00, 0x00, 0x00, 
	0x24, 0x00, 0x00, 0x00, 0x0e, 0x00, 0x00, 0x00, 0x48, 0x00, 0x00, 0x00, 
	0x04, 0x00, 0x00, 0x00, 0xff, 0xff, 0xff, 0xff, 0x06, 0x00, 0x00, 0x00, 
	0x06, 0x00, 0x00, 0x00, 0x08, 0x00, 0x00, 0x00, 0xa8, 0xf9, 0xff, 0xff, 
	0x24, 0x00, 0x00, 0x00, 0x73, 0x65, 0x71, 0x75, 0x65, 0x6e, 0x74, 0x69, 
	0x61, 0x6c, 0x5f, 0x31, 0x2f, 0x6d, 0x61, 0x78, 0x5f, 0x70, 0x6f, 0x6f, 
	0x6c, 0x69, 0x6e, 0x67, 0x32, 0x64, 0x5f, 0x34, 0x2f, 0x4d, 0x61, 0x78, 
	0x50, 0x6f, 0x6f, 0x6c, 0x00, 0x00, 0x00, 0x00, 0x04, 0x00, 0x00, 0x00, 
	0x01, 0x00, 0x00, 0x00, 0x06, 0x00, 0x00, 0x00, 0x06, 0x00, 0x00, 0x00, 
	0x08, 0x00, 0x00, 0x00, 0x32, 0xfa, 0xff, 0xff, 0x00, 0x00, 0x00, 0x01, 
	0x14, 0x00, 0x00, 0x00, 0x24, 0x00, 0x00, 0x00, 0x24, 0x00, 0x00, 0x00, 
	0x0d, 0x00, 0x00, 0x00, 0xc0, 0x00, 0x00, 0x00, 0x04, 0x00, 0x00, 0x00, 
	0xff, 0xff, 0xff, 0xff, 0x0c, 0x00, 0x00, 0x00, 0x0c, 0x00, 0x00, 0x00, 
	0x08, 0x00, 0x00, 0x00, 0x1c, 0xfa, 0xff, 0xff, 0x9f, 0x00, 0x00, 0x00, 
	0x73, 0x65, 0x71, 0x75, 0x65, 0x6e, 0x74, 0x69, 0x61, 0x6c, 0x5f, 0x31, 
	0x2f, 0x63, 0x6f, 0x6e, 0x76, 0x32, 0x64, 0x5f, 0x34, 0x2f, 0x52, 0x65, 
	0x6c, 0x75, 0x3b, 0x73, 0x65, 0x71, 0x75, 0x65, 0x6e, 0x74, 0x69, 0x61, 
	0x6c, 0x5f, 0x31, 0x2f, 0x63, 0x6f, 0x6e, 0x76, 0x32, 0x64, 0x5f, 0x34, 
	0x2f, 0x42, 0x69, 0x61, 0x73, 0x41, 0x64, 0x64, 0x3b, 0x73, 0x65, 0x71, 
	0x75, 0x65, 0x6e, 0x74, 0x69, 0x61, 0x6c, 0x5f, 0x31, 0x2f, 0x63, 0x6f, 
	0x6e, 0x76, 0x32, 0x64, 0x5f, 0x35, 0x2f, 0x43, 0x6f, 0x6e, 0x76, 0x32, 
	0x44, 0x3b, 0x73, 0x65, 0x71, 0x75, 0x65, 0x6e, 0x74, 0x69, 0x61, 0x6c, 
	0x5f, 0x31, 0x2f, 0x63, 0x6f, 0x6e, 0x76, 0x32, 0x64, 0x5f, 0x34, 0x2f, 
	0x43, 0x6f, 0x6e, 0x76, 0x32, 0x44, 0x3b, 0x73, 0x65, 0x71, 0x75, 0x65, 
	0x6e, 0x74, 0x69, 0x61, 0x6c, 0x5f, 0x31, 0x2f, 0x63, 0x6f, 0x6e, 0x76, 
	0x32, 0x64, 0x5f, 0x34, 0x2f, 0x42, 0x69, 0x61, 0x73, 0x41, 0x64, 0x64, 
	0x2f, 0x52, 0x65, 0x61, 0x64, 0x56, 0x61, 0x72, 0x69, 0x61, 0x62, 0x6c, 
	0x65, 0x4f, 0x70, 0x00, 0x04, 0x00, 0x00, 0x00, 0x01, 0x00, 0x00, 0x00, 
	0x0c, 0x00, 0x00, 0x00, 0x0c, 0x00, 0x00, 0x00, 0x08, 0x00, 0x00, 0x00, 
	0x1e, 0xfb, 0xff, 0xff, 0x00, 0x00, 0x00, 0x01, 0x14, 0x00, 0x00, 0x00, 
	0x24, 0x00, 0x00, 0x00, 0x24, 0x00, 0x00, 0x00, 0x0c, 0x00, 0x00, 0x00, 
	0x48, 0x00, 0x00, 0x00, 0x04, 0x00, 0x00, 0x00, 0xff, 0xff, 0xff, 0xff, 
	0x0c, 0x00, 0x00, 0x00, 0x0c, 0x00, 0x00, 0x00, 0x20, 0x00, 0x00, 0x00, 
	0x08, 0xfb, 0xff, 0xff, 0x24, 0x00, 0x00, 0x00, 0x73, 0x65, 0x71, 0x75, 
	0x65, 0x6e, 0x74, 0x69, 0x61, 0x6c, 0x5f, 0x31, 0x2f, 0x6d, 0x61, 0x78, 
	0x5f, 0x70, 0x6f, 0x6f, 0x6c, 0x69, 0x6e, 0x67, 0x32, 0x64, 0x5f, 0x33, 
	0x2f, 0x4d, 0x61, 0x78, 0x50, 0x6f, 0x6f, 0x6c, 0x00, 0x00, 0x00, 0x00, 
	0x04, 0x00, 0x00, 0x00, 0x01, 0x00, 0x00, 0x00, 0x0c, 0x00, 0x00, 0x00, 
	0x0c, 0x00, 0x00, 0x00, 0x20, 0x00, 0x00, 0x00, 0x92, 0xfb, 0xff, 0xff, 
	0x00, 0x00, 0x00, 0x01, 0x14, 0x00, 0x00, 0x00, 0x24, 0x00, 0x00, 0x00, 
	0x24, 0x00, 0x00, 0x00, 0x0b, 0x00, 0x00, 0x00, 0xa4, 0x00, 0x00, 0x00, 
	0x04, 0x00, 0x00, 0x00, 0xff, 0xff, 0xff, 0xff, 0x18, 0x00, 0x00, 0x00, 
	0x18, 0x00, 0x00, 0x00, 0x20, 0x00, 0x00, 0x00, 0x7c, 0xfb, 0xff, 0xff, 
	0x82, 0x00, 0x00, 0x00, 0x73, 0x65, 0x71, 0x75, 0x65, 0x6e, 0x74, 0x69, 
	0x61, 0x6c, 0x5f, 0x31, 0x2f, 0x63, 0x6f, 0x6e, 0x76, 0x32, 0x64, 0x5f, 
	0x33, 0x2f, 0x52, 0x65, 0x6c, 0x75, 0x3b, 0x73, 0x65, 0x71, 0x75, 0x65, 
	0x6e, 0x74, 0x69, 0x61, 0x6c, 0x5f, 0x31, 0x2f, 0x63, 0x6f, 0x6e, 0x76, 
	0x32, 0x64, 0x5f, 0x33, 0x2f, 0x42, 0x69, 0x61, 0x73, 0x41, 0x64, 0x64, 
	0x3b, 0x73, 0x65, 0x71, 0x75, 0x65, 0x6e, 0x74, 0x69, 0x61, 0x6c, 0x5f, 
	0x31, 0x2f, 0x63, 0x6f, 0x6e, 0x76, 0x32, 0x64, 0x5f, 0x33, 0x2f, 0x43, 
	0x6f, 0x6e, 0x76, 0x32, 0x44, 0x3b, 0x73, 0x65, 0x71, 0x75, 0x65, 0x6e, 
	0x74, 0x69, 0x61, 0x6c, 0x5f, 0x31, 0x2f, 0x63, 0x6f, 0x6e, 0x76, 0x32, 
	0x64, 0x5f, 0x33, 0x2f, 0x42, 0x69, 0x61, 0x73, 0x41, 0x64, 0x64, 0x2f, 
	0x52, 0x65, 0x61, 0x64, 0x56, 0x61, 0x72, 0x69, 0x61, 0x62, 0x6c, 0x65, 
	0x4f, 0x70, 0x00, 0x00, 0x04, 0x00, 0x00, 0x00, 0x01, 0x00, 0x00, 0x00, 
	0x18, 0x00, 0x00, 0x00, 0x18, 0x00, 0x00, 0x00, 0x20, 0x00, 0x00, 0x00, 
	0x26, 0xfd, 0xff, 0xff, 0x00, 0x00, 0x00, 0x01, 0x20, 0x00, 0x00, 0x00, 
	0x90, 0x00, 0x00, 0x00, 0x0a, 0x00, 0x00, 0x00, 0x00, 0x00, 0x00, 0x09, 
	0xa8, 0x00, 0x00, 0x00, 0x0c, 0x00, 0x0c, 0x00, 0x00, 0x00, 0x00, 0x00, 
	0x08, 0x00, 0x04, 0x00, 0x0c, 0x00, 0x00, 0x00, 0x08, 0x00, 0x00, 0x00, 
	0x48, 0x00, 0x00, 0x00, 0x08, 0x00, 0x00, 0x00, 0x00, 0x00, 0x00, 0x00, 
	0x00, 0x00, 0x00, 0x00, 0x00, 0x00, 0x00, 0x00, 0x00, 0x00, 0x00, 0x00, 
	0x00, 0x00, 0x00, 0x00, 0x00, 0x00, 0x00, 0x00, 0x00, 0x00, 0x00, 0x00, 
	0x00, 0x00, 0x00, 0x00, 0x00, 0x00, 0x00, 0x00, 0x00, 0x00, 0x00, 0x00, 
	0x00, 0x00, 0x00, 0x00, 0x00, 0x00, 0x00, 0x00, 0x00, 0x00, 0x00, 0x00, 
	0x00, 0x00, 0x00, 0x00, 0x00, 0x00, 0x00, 0x00, 0x00, 0x00, 0x00, 0x00, 
	0x08, 0x00, 0x00, 0x00, 0x35, 0xbe, 0x8d, 0x3a, 0x59, 0x42, 0x8a, 0x3a, 
	0x66, 0x78, 0x9d, 0x3a, 0x25, 0x1b, 0x96, 0x3a, 0x00, 0xc8, 0x8f, 0x3a, 
	0x8e, 0x1b, 0x90, 0x3a, 0x90, 0xfe, 0xa1, 0x3a, 0xfd, 0x17, 0x88, 0x3a, 
	0x1c, 0x00, 0x00, 0x00, 0x73, 0x65, 0x71, 0x75, 0x65, 0x6e, 0x74, 0x69, 
	0x61, 0x6c, 0x5f, 0x31, 0x2f, 0x63, 0x6f, 0x6e, 0x76, 0x32, 0x64, 0x5f, 
	0x34, 0x2f, 0x43, 0x6f, 0x6e, 0x76, 0x32, 0x44, 0x00, 0x00, 0x00, 0x00, 
	0x04, 0x00, 0x00, 0x00, 0x08, 0x00, 0x00, 0x00, 0x03, 0x00, 0x00, 0x00, 
	0x03, 0x00, 0x00, 0x00, 0x20, 0x00, 0x00, 0x00, 0x96, 0xfd, 0xff, 0xff, 
	0x00, 0x00, 0x00, 0x01, 0x10, 0x00, 0x00, 0x00, 0x10, 0x00, 0x00, 0x00, 
	0x09, 0x00, 0x00, 0x00, 0x2c, 0x00, 0x00, 0x00, 0x08, 0xfd, 0xff, 0xff, 
	0x1c, 0x00, 0x00, 0x00, 0x73, 0x65, 0x71, 0x75, 0x65, 0x6e, 0x74, 0x69, 
	0x61, 0x6c, 0x5f, 0x31, 0x2f, 0x63, 0x6f, 0x6e, 0x76, 0x32, 0x64, 0x5f, 
	0x33, 0x2f, 0x43, 0x6f, 0x6e, 0x76, 0x32, 0x44, 0x00, 0x00, 0x00, 0x00, 
	0x04, 0x00, 0x00, 0x00, 0x20, 0x00, 0x00, 0x00, 0x03, 0x00, 0x00, 0x00, 
	0x03, 0x00, 0x00, 0x00, 0x01, 0x00, 0x00, 0x00, 0xea, 0xfd, 0xff, 0xff, 
	0x00, 0x00, 0x00, 0x01, 0x10, 0x00, 0x00, 0x00, 0x10, 0x00, 0x00, 0x00, 
	0x08, 0x00, 0x00, 0x00, 0x3c, 0x00, 0x00, 0x00, 0x5c, 0xfd, 0xff, 0xff, 
	0x2c, 0x00, 0x00, 0x00, 0x73, 0x65, 0x71, 0x75, 0x65, 0x6e, 0x74, 0x69, 
	0x61, 0x6c, 0x5f, 0x31, 0x2f, 0x63, 0x6f, 0x6e, 0x76, 0x32, 0x64, 0x5f, 
	0x35, 0x2f, 0x42, 0x69, 0x61, 0x73, 0x41, 0x64, 0x64, 0x2f, 0x52, 0x65, 
	0x61, 0x64, 0x56, 0x61, 0x72, 0x69, 0x61, 0x62, 0x6c, 0x65, 0x4f, 0x70, 
	0x00, 0x00, 0x00, 0x00, 0x01, 0x00, 0x00, 0x00, 0x08, 0x00, 0x00, 0x00, 
	0x42, 0xfe, 0xff, 0xff, 0x00, 0x00, 0x00, 0x01, 0x10, 0x00, 0x00, 0x00, 
	0x10, 0x00, 0x00, 0x00, 0x07, 0x00, 0x00, 0x00, 0x3c, 0x00, 0x00, 0x00, 
	0xb4, 0xfd, 0xff, 0xff, 0x2c, 0x00, 0x00, 0x00, 0x73, 0x65, 0x71, 0x75, 
	0x65, 0x6e, 0x74, 0x69, 0x61, 0x6c, 0x5f, 0x31, 0x2f, 0x63, 0x6f, 0x6e, 
	0x76, 0x32, 0x64, 0x5f, 0x34, 0x2f, 0x42, 0x69, 0x61, 0x73, 0x41, 0x64, 
	0x64, 0x2f, 0x52, 0x65, 0x61, 0x64, 0x56, 0x61, 0x72, 0x69, 0x61, 0x62, 
	0x6c, 0x65, 0x4f, 0x70, 0x00, 0x00, 0x00, 0x00, 0x01, 0x00, 0x00, 0x00, 
	0x08, 0x00, 0x00, 0x00, 0x9a, 0xfe, 0xff, 0xff, 0x00, 0x00, 0x00, 0x01, 
	0x10, 0x00, 0x00, 0x00, 0x10, 0x00, 0x00, 0x00, 0x06, 0x00, 0x00, 0x00, 
	0x3c, 0x00, 0x00, 0x00, 0x0c, 0xfe, 0xff, 0xff, 0x2c, 0x00, 0x00, 0x00, 
	0x73, 0x65, 0x71, 0x75, 0x65, 0x6e, 0x74, 0x69, 0x61, 0x6c, 0x5f, 0x31, 
	0x2f, 0x63, 0x6f, 0x6e, 0x76, 0x32, 0x64, 0x5f, 0x33, 0x2f, 0x42, 0x69, 
	0x61, 0x73, 0x41, 0x64, 0x64, 0x2f, 0x52, 0x65, 0x61, 0x64, 0x56, 0x61, 
	0x72, 0x69, 0x61, 0x62, 0x6c, 0x65, 0x4f, 0x70, 0x00, 0x00, 0x00, 0x00, 
	0x01, 0x00, 0x00, 0x00, 0x20, 0x00, 0x00, 0x00, 0xf2, 0xfe, 0xff, 0xff, 
	0x00, 0x00, 0x00, 0x01, 0x10, 0x00, 0x00, 0x00, 0x10, 0x00, 0x00, 0x00, 
	0x05, 0x00, 0x00, 0x00, 0x2c, 0x00, 0x00, 0x00, 0x64, 0xfe, 0xff, 0xff, 
	0x1c, 0x00, 0x00, 0x00, 0x73, 0x65, 0x71, 0x75, 0x65, 0x6e, 0x74, 0x69, 
	0x61, 0x6c, 0x5f, 0x31, 0x2f, 0x63, 0x6f, 0x6e, 0x76, 0x32, 0x64, 0x5f, 
	0x35, 0x2f, 0x43, 0x6f, 0x6e, 0x76, 0x32, 0x44, 0x00, 0x00, 0x00, 0x00, 
	0x04, 0x00, 0x00, 0x00, 0x08, 0x00, 0x00, 0x00, 0x03, 0x00, 0x00, 0x00, 
	0x03, 0x00, 0x00, 0x00, 0x08, 0x00, 0x00, 0x00, 0x46, 0xff, 0xff, 0xff, 
	0x00, 0x00, 0x00, 0x01, 0x10, 0x00, 0x00, 0x00, 0x10, 0x00, 0x00, 0x00, 
	0x04, 0x00, 0x00, 0x00, 0x38, 0x00, 0x00, 0x00, 0xb8, 0xfe, 0xff, 0xff, 
	0x2b, 0x00, 0x00, 0x00, 0x73, 0x65, 0x71, 0x75, 0x65, 0x6e, 0x74, 0x69, 
	0x61, 0x6c, 0x5f, 0x31, 0x2f, 0x64, 0x65, 0x6e, 0x73, 0x65, 0x5f, 0x31, 
	0x2f, 0x42, 0x69, 0x61, 0x73, 0x41, 0x64, 0x64, 0x2f, 0x52, 0x65, 0x61, 
	0x64, 0x56, 0x61, 0x72, 0x69, 0x61, 0x62, 0x6c, 0x65, 0x4f, 0x70, 0x00, 
	0x01, 0x00, 0x00, 0x00, 0x09, 0x00, 0x00, 0x00, 0x00, 0x00, 0x16, 0x00, 
	0x1c, 0x00, 0x18, 0x00, 0x17, 0x00, 0x10, 0x00, 0x0c, 0x00, 0x08, 0x00, 
	0x00, 0x00, 0x00, 0x00, 0x00, 0x00, 0x07, 0x00, 0x16, 0x00, 0x00, 0x00, 
	0x00, 0x00, 0x00, 0x01, 0x14, 0x00, 0x00, 0x00, 0x14, 0x00, 0x00, 0x00, 
	0x03, 0x00, 0x00, 0x00, 0x00, 0x00, 0x00, 0x02, 0x2c, 0x00, 0x00, 0x00, 
	0x28, 0xff, 0xff, 0xff, 0x1c, 0x00, 0x00, 0x00, 0x73, 0x65, 0x71, 0x75, 
	0x65, 0x6e, 0x74, 0x69, 0x61, 0x6c, 0x5f, 0x31, 0x2f, 0x66, 0x6c, 0x61, 
	0x74, 0x74, 0x65, 0x6e, 0x5f, 0x31, 0x2f, 0x43, 0x6f, 0x6e, 0x73, 0x74, 
	0x00, 0x00, 0x00, 0x00, 0x01, 0x00, 0x00, 0x00, 0x02, 0x00, 0x00, 0x00, 
	0x00, 0x00, 0x16, 0x00, 0x18, 0x00, 0x14, 0x00, 0x00, 0x00, 0x10, 0x00, 
	0x0c, 0x00, 0x08, 0x00, 0x00, 0x00, 0x00, 0x00, 0x00, 0x00, 0x07, 0x00, 
	0x16, 0x00, 0x00, 0x00, 0x00, 0x00, 0x00, 0x01, 0x10, 0x00, 0x00, 0x00, 
	0x10, 0x00, 0x00, 0x00, 0x02, 0x00, 0x00, 0x00, 0x28, 0x00, 0x00, 0x00, 
	0x88, 0xff, 0xff, 0xff, 0x1b, 0x00, 0x00, 0x00, 0x73, 0x65, 0x71, 0x75, 
	0x65, 0x6e, 0x74, 0x69, 0x61, 0x6c, 0x5f, 0x31, 0x2f, 0x64, 0x65, 0x6e, 
	0x73, 0x65, 0x5f, 0x31, 0x2f, 0x4d, 0x61, 0x74, 0x4d, 0x75, 0x6c, 0x00, 
	0x02, 0x00, 0x00, 0x00, 0x09, 0x00, 0x00, 0x00, 0x48, 0x00, 0x00, 0x00, 
	0x00, 0x00, 0x16, 0x00, 0x1c, 0x00, 0x18, 0x00, 0x00, 0x00, 0x14, 0x00, 
	0x10, 0x00, 0x0c, 0x00, 0x00, 0x00, 0x00, 0x00, 0x08, 0x00, 0x07, 0x00, 
	0x16, 0x00, 0x00, 0x00, 0x00, 0x00, 0x00, 0x01, 0x14, 0x00, 0x00, 0x00, 
	0x28, 0x00, 0x00, 0x00, 0x28, 0x00, 0x00, 0x00, 0x01, 0x00, 0x00, 0x00, 
	0x48, 0x00, 0x00, 0x00, 0x04, 0x00, 0x00, 0x00, 0xff, 0xff, 0xff, 0xff, 
	0x18, 0x00, 0x00, 0x00, 0x18, 0x00, 0x00, 0x00, 0x01, 0x00, 0x00, 0x00, 
	0x04, 0x00, 0x04, 0x00, 0x04, 0x00, 0x00, 0x00, 0x20, 0x00, 0x00, 0x00, 
	0x73, 0x65, 0x72, 0x76, 0x69, 0x6e, 0x67, 0x5f, 0x64, 0x65, 0x66, 0x61, 
	0x75, 0x6c, 0x74, 0x5f, 0x63, 0x6f, 0x6e, 0x76, 0x32, 0x64, 0x5f, 0x33, 
	0x5f, 0x69, 0x6e, 0x70, 0x75, 0x74, 0x3a, 0x30, 0x00, 0x00, 0x00, 0x00, 
	0x04, 0x00, 0x00, 0x00, 0x01, 0x00, 0x00, 0x00, 0x18, 0x00, 0x00, 0x00, 
	0x18, 0x00, 0x00, 0x00, 0x01, 0x00, 0x00, 0x00, 0x04, 0x00, 0x00, 0x00, 
	0x4c, 0x00, 0x00, 0x00, 0x30, 0x00, 0x00, 0x00, 0x14, 0x00, 0x00, 0x00, 
	0x04, 0x00, 0x00, 0x00, 0xe8, 0xff, 0xff, 0xff, 0x09, 0x00, 0x00, 0x00, 
	0x00, 0x00, 0x00, 0x09, 0xf4, 0xff, 0xff, 0xff, 0x16, 0x00, 0x00, 0x00, 
	0x00, 0x00, 0x00, 0x16, 0x0c, 0x00, 0x0c, 0x00, 0x0b, 0x00, 0x00, 0x00, 
	0x00, 0x00, 0x04, 0x00, 0x0c, 0x00, 0x00, 0x00, 0x11, 0x00, 0x00, 0x00, 
	0x00, 0x00, 0x00, 0x11, 0x0c, 0x00, 0x10, 0x00, 0x0f, 0x00, 0x00, 0x00, 
	0x08, 0x00, 0x04, 0x00, 0x0c, 0x00, 0x00, 0x00, 0x03, 0x00, 0x00, 0x00, 
	0x05, 0x00, 0x00, 0x00, 0x00, 0x00, 0x00, 0x03
};
const int integer_len = 12296;
