
#ifdef __has_attribute
#define HAVE_ATTRIBUTE(x) __has_attribute(x)
#else
#define HAVE_ATTRIBUTE(x) 0
#endif
#if HAVE_ATTRIBUTE(aligned) || (defined(__GNUC__) && !defined(__clang__))
#define DATA_ALIGN_ATTRIBUTE __attribute__((aligned(4)))
#else
#define DATA_ALIGN_ATTRIBUTE
#endif

const unsigned char integro[] DATA_ALIGN_ATTRIBUTE = {
	0x1c, 0x00, 0x00, 0x00, 0x54, 0x46, 0x4c, 0x33, 0x14, 0x00, 0x20, 0x00, 
	0x1c, 0x00, 0x18, 0x00, 0x14, 0x00, 0x10, 0x00, 0x0c, 0x00, 0x00, 0x00, 
	0x08, 0x00, 0x04, 0x00, 0x14, 0x00, 0x00, 0x00, 0x1c, 0x00, 0x00, 0x00, 
	0x88, 0x00, 0x00, 0x00, 0xe0, 0x00, 0x00, 0x00, 0x34, 0x12, 0x00, 0x00, 
	0x44, 0x12, 0x00, 0x00, 0xe0, 0x24, 0x00, 0x00, 0x03, 0x00, 0x00, 0x00, 
	0x01, 0x00, 0x00, 0x00, 0x04, 0x00, 0x00, 0x00, 0x12, 0xed, 0xff, 0xff, 
	0x0c, 0x00, 0x00, 0x00, 0x1c, 0x00, 0x00, 0x00, 0x38, 0x00, 0x00, 0x00, 
	0x0f, 0x00, 0x00, 0x00, 0x73, 0x65, 0x72, 0x76, 0x69, 0x6e, 0x67, 0x5f, 
	0x64, 0x65, 0x66, 0x61, 0x75, 0x6c, 0x74, 0x00, 0x01, 0x00, 0x00, 0x00, 
	0x04, 0x00, 0x00, 0x00, 0x94, 0xff, 0xff, 0xff, 0x13, 0x00, 0x00, 0x00, 
	0x04, 0x00, 0x00, 0x00, 0x07, 0x00, 0x00, 0x00, 0x64, 0x65, 0x6e, 0x73, 
	0x65, 0x5f, 0x31, 0x00, 0x01, 0x00, 0x00, 0x00, 0x04, 0x00, 0x00, 0x00, 
	0x52, 0xee, 0xff, 0xff, 0x04, 0x00, 0x00, 0x00, 0x0e, 0x00, 0x00, 0x00, 
	0x63, 0x6f, 0x6e, 0x76, 0x32, 0x64, 0x5f, 0x33, 0x5f, 0x69, 0x6e, 0x70, 
	0x75, 0x74, 0x00, 0x00, 0x02, 0x00, 0x00, 0x00, 0x34, 0x00, 0x00, 0x00, 
	0x04, 0x00, 0x00, 0x00, 0xdc, 0xff, 0xff, 0xff, 0x16, 0x00, 0x00, 0x00, 
	0x04, 0x00, 0x00, 0x00, 0x13, 0x00, 0x00, 0x00, 0x43, 0x4f, 0x4e, 0x56, 
	0x45, 0x52, 0x53, 0x49, 0x4f, 0x4e, 0x5f, 0x4d, 0x45, 0x54, 0x41, 0x44, 
	0x41, 0x54, 0x41, 0x00, 0x08, 0x00, 0x0c, 0x00, 0x08, 0x00, 0x04, 0x00, 
	0x08, 0x00, 0x00, 0x00, 0x15, 0x00, 0x00, 0x00, 0x04, 0x00, 0x00, 0x00, 
	0x13, 0x00, 0x00, 0x00, 0x6d, 0x69, 0x6e, 0x5f, 0x72, 0x75, 0x6e, 0x74, 
	0x69, 0x6d, 0x65, 0x5f, 0x76, 0x65, 0x72, 0x73, 0x69, 0x6f, 0x6e, 0x00, 
	0x17, 0x00, 0x00, 0x00, 0x50, 0x11, 0x00, 0x00, 0x48, 0x11, 0x00, 0x00, 
	0x30, 0x11, 0x00, 0x00, 0xf4, 0x10, 0x00, 0x00, 0x5c, 0x0e, 0x00, 0x00, 
	0x2c, 0x0e, 0x00, 0x00, 0xdc, 0x0b, 0x00, 0x00, 0xac, 0x0b, 0x00, 0x00, 
	0x9c, 0x02, 0x00, 0x00, 0x0c, 0x02, 0x00, 0x00, 0xdc, 0x00, 0x00, 0x00, 
	0xd4, 0x00, 0x00, 0x00, 0xcc, 0x00, 0x00, 0x00, 0xc4, 0x00, 0x00, 0x00, 
	0xbc, 0x00, 0x00, 0x00, 0xb4, 0x00, 0x00, 0x00, 0xac, 0x00, 0x00, 0x00, 
	0xa4, 0x00, 0x00, 0x00, 0x9c, 0x00, 0x00, 0x00, 0x94, 0x00, 0x00, 0x00, 
	0x8c, 0x00, 0x00, 0x00, 0x6c, 0x00, 0x00, 0x00, 0x04, 0x00, 0x00, 0x00, 
	0x2a, 0xef, 0xff, 0xff, 0x04, 0x00, 0x00, 0x00, 0x58, 0x00, 0x00, 0x00, 
	0x0c, 0x00, 0x00, 0x00, 0x08, 0x00, 0x0e, 0x00, 0x08, 0x00, 0x04, 0x00, 
	0x08, 0x00, 0x00, 0x00, 0x10, 0x00, 0x00, 0x00, 0x28, 0x00, 0x00, 0x00, 
	0x00, 0x00, 0x06, 0x00, 0x08, 0x00, 0x04, 0x00, 0x06, 0x00, 0x00, 0x00, 
	0x04, 0x00, 0x00, 0x00, 0x01, 0x00, 0x00, 0x00, 0xeb, 0x03, 0x00, 0x00, 
	0x00, 0x00, 0x0a, 0x00, 0x10, 0x00, 0x0c, 0x00, 0x08, 0x00, 0x04, 0x00, 
	0x0a, 0x00, 0x00, 0x00, 0x02, 0x00, 0x00, 0x00, 0x02, 0x00, 0x00, 0x00, 
	0x04, 0x00, 0x00, 0x00, 0x06, 0x00, 0x00, 0x00, 0x32, 0x2e, 0x31, 0x32, 
	0x2e, 0x30, 0x00, 0x00, 0x8e, 0xef, 0xff, 0xff, 0x04, 0x00, 0x00, 0x00, 
	0x10, 0x00, 0x00, 0x00, 0x31, 0x2e, 0x31, 0x34, 0x2e, 0x30, 0x00, 0x00, 
	0x00, 0x00, 0x00, 0x00, 0x00, 0x00, 0x00, 0x00, 0x18, 0xdd, 0xff, 0xff, 
	0x1c, 0xdd, 0xff, 0xff, 0x20, 0xdd, 0xff, 0xff, 0x24, 0xdd, 0xff, 0xff, 
	0x28, 0xdd, 0xff, 0xff, 0x2c, 0xdd, 0xff, 0xff, 0x30, 0xdd, 0xff, 0xff, 
	0x34, 0xdd, 0xff, 0xff, 0x38, 0xdd, 0xff, 0xff, 0x3c, 0xdd, 0xff, 0xff, 
	0xd2, 0xef, 0xff, 0xff, 0x04, 0x00, 0x00, 0x00, 0x20, 0x01, 0x00, 0x00, 
	0x57, 0xa4, 0x7f, 0x58, 0x44, 0x86, 0x09, 0xf8, 0x5d, 0x7f, 0xfb, 0x5b, 
	0xf4, 0x73, 0xf2, 0x05, 0x67, 0x5d, 0x7f, 0x34, 0x52, 0xbd, 0x22, 0x86, 
	0xb4, 0xe4, 0xa2, 0xd2, 0x7f, 0x1f, 0x3a, 0xde, 0x98, 0xb3, 0x10, 0x75, 
	0x7f, 0xd3, 0xa7, 0xde, 0xac, 0x16, 0x4a, 0x8c, 0x03, 0x81, 0xf2, 0xc2, 
	0x82, 0xc9, 0x93, 0x3f, 0xb8, 0x55, 0xa7, 0x2d, 0xb8, 0xa6, 0xa6, 0x7f, 
	0x91, 0xa8, 0xd4, 0x1b, 0x33, 0x81, 0x71, 0x09, 0x08, 0xde, 0xe7, 0x3b, 
	0xb7, 0x19, 0xf6, 0x7f, 0x8e, 0x17, 0xb3, 0x8a, 0xcf, 0xf6, 0xec, 0xca, 
	0x3f, 0x0b, 0x6a, 0x84, 0x7f, 0x39, 0x12, 0xf6, 0x64, 0xa7, 0xab, 0xa1, 
	0xf4, 0x7f, 0x8c, 0xb0, 0xc3, 0x99, 0x7f, 0x8f, 0x27, 0x98, 0x16, 0x1b, 
	0x06, 0xae, 0x32, 0xd9, 0xb9, 0xd4, 0x0f, 0x7f, 0xeb, 0x77, 0x06, 0x6d, 
	0x81, 0xd0, 0x2b, 0x41, 0x09, 0x95, 0xa7, 0x52, 0xec, 0xa6, 0x14, 0x28, 
	0xb8, 0xb6, 0x81, 0xd7, 0x2a, 0x35, 0xcb, 0x24, 0x7f, 0x7d, 0x49, 0x96, 
	0x69, 0x37, 0x81, 0xf8, 0x8a, 0xb4, 0xcf, 0x77, 0xa0, 0x15, 0x1c, 0x04, 
	0x48, 0x45, 0x28, 0x15, 0x59, 0x81, 0x51, 0x85, 0x4e, 0x17, 0xb8, 0x22, 
	0xab, 0x81, 0x7d, 0x3d, 0x7f, 0xf2, 0xcb, 0x83, 0xde, 0x62, 0xa0, 0xfc, 
	0xa8, 0x7f, 0xe3, 0x7f, 0xa7, 0xf9, 0xa4, 0xd6, 0xed, 0xc4, 0x46, 0x84, 
	0xa5, 0x73, 0xaf, 0x7f, 0x25, 0x0a, 0xe8, 0x89, 0x7f, 0x43, 0x26, 0x18, 
	0x72, 0xc3, 0x1e, 0xac, 0x55, 0xec, 0x81, 0xc7, 0x3a, 0x93, 0xb8, 0x52, 
	0x8d, 0x1f, 0x78, 0x3b, 0xa6, 0x7c, 0x7f, 0xff, 0xa8, 0x4e, 0x18, 0xef, 
	0xc1, 0x7f, 0x77, 0xa6, 0x9c, 0xec, 0x35, 0x81, 0xae, 0x2b, 0xee, 0xe8, 
	0x89, 0x9a, 0xd5, 0xb8, 0x6e, 0x5c, 0xea, 0x7f, 0xe6, 0x1d, 0x2e, 0xf7, 
	0x81, 0x74, 0x33, 0x6d, 0xdc, 0xdb, 0x0a, 0x53, 0x08, 0xcf, 0xfc, 0xd0, 
	0x81, 0x90, 0x41, 0x4f, 0xeb, 0x92, 0x58, 0x95, 0xad, 0x99, 0xfe, 0x91, 
	0x3c, 0x44, 0x81, 0xf1, 0x8a, 0xcc, 0x6e, 0x75, 0x3b, 0xe7, 0x7f, 0xce, 
	0xfe, 0xf0, 0xff, 0xff, 0x04, 0x00, 0x00, 0x00, 0x80, 0x00, 0x00, 0x00, 
	0x09, 0x00, 0x00, 0x00, 0x03, 0x00, 0x00, 0x00, 0x10, 0x00, 0x00, 0x00, 
	0xef, 0xff, 0xff, 0xff, 0xf4, 0xff, 0xff, 0xff, 0x02, 0x00, 0x00, 0x00, 
	0xfb, 0xff, 0xff, 0xff, 0xef, 0xff, 0xff, 0xff, 0x06, 0x00, 0x00, 0x00, 
	0xf7, 0xff, 0xff, 0xff, 0xeb, 0xff, 0xff, 0xff, 0x17, 0x00, 0x00, 0x00, 
	0x0b, 0x00, 0x00, 0x00, 0x05, 0x00, 0x00, 0x00, 0xf0, 0xff, 0xff, 0xff, 
	0xf2, 0xff, 0xff, 0xff, 0x12, 0x00, 0x00, 0x00, 0x01, 0x00, 0x00, 0x00, 
	0x2d, 0x00, 0x00, 0x00, 0xff, 0xff, 0xff, 0xff, 0x07, 0x00, 0x00, 0x00, 
	0x15, 0x00, 0x00, 0x00, 0xda, 0xff, 0xff, 0xff, 0xe8, 0xff, 0xff, 0xff, 
	0x00, 0x00, 0x00, 0x00, 0x08, 0x00, 0x00, 0x00, 0xff, 0xff, 0xff, 0xff, 
	0xf0, 0xff, 0xff, 0xff, 0x18, 0x00, 0x00, 0x00, 0xf7, 0xff, 0xff, 0xff, 
	0x0f, 0x00, 0x00, 0x00, 0xfd, 0xff, 0xff, 0xff, 0x8a, 0xf1, 0xff, 0xff, 
	0x04, 0x00, 0x00, 0x00, 0x00, 0x09, 0x00, 0x00, 0xf2, 0x05, 0x5f, 0x95, 
	0x49, 0x00, 0x02, 0x2e, 0x96, 0xe4, 0x3a, 0xbe, 0x3d, 0xac, 0x11, 0x0b, 
	0x42, 0xa1, 0x1e, 0xa1, 0xc6, 0xad, 0x13, 0xaa, 0x06, 0x6d, 0xa9, 0xb1, 
	0xc9, 0x10, 0xbc, 0xcb, 0xf1, 0xb7, 0x14, 0xdc, 0x41, 0x3a, 0xc2, 0xf6, 
	0x22, 0x69, 0xec, 0x40, 0xf2, 0x58, 0x28, 0x31, 0xc7, 0x45, 0xdd, 0x4d, 
	0x23, 0x12, 0xe3, 0xd5, 0xdf, 0xf6, 0xd4, 0xd1, 0xba, 0x5b, 0xdb, 0xfb, 
	0x91, 0x44, 0xce, 0x0f, 0xd7, 0x1d, 0x57, 0xb2, 0x39, 0xdf, 0x13, 0xd3, 
	0x4e, 0x3b, 0x01, 0x26, 0xd4, 0x0b, 0xdf, 0x21, 0xcd, 0x0b, 0x3f, 0xe5, 
	0x01, 0xdb, 0x45, 0x59, 0xc8, 0x88, 0xa8, 0xc7, 0xb5, 0xbf, 0x61, 0x4b, 
	0xdd, 0xfe, 0x27, 0xf3, 0x4b, 0x2e, 0x61, 0xe1, 0xf6, 0x92, 0xe1, 0xf6, 
	0x97, 0x61, 0x0d, 0x0f, 0x23, 0xdd, 0x2e, 0xa5, 0xa7, 0x09, 0xed, 0x20, 
	0x1d, 0x4f, 0x68, 0x35, 0xd5, 0xda, 0x15, 0xcf, 0x60, 0xb7, 0x37, 0x52, 
	0xc5, 0x01, 0xf3, 0x2b, 0xc9, 0x95, 0x60, 0x26, 0xa3, 0xb7, 0xac, 0xb7, 
	0xaf, 0x5e, 0xfd, 0x05, 0xf5, 0x0a, 0xc0, 0x69, 0xbf, 0xf4, 0xbd, 0xac, 
	0x66, 0xed, 0x2f, 0x0a, 0xba, 0xf8, 0x99, 0xe9, 0x20, 0xf5, 0xbd, 0x49, 
	0x15, 0x04, 0xfb, 0x1c, 0x2f, 0x00, 0x45, 0x24, 0x5b, 0xc2, 0xd7, 0x19, 
	0xd5, 0xa5, 0x47, 0x52, 0xc6, 0xb2, 0xfe, 0xd5, 0xa3, 0xa7, 0x33, 0x2e, 
	0xa2, 0x9f, 0x0b, 0xa7, 0x05, 0x93, 0x36, 0x92, 0xe9, 0xd6, 0x1b, 0x37, 
	0xbb, 0xef, 0xc1, 0x22, 0x3e, 0x10, 0x4e, 0xef, 0x01, 0x61, 0xd3, 0x90, 
	0x42, 0xd2, 0x01, 0x60, 0xa8, 0x3c, 0xee, 0x2c, 0xfe, 0x81, 0x7f, 0xdf, 
	0xfc, 0xad, 0xac, 0xb0, 0xf3, 0x41, 0xcc, 0x4f, 0x91, 0xa6, 0x91, 0x24, 
	0x4a, 0x4d, 0xc5, 0xe8, 0x3e, 0x43, 0xd3, 0x6b, 0xc5, 0x01, 0xb2, 0x5d, 
	0x3a, 0x54, 0xbc, 0x63, 0x10, 0xf8, 0xe7, 0x31, 0xe9, 0xb2, 0xbe, 0x42, 
	0x34, 0xf8, 0x19, 0xdb, 0x5a, 0xf6, 0x3b, 0x11, 0x47, 0xf5, 0xf8, 0xf0, 
	0x9c, 0x8d, 0x42, 0xb9, 0x04, 0x98, 0x0b, 0x02, 0xde, 0x6c, 0x50, 0xef, 
	0x51, 0x38, 0x09, 0xc7, 0x1b, 0xce, 0xd5, 0x98, 0x03, 0x70, 0x55, 0x5c, 
	0x1f, 0xc7, 0xcf, 0xec, 0x4f, 0xe1, 0x59, 0x78, 0x34, 0x02, 0xe9, 0x6d, 
	0xf9, 0xfc, 0x17, 0xcb, 0x97, 0xf7, 0xf3, 0x1e, 0x3d, 0xf6, 0x6c, 0x2f, 
	0xac, 0xf3, 0x53, 0x06, 0x49, 0x9c, 0xfd, 0xac, 0xfe, 0x29, 0xb9, 0xb5, 
	0xe7, 0xd0, 0x54, 0x06, 0xd3, 0x28, 0xaa, 0x54, 0x36, 0xc6, 0x07, 0xb1, 
	0x98, 0x5c, 0x58, 0x0b, 0x83, 0x15, 0xa3, 0xab, 0x9a, 0xf4, 0xc2, 0x4e, 
	0xfc, 0x3d, 0xcc, 0xb0, 0x34, 0x39, 0x01, 0xd8, 0xf6, 0xbb, 0xbf, 0x56, 
	0xa0, 0xc0, 0x44, 0xd1, 0x86, 0x49, 0x18, 0xf6, 0x02, 0x95, 0x3d, 0xca, 
	0x37, 0xe9, 0x2e, 0xdb, 0x1b, 0xdf, 0xf9, 0xd6, 0x5c, 0xd9, 0xc4, 0x2a, 
	0x67, 0x49, 0xf8, 0x97, 0x01, 0x95, 0x8d, 0xb7, 0xf9, 0xea, 0xbb, 0x13, 
	0x47, 0xd4, 0x70, 0xac, 0x18, 0x00, 0x29, 0xd0, 0xf2, 0xd8, 0x28, 0x5f, 
	0xed, 0xc2, 0xdb, 0xc2, 0x34, 0xaa, 0x5d, 0xaf, 0x9e, 0xa7, 0x44, 0xad, 
	0xf1, 0xf1, 0xf3, 0xb3, 0x4b, 0x9f, 0xd1, 0x67, 0xff, 0xdf, 0xfa, 0xec, 
	0x85, 0xad, 0xbf, 0x21, 0x2a, 0x2f, 0x63, 0x09, 0xf5, 0xa9, 0x13, 0x49, 
	0x2f, 0x8c, 0x23, 0x5f, 0xc1, 0x8b, 0x03, 0x1d, 0xd4, 0xbd, 0x35, 0xfa, 
	0x54, 0xe2, 0xc1, 0x48, 0x8e, 0xc0, 0xba, 0xd3, 0xcc, 0xa3, 0xa8, 0xad, 
	0x36, 0xf2, 0x00, 0x2d, 0x22, 0x9c, 0x4c, 0xb1, 0x4f, 0x9b, 0x7e, 0xa3, 
	0x3f, 0x45, 0x12, 0x28, 0xfc, 0x4c, 0xca, 0xee, 0xe7, 0xc5, 0xd3, 0x59, 
	0x4b, 0x5a, 0xc2, 0x4d, 0x05, 0x21, 0xeb, 0xb1, 0xcb, 0xda, 0x24, 0xd4, 
	0x7f, 0x23, 0x35, 0x6c, 0xf9, 0xe1, 0x6c, 0x22, 0x33, 0xa9, 0xd9, 0xd7, 
	0xae, 0x07, 0x2b, 0xbe, 0xd5, 0x18, 0x38, 0x1c, 0xea, 0xd0, 0xf6, 0x68, 
	0xb3, 0xd4, 0xb4, 0x2f, 0xd0, 0x51, 0x62, 0x5d, 0x14, 0x49, 0x1a, 0x10, 
	0xe9, 0xd0, 0x8f, 0xd0, 0xdd, 0x29, 0xe4, 0x30, 0xb1, 0xe8, 0x97, 0x17, 
	0xc8, 0xea, 0xef, 0xf9, 0xad, 0xc9, 0x5c, 0xbb, 0x45, 0x1a, 0xcd, 0x12, 
	0x5d, 0xcf, 0xf0, 0x22, 0x5d, 0xc8, 0x41, 0x43, 0x1f, 0x2c, 0xe6, 0x32, 
	0xf6, 0xd8, 0xc0, 0x42, 0xcc, 0xb2, 0xcd, 0xa8, 0x25, 0xbb, 0x1c, 0x05, 
	0xac, 0xd1, 0xf9, 0xca, 0x1c, 0x0e, 0x26, 0xa1, 0x02, 0xec, 0xdc, 0xa9, 
	0xbc, 0x3c, 0xe1, 0xa2, 0xc2, 0xcf, 0xe5, 0x2b, 0xc0, 0x2b, 0xe2, 0xa2, 
	0xdf, 0xe2, 0xb9, 0x25, 0x5a, 0x0c, 0xf0, 0x5b, 0xeb, 0x21, 0x50, 0xba, 
	0xf5, 0xb4, 0x4c, 0xf1, 0xf9, 0xa3, 0xa7, 0xd8, 0xf8, 0x19, 0x1b, 0xb8, 
	0x48, 0xeb, 0x14, 0xdb, 0xb3, 0xdf, 0x51, 0xfa, 0x21, 0x4f, 0x27, 0xbc, 
	0x3b, 0x1f, 0x64, 0xca, 0x2f, 0xb3, 0x26, 0xcb, 0x0c, 0xc6, 0x5d, 0xb4, 
	0x32, 0x13, 0xb3, 0xdf, 0x12, 0xe0, 0xe0, 0x54, 0x32, 0xbb, 0x10, 0xbe, 
	0x18, 0x02, 0xab, 0xa9, 0x0c, 0xdc, 0x48, 0xa5, 0xf5, 0xed, 0xa8, 0x30, 
	0x13, 0xfa, 0x18, 0xf9, 0x36, 0xe9, 0x01, 0xdd, 0x19, 0x4c, 0xf4, 0x30, 
	0xc9, 0xe7, 0x3e, 0x65, 0xdf, 0x5c, 0x04, 0xa6, 0x4b, 0xb5, 0x47, 0x9e, 
	0x30, 0x4a, 0x47, 0xdb, 0x08, 0xc9, 0x62, 0xae, 0xe1, 0xf0, 0xa1, 0x2f, 
	0xdb, 0xa5, 0xc4, 0xe8, 0x3f, 0x4b, 0x7f, 0x24, 0x1a, 0x28, 0xc1, 0xfb, 
	0x55, 0xa0, 0x35, 0xb2, 0x2b, 0x49, 0x16, 0x5e, 0xfc, 0xfe, 0xb2, 0x0d, 
	0xa1, 0xbc, 0x1b, 0x46, 0xde, 0x24, 0x3c, 0x04, 0xcb, 0xfe, 0x4d, 0xf0, 
	0x08, 0x14, 0xef, 0x64, 0x4e, 0xd8, 0xd0, 0xff, 0xc6, 0x2d, 0xd7, 0x12, 
	0xdd, 0xf1, 0x50, 0x5d, 0xcb, 0xdb, 0x14, 0x5d, 0xa9, 0x3e, 0x12, 0xe5, 
	0xbb, 0x36, 0xf8, 0xca, 0x3e, 0xab, 0x26, 0xf9, 0x37, 0x59, 0xc8, 0x98, 
	0x27, 0x33, 0xe8, 0x26, 0xff, 0x97, 0x4e, 0x1b, 0x40, 0xd4, 0x5b, 0xc9, 
	0xc0, 0x15, 0x0e, 0xff, 0x23, 0x33, 0xc4, 0xb8, 0xb6, 0x4b, 0x42, 0xe2, 
	0x0e, 0x51, 0x58, 0x2c, 0x54, 0x5d, 0xb4, 0x57, 0xa7, 0xa4, 0x0b, 0x0e, 
	0x4d, 0x4b, 0xc4, 0x4a, 0xbf, 0x09, 0x4a, 0xa7, 0x53, 0x19, 0x43, 0xad, 
	0x05, 0x1c, 0x0e, 0xdb, 0x02, 0x54, 0xf4, 0xa0, 0x5e, 0xc9, 0xd2, 0x9c, 
	0xec, 0x19, 0x02, 0x05, 0x3f, 0xa3, 0x5d, 0xd0, 0xd0, 0x5a, 0xf4, 0x0b, 
	0x31, 0xf9, 0x04, 0xa5, 0x2f, 0x10, 0xa0, 0xc5, 0xaa, 0x9a, 0x0e, 0xec, 
	0xb2, 0x49, 0xf0, 0xd4, 0x1c, 0xaf, 0x9e, 0xbb, 0x9c, 0x45, 0x64, 0xf7, 
	0x62, 0x26, 0xe4, 0xf5, 0xf4, 0xbf, 0x95, 0x03, 0xa9, 0x0b, 0xe2, 0xa0, 
	0xf7, 0x97, 0x63, 0xc1, 0xa9, 0xf7, 0x36, 0x9e, 0x2a, 0x1a, 0x3f, 0x07, 
	0x22, 0x34, 0x51, 0xf3, 0x16, 0x20, 0x17, 0x13, 0x6b, 0x60, 0x0a, 0xe2, 
	0x49, 0x98, 0xd5, 0x27, 0x4f, 0x3b, 0xfd, 0xbb, 0xfc, 0xb4, 0xf9, 0x16, 
	0xbe, 0x2b, 0x5e, 0x34, 0xb6, 0x46, 0xdf, 0x9f, 0xe4, 0x5e, 0x2f, 0x33, 
	0x5e, 0xdf, 0xc5, 0xf2, 0xd4, 0xe8, 0x18, 0xd3, 0x1b, 0xa5, 0x32, 0x1c, 
	0xef, 0x16, 0x8e, 0xbb, 0xd4, 0xca, 0x4f, 0x06, 0x2d, 0xc6, 0xb5, 0x4a, 
	0x06, 0x28, 0x40, 0x29, 0xb6, 0xc9, 0xf2, 0xe7, 0xf1, 0xd5, 0xa0, 0x43, 
	0xfc, 0x99, 0x06, 0x12, 0xf4, 0x3e, 0xc8, 0x56, 0x96, 0xa8, 0x0d, 0xed, 
	0x4b, 0x92, 0x3c, 0xda, 0x05, 0xba, 0xbf, 0x3b, 0xea, 0x30, 0xd6, 0x49, 
	0xf2, 0x01, 0xf6, 0xe0, 0x2d, 0x3c, 0x08, 0xf8, 0xbe, 0x13, 0xfe, 0x09, 
	0x1c, 0x15, 0xa3, 0x44, 0x07, 0x17, 0x1d, 0x0b, 0xf6, 0x33, 0x09, 0x3b, 
	0x35, 0x36, 0x25, 0x01, 0xc3, 0xc7, 0x61, 0x1a, 0x08, 0xd8, 0x0a, 0x4f, 
	0x1d, 0xca, 0xe3, 0xba, 0x52, 0xdc, 0x32, 0xdd, 0xd0, 0x99, 0xe2, 0x1f, 
	0xd3, 0x0f, 0x5b, 0xaa, 0xc4, 0x60, 0x50, 0x4d, 0x2a, 0xbe, 0x59, 0xaf, 
	0x38, 0x27, 0x5e, 0x12, 0x3f, 0x98, 0x5b, 0x26, 0xf3, 0xd0, 0xc6, 0x1a, 
	0x5c, 0x13, 0xb9, 0xf4, 0x2f, 0x32, 0x9a, 0xc2, 0x1a, 0x35, 0x7f, 0xf3, 
	0xea, 0x0e, 0xc9, 0x27, 0x40, 0x55, 0x16, 0x31, 0x5c, 0xee, 0xb3, 0xfc, 
	0x02, 0x03, 0xb5, 0xa0, 0x9f, 0xc1, 0x39, 0x0c, 0x0b, 0xaa, 0x14, 0x3e, 
	0xe3, 0xdb, 0x99, 0xa8, 0x9c, 0x1f, 0x50, 0x64, 0xe9, 0xda, 0xa7, 0xc1, 
	0x4c, 0x2a, 0xda, 0x1a, 0x39, 0x34, 0x15, 0xa4, 0xdd, 0xfb, 0xb5, 0x3c, 
	0x21, 0x04, 0x5b, 0xa7, 0x17, 0x4c, 0x15, 0x33, 0xd0, 0xf0, 0xde, 0x69, 
	0xc6, 0x2f, 0xac, 0x22, 0xfc, 0x24, 0x5b, 0x0c, 0xbe, 0x11, 0xfb, 0xd3, 
	0xf1, 0xcf, 0x69, 0xdd, 0x0e, 0xeb, 0x55, 0x56, 0x3a, 0x50, 0x99, 0x9e, 
	0x13, 0xfa, 0x4c, 0xeb, 0x02, 0xea, 0xf9, 0x1f, 0x40, 0x18, 0xb7, 0x58, 
	0x81, 0xa3, 0x5c, 0xe0, 0xaa, 0x2c, 0x3a, 0x04, 0xd4, 0xa4, 0xa8, 0xa5, 
	0xf0, 0x02, 0xda, 0xe7, 0xd7, 0x40, 0xc1, 0xeb, 0x0e, 0xf1, 0xf8, 0xd6, 
	0x0e, 0xae, 0x58, 0x3d, 0x28, 0x60, 0x41, 0x02, 0xf2, 0x26, 0xd8, 0xff, 
	0x58, 0x14, 0x96, 0x07, 0x67, 0xcb, 0xc2, 0xd3, 0x32, 0x10, 0xa5, 0xed, 
	0x58, 0xd9, 0x0a, 0x54, 0x15, 0xa3, 0xaa, 0xb7, 0xc0, 0x10, 0xbd, 0x9b, 
	0x31, 0x51, 0xf0, 0xb1, 0x19, 0xe5, 0x5f, 0x12, 0x36, 0x19, 0xfc, 0xbb, 
	0x68, 0x20, 0xe6, 0x4e, 0xbb, 0x19, 0xfd, 0xcb, 0xdf, 0x01, 0x5f, 0xb5, 
	0x5b, 0x17, 0x15, 0x3d, 0xa2, 0xc3, 0xd0, 0xc8, 0x62, 0xb8, 0x63, 0x22, 
	0x52, 0xca, 0x17, 0xf5, 0x2d, 0x63, 0xd7, 0x0d, 0x07, 0x19, 0xbd, 0xf8, 
	0x4c, 0xf4, 0xdc, 0xa1, 0x2b, 0x44, 0xda, 0xb0, 0x14, 0xaf, 0x38, 0x5d, 
	0x93, 0xfd, 0xee, 0xaf, 0x30, 0xd0, 0xf7, 0x19, 0xc7, 0x2a, 0xef, 0x0c, 
	0x09, 0xf3, 0xb8, 0xff, 0x0f, 0x4c, 0x02, 0x40, 0xd6, 0x08, 0x47, 0x57, 
	0x68, 0xcd, 0x17, 0xc8, 0x34, 0xd4, 0xf9, 0xe2, 0x37, 0x22, 0x5a, 0x95, 
	0xbe, 0xac, 0x33, 0x04, 0x8d, 0x45, 0xe3, 0x31, 0xd9, 0x2f, 0xd5, 0x22, 
	0x2b, 0x6b, 0x5f, 0x1d, 0x5d, 0xee, 0x12, 0x94, 0x3b, 0x88, 0x4c, 0xce, 
	0xf5, 0x54, 0x29, 0xbb, 0x8e, 0x53, 0xea, 0x5f, 0x1e, 0x4a, 0x99, 0xf4, 
	0x18, 0x92, 0x96, 0xb2, 0x00, 0x82, 0x56, 0x62, 0x32, 0x59, 0x63, 0x4f, 
	0xe4, 0x20, 0xe2, 0x07, 0x02, 0x19, 0xa2, 0x92, 0x54, 0x55, 0x50, 0xd4, 
	0x1e, 0x3b, 0xbf, 0x06, 0xb4, 0x49, 0x23, 0x14, 0xad, 0x3c, 0xa6, 0xd8, 
	0xb0, 0x10, 0x12, 0xa2, 0x12, 0x4c, 0xf0, 0x41, 0xaa, 0x2d, 0x2c, 0xab, 
	0x33, 0xb2, 0xd1, 0x68, 0xd2, 0x62, 0xef, 0x08, 0xf1, 0x14, 0x0d, 0x3a, 
	0x53, 0x54, 0x2d, 0x74, 0xcf, 0xee, 0xcd, 0xd0, 0xb1, 0x75, 0xfc, 0xcc, 
	0x03, 0x42, 0xb5, 0x08, 0x3f, 0x98, 0xc1, 0x63, 0x4b, 0xe9, 0x65, 0x46, 
	0xc6, 0xdb, 0xd1, 0x90, 0xd1, 0xf1, 0xb4, 0xb3, 0x94, 0xbe, 0x39, 0xff, 
	0x65, 0x1a, 0xd8, 0xbb, 0x04, 0xae, 0x2f, 0xfc, 0x05, 0x35, 0x06, 0xd7, 
	0x08, 0x97, 0x32, 0xe7, 0xe9, 0xab, 0x1b, 0x03, 0x39, 0x31, 0x2d, 0xce, 
	0x08, 0x64, 0x40, 0x1b, 0x7c, 0x53, 0xce, 0xd5, 0xee, 0x16, 0x3f, 0x0b, 
	0xf4, 0x36, 0x03, 0x00, 0xe7, 0xb3, 0x3c, 0x45, 0xcd, 0x16, 0x12, 0x1e, 
	0xf5, 0xb1, 0xb4, 0xc9, 0x7f, 0x04, 0xa2, 0x0f, 0xf9, 0x1b, 0x9c, 0xae, 
	0x5e, 0x3b, 0x66, 0x07, 0x21, 0x5a, 0x0b, 0xac, 0xe2, 0xbb, 0x10, 0x1a, 
	0xab, 0x38, 0x30, 0xc3, 0xda, 0xb5, 0x5a, 0xb5, 0xb7, 0x2e, 0x45, 0x67, 
	0xdf, 0x28, 0xcf, 0xad, 0x15, 0x5e, 0x29, 0x1f, 0x5c, 0x37, 0xca, 0x52, 
	0x3e, 0xd6, 0x44, 0xa6, 0x51, 0xd6, 0xf1, 0xec, 0x43, 0x5e, 0x67, 0x4e, 
	0x4a, 0xd9, 0x52, 0xdb, 0x6b, 0xc6, 0x0f, 0xb6, 0x5c, 0x2d, 0x2c, 0x1e, 
	0x47, 0x25, 0xa7, 0xcf, 0xf4, 0x2b, 0x67, 0x64, 0x7e, 0x55, 0xd4, 0xdf, 
	0x53, 0x46, 0x2f, 0x16, 0xf2, 0xa2, 0x6f, 0xea, 0xa8, 0x48, 0xe1, 0xf0, 
	0xf7, 0xd4, 0x30, 0x0f, 0x6c, 0x97, 0x6a, 0x14, 0x5a, 0x93, 0x5b, 0x23, 
	0xcd, 0xd2, 0x21, 0x15, 0x41, 0x46, 0xd7, 0x00, 0xde, 0x99, 0x08, 0x9a, 
	0x59, 0xc8, 0xca, 0x1a, 0xe7, 0xfd, 0xcf, 0x66, 0xd3, 0xa6, 0xcf, 0xd8, 
	0x66, 0xdc, 0xe9, 0xce, 0x3e, 0xc6, 0xf5, 0xc4, 0x4a, 0x5d, 0x18, 0x4e, 
	0x23, 0xe1, 0xc6, 0xbc, 0x0c, 0x3b, 0x9d, 0x36, 0xd0, 0xab, 0xf3, 0x5f, 
	0xe3, 0x43, 0x4a, 0xf8, 0x54, 0xe0, 0x20, 0xf8, 0xf5, 0x43, 0xa0, 0x09, 
	0xce, 0x5a, 0xd4, 0xb4, 0xfc, 0x59, 0xd6, 0xf5, 0xa0, 0x5d, 0xb1, 0xf9, 
	0x4b, 0xc4, 0xf7, 0x13, 0xb1, 0xaa, 0xb8, 0x69, 0xdc, 0x2d, 0x4f, 0xe8, 
	0x06, 0x25, 0xe4, 0xd9, 0xbd, 0xcb, 0xd2, 0x43, 0x51, 0xf3, 0xaa, 0x1f, 
	0xcd, 0xff, 0xdd, 0x53, 0x3a, 0xd8, 0xcb, 0x4b, 0x18, 0xa8, 0x3a, 0x10, 
	0x25, 0xa4, 0x26, 0xc5, 0x2e, 0x39, 0x30, 0x54, 0x36, 0xae, 0xab, 0xa4, 
	0x01, 0xbf, 0x59, 0x2a, 0xf4, 0x30, 0x54, 0x00, 0x0a, 0xbf, 0x03, 0xa1, 
	0xae, 0x3f, 0xe2, 0x93, 0xbd, 0xca, 0xe1, 0x29, 0x5c, 0x9f, 0x66, 0xef, 
	0xde, 0xb6, 0x1b, 0x47, 0x2d, 0xef, 0x2a, 0x55, 0x34, 0x9e, 0xd9, 0xeb, 
	0xac, 0xda, 0xf7, 0x59, 0x30, 0xc6, 0xa9, 0x59, 0xd9, 0x20, 0xe1, 0xf7, 
	0x51, 0x4e, 0x61, 0xb9, 0x11, 0xf9, 0x27, 0xb5, 0xb9, 0x1c, 0x2f, 0xbb, 
	0xfc, 0x08, 0x2d, 0xfa, 0xdc, 0x48, 0xce, 0xb3, 0xaf, 0x45, 0x3e, 0xe2, 
	0x1d, 0x3a, 0xd1, 0x3b, 0xf1, 0x09, 0xb9, 0x9e, 0x31, 0x02, 0xfd, 0x0b, 
	0x0f, 0x3e, 0x19, 0xe6, 0xf6, 0xd4, 0x4e, 0x21, 0xc4, 0xd2, 0x54, 0xc9, 
	0x0e, 0xc4, 0xd1, 0x9f, 0xba, 0x57, 0x46, 0x10, 0x64, 0x51, 0xe6, 0xd0, 
	0xc8, 0x22, 0x3e, 0x47, 0x38, 0x06, 0x1c, 0xd2, 0xf4, 0xee, 0xcb, 0xa8, 
	0x03, 0x07, 0x05, 0xbf, 0xd3, 0xba, 0x13, 0xee, 0xc4, 0x46, 0xa5, 0x01, 
	0x46, 0xe2, 0xcd, 0x20, 0x1c, 0x50, 0x81, 0xba, 0xea, 0x0d, 0x43, 0xea, 
	0x15, 0x08, 0xa3, 0xf6, 0x28, 0xb2, 0x1b, 0xc9, 0x50, 0xe2, 0xc9, 0x0d, 
	0xb5, 0x40, 0x23, 0xd5, 0x9a, 0x3d, 0x13, 0x4c, 0xe0, 0x36, 0x3f, 0xd3, 
	0xe0, 0x12, 0x2a, 0x35, 0x9d, 0xcf, 0xa7, 0x34, 0x19, 0x37, 0x25, 0xf8, 
	0x5c, 0x51, 0x08, 0x1a, 0x47, 0x52, 0x29, 0xad, 0xfd, 0xbf, 0xbb, 0x27, 
	0x92, 0xe6, 0xde, 0xd6, 0xec, 0xef, 0x34, 0x51, 0x09, 0xa5, 0x9c, 0xa3, 
	0xb3, 0x36, 0xdd, 0xd4, 0xc1, 0x19, 0x87, 0xaa, 0x45, 0x28, 0xf5, 0xfa, 
	0x3c, 0x2a, 0x4d, 0x17, 0xb2, 0xcb, 0x55, 0xaa, 0xb1, 0x12, 0xe5, 0x4f, 
	0x2c, 0x3c, 0xc7, 0x42, 0xcd, 0x15, 0xda, 0x20, 0x1c, 0xa7, 0x4d, 0xd2, 
	0xe8, 0xa1, 0xda, 0xfd, 0xaa, 0xa9, 0xc9, 0x52, 0xef, 0xf7, 0x60, 0xc6, 
	0x97, 0xf8, 0xe4, 0xab, 0x67, 0xe4, 0xb9, 0xc7, 0xf4, 0x2a, 0xb5, 0x8b, 
	0xc0, 0x37, 0x32, 0x04, 0x63, 0x10, 0x17, 0x99, 0x5f, 0xbf, 0xc3, 0xc4, 
	0xb4, 0x1e, 0xc8, 0x6c, 0x3f, 0xf5, 0xfb, 0xff, 0x16, 0x38, 0xd4, 0xa4, 
	0xe9, 0xbb, 0x51, 0x58, 0x4a, 0xf8, 0x91, 0x87, 0x2c, 0x27, 0x29, 0xe2, 
	0x6a, 0x77, 0xff, 0xb7, 0x02, 0xfd, 0x59, 0xe1, 0xb8, 0xf8, 0x6a, 0x24, 
	0xdf, 0xdc, 0x07, 0x47, 0xc7, 0xec, 0x29, 0x8f, 0xf6, 0xc4, 0xf3, 0xdb, 
	0x19, 0x26, 0x5c, 0x5f, 0x51, 0xba, 0x61, 0x16, 0x7b, 0x73, 0xd2, 0x0c, 
	0x1e, 0x10, 0xcf, 0x61, 0x23, 0x38, 0xaa, 0xa8, 0xc8, 0x66, 0x23, 0x15, 
	0x1d, 0xe2, 0x40, 0xb8, 0x30, 0xa0, 0x94, 0xd9, 0xd8, 0x59, 0xce, 0x53, 
	0x5a, 0xf0, 0xaf, 0x4d, 0x40, 0xfa, 0xaf, 0x25, 0xf2, 0x1c, 0xd1, 0xf0, 
	0x1e, 0xb0, 0x49, 0xf2, 0x37, 0x1b, 0x2b, 0xed, 0x3d, 0x18, 0xa5, 0xa2, 
	0x24, 0x33, 0x05, 0x1b, 0xe8, 0x27, 0x66, 0xc0, 0x27, 0x3a, 0xde, 0xef, 
	0xbb, 0x01, 0x40, 0x43, 0x8f, 0xac, 0xdf, 0xda, 0x0e, 0x42, 0xa1, 0x13, 
	0x4a, 0x3b, 0xee, 0xb6, 0x5d, 0x0a, 0x0a, 0x9c, 0xa8, 0x90, 0x2c, 0x19, 
	0xa5, 0x1c, 0xf8, 0x04, 0x6d, 0x62, 0xd8, 0xa9, 0x1e, 0x2e, 0x9d, 0x74, 
	0x5d, 0xab, 0x6a, 0x24, 0x6b, 0x9c, 0xae, 0x8c, 0xd3, 0xf7, 0x5f, 0x64, 
	0x6e, 0xc1, 0xc9, 0xea, 0x2e, 0xb4, 0x3e, 0xae, 0x12, 0x06, 0x3c, 0x89, 
	0xed, 0xf7, 0x1d, 0x2c, 0xc8, 0xa1, 0xfd, 0x15, 0x37, 0x12, 0x5b, 0x0c, 
	0x3f, 0x6f, 0xc7, 0xce, 0xa4, 0x87, 0xdf, 0x3e, 0xb6, 0x9a, 0xdf, 0xf8, 
	0xcf, 0x3b, 0x54, 0x66, 0x44, 0x56, 0x90, 0xf9, 0x3c, 0x11, 0x2a, 0x93, 
	0xb1, 0xcc, 0x9b, 0xae, 0x32, 0xae, 0xa2, 0xf0, 0x5e, 0x54, 0x81, 0x42, 
	0x56, 0x2c, 0x5c, 0xa4, 0xb8, 0xda, 0x45, 0xab, 0x14, 0x8e, 0xb3, 0xf3, 
	0xa2, 0x2f, 0x18, 0x0f, 0xfa, 0xb4, 0xd3, 0x47, 0x37, 0xdb, 0xf9, 0x94, 
	0xc6, 0xb4, 0x64, 0x09, 0xcc, 0xdc, 0x76, 0xaf, 0x96, 0xfa, 0xff, 0xff, 
	0x04, 0x00, 0x00, 0x00, 0x20, 0x00, 0x00, 0x00, 0xfd, 0xff, 0xff, 0xff, 
	0xf3, 0xff, 0xff, 0xff, 0xfe, 0xff, 0xff, 0xff, 0xf9, 0xff, 0xff, 0xff, 
	0x1f, 0x00, 0x00, 0x00, 0x06, 0x00, 0x00, 0x00, 0x11, 0x00, 0x00, 0x00, 
	0xfb, 0xff, 0xff, 0xff, 0xc2, 0xfa, 0xff, 0xff, 0x04, 0x00, 0x00, 0x00, 
	0x40, 0x02, 0x00, 0x00, 0x9d, 0x21, 0xb1, 0x4e, 0x97, 0x1c, 0xac, 0x92, 
	0x18, 0x1d, 0x2f, 0x8b, 0xa4, 0x92, 0xc0, 0x2d, 0xeb, 0x3c, 0x3c, 0x81, 
	0x48, 0xda, 0xc2, 0xdd, 0x5c, 0x5f, 0xca, 0x4c, 0x5a, 0xf9, 0x01, 0x8f, 
	0xce, 0xd5, 0xc5, 0x9c, 0xe7, 0xd4, 0x91, 0xbe, 0x43, 0x3f, 0xc7, 0xa6, 
	0x3f, 0x1d, 0xd2, 0x6f, 0xa7, 0x3e, 0x82, 0xe6, 0x67, 0x2d, 0xb3, 0x68, 
	0x68, 0xd3, 0xfb, 0x13, 0x21, 0xdb, 0xc1, 0xda, 0xeb, 0xea, 0x35, 0x0b, 
	0x9c, 0x4f, 0x4e, 0x6a, 0x11, 0x52, 0x22, 0x33, 0x00, 0x2a, 0x4f, 0xdf, 
	0xd6, 0x9a, 0x81, 0x6a, 0xc7, 0xad, 0x6d, 0xc7, 0xaa, 0x3e, 0x15, 0xfd, 
	0xa6, 0x9c, 0xfa, 0x1e, 0x5c, 0x30, 0x48, 0x69, 0xc6, 0x43, 0xf0, 0x06, 
	0xa7, 0x08, 0x03, 0x44, 0x4f, 0x5e, 0xc9, 0x58, 0x06, 0x6b, 0x06, 0x16, 
	0x9e, 0xa0, 0xe8, 0x38, 0x1e, 0xd0, 0x93, 0xb4, 0x93, 0x2d, 0xc8, 0xbb, 
	0x05, 0x63, 0x55, 0x3e, 0xd8, 0xd4, 0x99, 0xef, 0x28, 0xbc, 0xd7, 0x5b, 
	0x03, 0x0b, 0xd3, 0xe4, 0xd7, 0xdf, 0x53, 0xc9, 0x12, 0xe8, 0xd7, 0xb7, 
	0x1f, 0x26, 0x8f, 0x6f, 0x31, 0xc7, 0x8a, 0xb6, 0x91, 0x3a, 0x12, 0x0b, 
	0xf7, 0xcc, 0x81, 0x99, 0x1f, 0xf0, 0xed, 0x9b, 0x59, 0x28, 0x5b, 0x91, 
	0x52, 0xbf, 0x34, 0x6c, 0x0b, 0xdb, 0xbf, 0x1c, 0xf1, 0x0c, 0xbb, 0x56, 
	0x1d, 0xb5, 0xf2, 0x23, 0x91, 0xc7, 0xc1, 0xfd, 0xd1, 0xbe, 0xa8, 0x2d, 
	0x39, 0xdc, 0x65, 0x1e, 0x56, 0x98, 0x34, 0xf8, 0x5b, 0x5d, 0xdd, 0xd5, 
	0x8e, 0xc0, 0x3a, 0x9d, 0x91, 0xdc, 0xeb, 0xcd, 0xad, 0x4d, 0xfa, 0x68, 
	0xde, 0x79, 0x3d, 0x2c, 0x03, 0x2b, 0xf3, 0xe1, 0x97, 0xb1, 0x2b, 0x37, 
	0x62, 0x82, 0x4b, 0xe3, 0x6f, 0x94, 0xe8, 0x71, 0xe8, 0xda, 0x35, 0x92, 
	0x89, 0x7a, 0x36, 0xf1, 0x9a, 0xe7, 0x0f, 0x42, 0x39, 0x7a, 0x7c, 0x93, 
	0x15, 0xf5, 0x9f, 0x79, 0x17, 0x0d, 0xf6, 0x35, 0xee, 0xda, 0x09, 0xd3, 
	0xdf, 0x81, 0xa7, 0x72, 0x1b, 0x66, 0x90, 0x74, 0xea, 0xea, 0x53, 0x5b, 
	0x8c, 0x27, 0x10, 0x77, 0xf7, 0x0a, 0x0e, 0x71, 0xba, 0xb3, 0x83, 0xa9, 
	0xd0, 0x08, 0xd0, 0x75, 0xab, 0x8c, 0x6a, 0xfc, 0xbe, 0xb7, 0x63, 0x60, 
	0x25, 0x42, 0xb0, 0xb7, 0x04, 0x89, 0x4b, 0x33, 0x36, 0x1d, 0x5d, 0x05, 
	0x81, 0x57, 0x82, 0x5e, 0x91, 0xa4, 0xa9, 0xf4, 0xec, 0x39, 0x3f, 0xad, 
	0x09, 0x2a, 0x21, 0x74, 0xdb, 0x5f, 0x40, 0xe2, 0x8a, 0x4e, 0xa3, 0xbe, 
	0x9e, 0x65, 0xd1, 0x11, 0xff, 0xdb, 0x47, 0xb0, 0xd3, 0xce, 0x50, 0xeb, 
	0xb4, 0xa8, 0xa3, 0x77, 0xb9, 0xc2, 0xa4, 0xa8, 0xaa, 0x19, 0x42, 0xc9, 
	0x9c, 0xdb, 0xed, 0x62, 0x81, 0xa8, 0xbb, 0x88, 0x69, 0x22, 0xb2, 0x27, 
	0xd1, 0xb6, 0xf4, 0x16, 0xba, 0x96, 0x4b, 0xbf, 0xd3, 0x8d, 0x4d, 0x47, 
	0xbe, 0xb8, 0xa6, 0xee, 0xab, 0x4c, 0x18, 0x91, 0xcf, 0x48, 0x42, 0x89, 
	0xb6, 0x3f, 0x96, 0x39, 0x23, 0x7d, 0x25, 0x0c, 0x10, 0xfe, 0x59, 0x49, 
	0x11, 0x3e, 0x5e, 0xc6, 0x5e, 0xbc, 0xb7, 0x0c, 0xc5, 0x51, 0x9e, 0xac, 
	0x3a, 0xed, 0x31, 0x68, 0x02, 0xc5, 0xad, 0x69, 0x8a, 0xb2, 0x34, 0x25, 
	0x54, 0xdd, 0x15, 0x4a, 0xaf, 0x28, 0x11, 0x94, 0xc0, 0x6e, 0xc5, 0xfb, 
	0x26, 0xdc, 0x17, 0xdd, 0x13, 0x06, 0x5e, 0x68, 0x06, 0x24, 0x2d, 0xb6, 
	0x3e, 0x5f, 0x22, 0xc7, 0x43, 0xc3, 0xa2, 0x10, 0xea, 0xcd, 0xdd, 0x1a, 
	0x0e, 0xf6, 0xdd, 0xe7, 0x16, 0x4e, 0xde, 0x7f, 0x29, 0x4b, 0xb2, 0xed, 
	0x8c, 0xd2, 0x70, 0xd4, 0xb6, 0x76, 0x10, 0x0e, 0xa3, 0xcc, 0xe1, 0xa7, 
	0x3f, 0x27, 0xe5, 0xe8, 0xd9, 0xea, 0x1e, 0xdd, 0xc8, 0xec, 0x9c, 0x22, 
	0x90, 0x48, 0xba, 0xe3, 0x6c, 0xa0, 0xb2, 0x09, 0x2f, 0xc6, 0xd6, 0x2e, 
	0x3a, 0x5a, 0x1c, 0xf1, 0xe1, 0x0d, 0x81, 0xbc, 0xef, 0xc2, 0x25, 0x13, 
	0xb2, 0xce, 0xcf, 0xf3, 0xeb, 0xdd, 0x56, 0x6a, 0xd6, 0xf9, 0xd5, 0xc9, 
	0x68, 0xe9, 0xeb, 0xc4, 0xb2, 0x2a, 0x0b, 0xcb, 0x30, 0xb2, 0x52, 0x64, 
	0x97, 0xfb, 0x8b, 0xa0, 0xd1, 0x2e, 0x25, 0x1a, 0xcd, 0x5f, 0x15, 0xc0, 
	0x57, 0xeb, 0xfa, 0xc6, 0x0e, 0xfd, 0xff, 0xff, 0x04, 0x00, 0x00, 0x00, 
	0x20, 0x00, 0x00, 0x00, 0xf2, 0xff, 0xff, 0xff, 0x1c, 0x00, 0x00, 0x00, 
	0xa7, 0xff, 0xff, 0xff, 0xe9, 0xff, 0xff, 0xff, 0xc1, 0xff, 0xff, 0xff, 
	0x72, 0xff, 0xff, 0xff, 0x1c, 0x00, 0x00, 0x00, 0x52, 0x00, 0x00, 0x00, 
	0x3a, 0xfd, 0xff, 0xff, 0x04, 0x00, 0x00, 0x00, 0x88, 0x02, 0x00, 0x00, 
	0x29, 0xf0, 0xd8, 0xf0, 0xbc, 0x4f, 0x2c, 0x14, 0x29, 0xf6, 0x0a, 0x15, 
	0xbb, 0xdc, 0xde, 0x03, 0x46, 0x49, 0x2c, 0xfb, 0x21, 0xe4, 0xf8, 0xc4, 
	0x34, 0xcf, 0x08, 0xfe, 0x0b, 0x32, 0xe7, 0xc3, 0xb3, 0x50, 0x20, 0xdb, 
	0x06, 0x47, 0xb1, 0x38, 0xc2, 0x0b, 0xde, 0x53, 0xcc, 0x40, 0xb4, 0xeb, 
	0x47, 0x44, 0x18, 0x38, 0xb9, 0x14, 0x25, 0x56, 0x4f, 0x56, 0x52, 0x25, 
	0x07, 0x3d, 0x21, 0x1b, 0xfa, 0xeb, 0xd0, 0xd3, 0x4c, 0xbc, 0xdc, 0x42, 
	0x1d, 0xb4, 0x30, 0xb9, 0xb7, 0x00, 0xf0, 0x4a, 0xdb, 0x06, 0xb6, 0x16, 
	0xb9, 0x0b, 0x30, 0x0f, 0x4a, 0xe4, 0xd3, 0x02, 0x48, 0x02, 0xf7, 0x15, 
	0x19, 0xb5, 0xfb, 0x08, 0x04, 0x32, 0xe9, 0xb4, 0xbc, 0x42, 0x35, 0xb8, 
	0x18, 0xdd, 0x2f, 0x2e, 0x42, 0xf3, 0x24, 0xcc, 0x4a, 0x30, 0x3f, 0xee, 
	0x40, 0xb1, 0x11, 0xf3, 0x20, 0x10, 0x02, 0x1e, 0xe2, 0x3e, 0x24, 0xb0, 
	0xf6, 0xb5, 0x08, 0x05, 0xc2, 0xcb, 0xd3, 0x20, 0xfa, 0x17, 0x3d, 0x3d, 
	0x04, 0x12, 0xf7, 0x26, 0x2d, 0xb9, 0x10, 0xcc, 0xb9, 0xb0, 0x12, 0xe5, 
	0xb6, 0x56, 0x37, 0x13, 0x4c, 0x23, 0x23, 0x0c, 0xda, 0x30, 0x3e, 0xf6, 
	0x13, 0x55, 0xda, 0x4c, 0x4b, 0x56, 0xe7, 0x1b, 0xe7, 0x15, 0x56, 0x00, 
	0xf9, 0xc9, 0x12, 0xcf, 0x5a, 0xc3, 0xbe, 0x40, 0x35, 0xc4, 0x49, 0xe1, 
	0xb7, 0xae, 0x50, 0x41, 0xbf, 0x23, 0x29, 0x28, 0xe2, 0x16, 0xe4, 0x29, 
	0xba, 0xd2, 0xb8, 0x2e, 0x3d, 0xf5, 0x4a, 0x28, 0xdf, 0xeb, 0x24, 0x2a, 
	0xf5, 0x23, 0x2d, 0x54, 0xb9, 0x13, 0x24, 0xfa, 0xe3, 0xda, 0xce, 0xc5, 
	0x09, 0x0d, 0x09, 0x21, 0x4d, 0xed, 0x14, 0x17, 0xd2, 0x11, 0x15, 0x40, 
	0x1a, 0xf6, 0xd5, 0x0c, 0xd5, 0xe8, 0x40, 0x2a, 0xc8, 0x0c, 0x22, 0x50, 
	0x2a, 0x17, 0x40, 0xdf, 0x0a, 0x4f, 0xe5, 0x32, 0xd0, 0x21, 0xd7, 0xe7, 
	0x26, 0x06, 0xb2, 0xc2, 0x3c, 0xec, 0x26, 0xe8, 0xbb, 0x46, 0x4f, 0x02, 
	0x03, 0x2c, 0xd7, 0x0d, 0xde, 0x55, 0xbe, 0xc5, 0x28, 0x43, 0xc4, 0xee, 
	0xb0, 0xf5, 0xc9, 0xd1, 0xf1, 0xfc, 0xf6, 0x29, 0xab, 0xae, 0x16, 0x03, 
	0xda, 0xd7, 0x91, 0x11, 0xf8, 0xfb, 0xbd, 0x3c, 0xd1, 0xfb, 0xad, 0x2a, 
	0xe8, 0xbc, 0xa7, 0x2f, 0x45, 0xd4, 0x81, 0xe4, 0x18, 0x16, 0xf8, 0xe5, 
	0xbc, 0x33, 0xe2, 0x0f, 0x0b, 0x0e, 0xb5, 0xe7, 0xc9, 0x46, 0xdf, 0xc1, 
	0x2f, 0x36, 0x48, 0x0c, 0x09, 0x06, 0x16, 0xe3, 0x16, 0x24, 0x44, 0xc6, 
	0xb2, 0x19, 0xaf, 0xcb, 0xe2, 0x06, 0xfe, 0xae, 0x06, 0x01, 0x2a, 0xa1, 
	0xc7, 0x1b, 0xf4, 0x26, 0xde, 0x04, 0xf5, 0xeb, 0xe5, 0xf2, 0xf8, 0x3c, 
	0x36, 0x2a, 0x3b, 0x0f, 0xcb, 0x24, 0xd2, 0x2e, 0xef, 0x3b, 0xcf, 0x0d, 
	0xbe, 0xf8, 0x25, 0xc5, 0xe0, 0x12, 0xf0, 0xed, 0xe8, 0x43, 0xb9, 0x14, 
	0xd0, 0x53, 0x39, 0xb3, 0xfa, 0xf8, 0xf9, 0x1e, 0xde, 0xe6, 0xd8, 0xb4, 
	0x20, 0xfe, 0x2a, 0x2d, 0x18, 0xb6, 0x11, 0xab, 0x01, 0x1c, 0xce, 0x54, 
	0xda, 0x13, 0x38, 0xf0, 0xe0, 0x23, 0x25, 0xb4, 0xe7, 0x08, 0xed, 0xe0, 
	0x3a, 0x16, 0xff, 0xbf, 0x0d, 0xbf, 0x1a, 0x0c, 0x2d, 0xcf, 0x33, 0x2c, 
	0x03, 0xd1, 0xbb, 0xed, 0xe1, 0x33, 0xb7, 0xc6, 0xc7, 0xec, 0xf4, 0xb3, 
	0x48, 0x40, 0xe2, 0x1f, 0xdb, 0xd6, 0xfe, 0x25, 0xfc, 0x3e, 0x13, 0x1f, 
	0xbc, 0xd6, 0x97, 0xae, 0x30, 0x27, 0xda, 0xd5, 0x11, 0x0d, 0x42, 0xd3, 
	0xc9, 0xf5, 0xc7, 0x34, 0x33, 0xfc, 0x15, 0xe5, 0xa6, 0x4e, 0x1e, 0xab, 
	0xab, 0xe6, 0xb7, 0xb9, 0x15, 0x45, 0xbe, 0x31, 0x0f, 0x3d, 0xba, 0x33, 
	0xb4, 0xb8, 0x9c, 0xe0, 0xe7, 0x21, 0xfd, 0x90, 0x34, 0xc5, 0xf0, 0xf4, 
	0x2a, 0x05, 0xe4, 0x83, 0xf3, 0x94, 0xd3, 0x20, 0xfc, 0x41, 0xd9, 0x22, 
	0x1c, 0xf7, 0xf5, 0x11, 0xc0, 0x0e, 0xc7, 0x2e, 0xdd, 0x2c, 0x44, 0x3a, 
	0xc9, 0xe3, 0x95, 0x8b, 0xcd, 0xc1, 0xa2, 0x1f, 0xf6, 0xf9, 0x91, 0x17, 
	0xaa, 0x0f, 0x0a, 0xef, 0xad, 0x00, 0x21, 0x85, 0x0e, 0xb0, 0xc5, 0xf5, 
	0xe1, 0xf9, 0xd4, 0x12, 0xef, 0xe3, 0xe7, 0xd4, 0x3c, 0x23, 0xf4, 0x83, 
	0x18, 0x38, 0xd1, 0xad, 0xd1, 0xd1, 0x8c, 0x2b, 0xec, 0xe6, 0xf4, 0xd5, 
	0xa9, 0xc5, 0x81, 0xb5, 0x0a, 0xe5, 0xce, 0x22, 0xf1, 0x25, 0xf4, 0xe7, 
	0x0d, 0x51, 0xaf, 0xbe, 0x1d, 0xcd, 0xf8, 0xde, 0xe6, 0x07, 0x17, 0xc5, 
	0xce, 0x14, 0xcf, 0xe2, 0x4e, 0xef, 0x4b, 0xbb, 0x1d, 0xbb, 0x01, 0x3d, 
	0xc7, 0x29, 0x1d, 0x0b, 0x21, 0xce, 0x21, 0xf6, 0xee, 0x08, 0x05, 0x02, 
	0x31, 0x15, 0xae, 0x0f, 0xf2, 0xa3, 0x28, 0x42, 0x2f, 0x3c, 0xa8, 0xb6, 
	0xce, 0xff, 0xff, 0xff, 0x04, 0x00, 0x00, 0x00, 0x24, 0x00, 0x00, 0x00, 
	0x31, 0x01, 0x00, 0x00, 0x75, 0xff, 0xff, 0xff, 0xf1, 0xff, 0xff, 0xff, 
	0xfb, 0x00, 0x00, 0x00, 0x32, 0xfd, 0xff, 0xff, 0x80, 0xff, 0xff, 0xff, 
	0x8c, 0xfd, 0xff, 0xff, 0xc1, 0xfc, 0xff, 0xff, 0x14, 0xfd, 0xff, 0xff, 
	0x00, 0x00, 0x06, 0x00, 0x08, 0x00, 0x04, 0x00, 0x06, 0x00, 0x00, 0x00, 
	0x04, 0x00, 0x00, 0x00, 0x08, 0x00, 0x00, 0x00, 0xff, 0xff, 0xff, 0xff, 
	0x48, 0x00, 0x00, 0x00, 0x88, 0xed, 0xff, 0xff, 0x8c, 0xed, 0xff, 0xff, 
	0x0f, 0x00, 0x00, 0x00, 0x4d, 0x4c, 0x49, 0x52, 0x20, 0x43, 0x6f, 0x6e, 
	0x76, 0x65, 0x72, 0x74, 0x65, 0x64, 0x2e, 0x00, 0x01, 0x00, 0x00, 0x00, 
	0x14, 0x00, 0x00, 0x00, 0x00, 0x00, 0x0e, 0x00, 0x18, 0x00, 0x14, 0x00, 
	0x10, 0x00, 0x0c, 0x00, 0x08, 0x00, 0x04, 0x00, 0x0e, 0x00, 0x00, 0x00, 
	0x14, 0x00, 0x00, 0x00, 0x1c, 0x00, 0x00, 0x00, 0x90, 0x02, 0x00, 0x00, 
	0x94, 0x02, 0x00, 0x00, 0x98, 0x02, 0x00, 0x00, 0x04, 0x00, 0x00, 0x00, 
	0x6d, 0x61, 0x69, 0x6e, 0x00, 0x00, 0x00, 0x00, 0x0a, 0x00, 0x00, 0x00, 
	0x58, 0x02, 0x00, 0x00, 0xfc, 0x01, 0x00, 0x00, 0x9c, 0x01, 0x00, 0x00, 
	0x58, 0x01, 0x00, 0x00, 0x18, 0x01, 0x00, 0x00, 0xd4, 0x00, 0x00, 0x00, 
	0x94, 0x00, 0x00, 0x00, 0x6c, 0x00, 0x00, 0x00, 0x28, 0x00, 0x00, 0x00, 
	0x04, 0x00, 0x00, 0x00, 0xaa, 0xff, 0xff, 0xff, 0x0c, 0x00, 0x00, 0x00, 
	0x10, 0x00, 0x00, 0x00, 0x05, 0x00, 0x00, 0x00, 0x01, 0x00, 0x00, 0x00, 
	0x13, 0x00, 0x00, 0x00, 0x01, 0x00, 0x00, 0x00, 0x12, 0x00, 0x00, 0x00, 
	0x56, 0xfe, 0xff, 0xff, 0x14, 0x00, 0x00, 0x00, 0x00, 0x00, 0x00, 0x08, 
	0x10, 0x00, 0x00, 0x00, 0x14, 0x00, 0x00, 0x00, 0x04, 0x00, 0x00, 0x00, 
	0x44, 0xee, 0xff, 0xff, 0x01, 0x00, 0x00, 0x00, 0x12, 0x00, 0x00, 0x00, 
	0x03, 0x00, 0x00, 0x00, 0x11, 0x00, 0x00, 0x00, 0x03, 0x00, 0x00, 0x00, 
	0x02, 0x00, 0x00, 0x00, 0x00, 0x00, 0x0a, 0x00, 0x10, 0x00, 0x0c, 0x00, 
	0x08, 0x00, 0x04, 0x00, 0x0a, 0x00, 0x00, 0x00, 0x0c, 0x00, 0x00, 0x00, 
	0x10, 0x00, 0x00, 0x00, 0x03, 0x00, 0x00, 0x00, 0x01, 0x00, 0x00, 0x00, 
	0x11, 0x00, 0x00, 0x00, 0x02, 0x00, 0x00, 0x00, 0x10, 0x00, 0x00, 0x00, 
	0x01, 0x00, 0x00, 0x00, 0xba, 0xfe, 0xff, 0xff, 0x14, 0x00, 0x00, 0x00, 
	0x00, 0x00, 0x00, 0x05, 0x20, 0x00, 0x00, 0x00, 0x24, 0x00, 0x00, 0x00, 
	0x02, 0x00, 0x00, 0x00, 0x06, 0xff, 0xff, 0xff, 0x02, 0x00, 0x00, 0x00, 
	0x02, 0x00, 0x00, 0x00, 0x02, 0x00, 0x00, 0x00, 0x02, 0x00, 0x00, 0x00, 
	0x01, 0x00, 0x00, 0x00, 0x10, 0x00, 0x00, 0x00, 0x01, 0x00, 0x00, 0x00, 
	0x0f, 0x00, 0x00, 0x00, 0xf6, 0xfe, 0xff, 0xff, 0x14, 0x00, 0x00, 0x00, 
	0x00, 0x00, 0x00, 0x01, 0x1c, 0x00, 0x00, 0x00, 0x20, 0x00, 0x00, 0x00, 
	0x01, 0x00, 0x00, 0x00, 0xe8, 0xfe, 0xff, 0xff, 0x00, 0x00, 0x00, 0x01, 
	0x01, 0x00, 0x00, 0x00, 0x01, 0x00, 0x00, 0x00, 0x01, 0x00, 0x00, 0x00, 
	0x0f, 0x00, 0x00, 0x00, 0x03, 0x00, 0x00, 0x00, 0x0e, 0x00, 0x00, 0x00, 
	0x05, 0x00, 0x00, 0x00, 0x04, 0x00, 0x00, 0x00, 0x36, 0xff, 0xff, 0xff, 
	0x14, 0x00, 0x00, 0x00, 0x00, 0x00, 0x00, 0x05, 0x20, 0x00, 0x00, 0x00, 
	0x24, 0x00, 0x00, 0x00, 0x02, 0x00, 0x00, 0x00, 0x82, 0xff, 0xff, 0xff, 
	0x02, 0x00, 0x00, 0x00, 0x02, 0x00, 0x00, 0x00, 0x02, 0x00, 0x00, 0x00, 
	0x02, 0x00, 0x00, 0x00, 0x01, 0x00, 0x00, 0x00, 0x0e, 0x00, 0x00, 0x00, 
	0x01, 0x00, 0x00, 0x00, 0x0d, 0x00, 0x00, 0x00, 0x72, 0xff, 0xff, 0xff, 
	0x14, 0x00, 0x00, 0x00, 0x00, 0x00, 0x00, 0x01, 0x1c, 0x00, 0x00, 0x00, 
	0x20, 0x00, 0x00, 0x00, 0x01, 0x00, 0x00, 0x00, 0x64, 0xff, 0xff, 0xff, 
	0x00, 0x00, 0x00, 0x01, 0x01, 0x00, 0x00, 0x00, 0x01, 0x00, 0x00, 0x00, 
	0x01, 0x00, 0x00, 0x00, 0x0d, 0x00, 0x00, 0x00, 0x03, 0x00, 0x00, 0x00, 
	0x0c, 0x00, 0x00, 0x00, 0x07, 0x00, 0x00, 0x00, 0x06, 0x00, 0x00, 0x00, 
	0xb2, 0xff, 0xff, 0xff, 0x24, 0x00, 0x00, 0x00, 0x00, 0x00, 0x00, 0x05, 
	0x30, 0x00, 0x00, 0x00, 0x34, 0x00, 0x00, 0x00, 0x02, 0x00, 0x00, 0x00, 
	0x00, 0x00, 0x0e, 0x00, 0x14, 0x00, 0x00, 0x00, 0x10, 0x00, 0x0c, 0x00, 
	0x08, 0x00, 0x04, 0x00, 0x0e, 0x00, 0x00, 0x00, 0x02, 0x00, 0x00, 0x00, 
	0x02, 0x00, 0x00, 0x00, 0x02, 0x00, 0x00, 0x00, 0x02, 0x00, 0x00, 0x00, 
	0x01, 0x00, 0x00, 0x00, 0x0c, 0x00, 0x00, 0x00, 0x01, 0x00, 0x00, 0x00, 
	0x0b, 0x00, 0x00, 0x00, 0x00, 0x00, 0x0e, 0x00, 0x18, 0x00, 0x14, 0x00, 
	0x10, 0x00, 0x0c, 0x00, 0x0b, 0x00, 0x04, 0x00, 0x0e, 0x00, 0x00, 0x00, 
	0x20, 0x00, 0x00, 0x00, 0x00, 0x00, 0x00, 0x01, 0x28, 0x00, 0x00, 0x00, 
	0x2c, 0x00, 0x00, 0x00, 0x01, 0x00, 0x00, 0x00, 0x0c, 0x00, 0x10, 0x00, 
	0x00, 0x00, 0x0c, 0x00, 0x08, 0x00, 0x07, 0x00, 0x0c, 0x00, 0x00, 0x00, 
	0x00, 0x00, 0x00, 0x01, 0x01, 0x00, 0x00, 0x00, 0x01, 0x00, 0x00, 0x00, 
	0x01, 0x00, 0x00, 0x00, 0x0b, 0x00, 0x00, 0x00, 0x03, 0x00, 0x00, 0x00, 
	0x0a, 0x00, 0x00, 0x00, 0x09, 0x00, 0x00, 0x00, 0x08, 0x00, 0x00, 0x00, 
	0x00, 0x00, 0x0a, 0x00, 0x0c, 0x00, 0x00, 0x00, 0x08, 0x00, 0x04, 0x00, 
	0x0a, 0x00, 0x00, 0x00, 0x08, 0x00, 0x00, 0x00, 0x0c, 0x00, 0x00, 0x00, 
	0x01, 0x00, 0x00, 0x00, 0x0a, 0x00, 0x00, 0x00, 0x01, 0x00, 0x00, 0x00, 
	0x00, 0x00, 0x00, 0x00, 0x01, 0x00, 0x00, 0x00, 0x13, 0x00, 0x00, 0x00, 
	0x01, 0x00, 0x00, 0x00, 0x00, 0x00, 0x00, 0x00, 0x14, 0x00, 0x00, 0x00, 
	0x64, 0x0f, 0x00, 0x00, 0xfc, 0x0e, 0x00, 0x00, 0x5c, 0x0e, 0x00, 0x00, 
	0xec, 0x0d, 0x00, 0x00, 0x18, 0x0d, 0x00, 0x00, 0x4c, 0x0c, 0x00, 0x00, 
	0x78, 0x0b, 0x00, 0x00, 0xac, 0x0a, 0x00, 0x00, 0xb8, 0x08, 0x00, 0x00, 
	0xcc, 0x06, 0x00, 0x00, 0x48, 0x06, 0x00, 0x00, 0x3c, 0x05, 0x00, 0x00, 
	0xa0, 0x04, 0x00, 0x00, 0x8c, 0x03, 0x00, 0x00, 0xf0, 0x02, 0x00, 0x00, 
	0xfc, 0x01, 0x00, 0x00, 0x60, 0x01, 0x00, 0x00, 0xdc, 0x00, 0x00, 0x00, 
	0x60, 0x00, 0x00, 0x00, 0x04, 0x00, 0x00, 0x00, 0x02, 0xf1, 0xff, 0xff, 
	0x00, 0x00, 0x00, 0x01, 0x14, 0x00, 0x00, 0x00, 0x1c, 0x00, 0x00, 0x00, 
	0x1c, 0x00, 0x00, 0x00, 0x14, 0x00, 0x00, 0x00, 0x34, 0x00, 0x00, 0x00, 
	0x02, 0x00, 0x00, 0x00, 0xff, 0xff, 0xff, 0xff, 0x09, 0x00, 0x00, 0x00, 
	0xe4, 0xf0, 0xff, 0xff, 0x19, 0x00, 0x00, 0x00, 0x53, 0x74, 0x61, 0x74, 
	0x65, 0x66, 0x75, 0x6c, 0x50, 0x61, 0x72, 0x74, 0x69, 0x74, 0x69, 0x6f, 
	0x6e, 0x65, 0x64, 0x43, 0x61, 0x6c, 0x6c, 0x3a, 0x30, 0x00, 0x00, 0x00, 
	0x02, 0x00, 0x00, 0x00, 0x01, 0x00, 0x00, 0x00, 0x09, 0x00, 0x00, 0x00, 
	0x4e, 0xfa, 0xff, 0xff, 0x00, 0x00, 0x00, 0x01, 0x18, 0x00, 0x00, 0x00, 
	0x20, 0x00, 0x00, 0x00, 0x3c, 0x00, 0x00, 0x00, 0x13, 0x00, 0x00, 0x00, 
	0x00, 0x00, 0x00, 0x09, 0x50, 0x00, 0x00, 0x00, 0x02, 0x00, 0x00, 0x00, 
	0xff, 0xff, 0xff, 0xff, 0x09, 0x00, 0x00, 0x00, 0x54, 0xf2, 0xff, 0xff, 
	0x08, 0x00, 0x00, 0x00, 0x10, 0x00, 0x00, 0x00, 0x01, 0x00, 0x00, 0x00, 
	0x26, 0x00, 0x00, 0x00, 0x00, 0x00, 0x00, 0x00, 0x01, 0x00, 0x00, 0x00, 
	0xb8, 0xb7, 0xd4, 0x3d, 0x1a, 0x00, 0x00, 0x00, 0x53, 0x74, 0x61, 0x74, 
	0x65, 0x66, 0x75, 0x6c, 0x50, 0x61, 0x72, 0x74, 0x69, 0x74, 0x69, 0x6f, 
	0x6e, 0x65, 0x64, 0x43, 0x61, 0x6c, 0x6c, 0x3a, 0x30, 0x31, 0x00, 0x00, 
	0x02, 0x00, 0x00, 0x00, 0x01, 0x00, 0x00, 0x00, 0x09, 0x00, 0x00, 0x00, 
	0xc6, 0xfa, 0xff, 0xff, 0x00, 0x00, 0x00, 0x01, 0x18, 0x00, 0x00, 0x00, 
	0x20, 0x00, 0x00, 0x00, 0x40, 0x00, 0x00, 0x00, 0x12, 0x00, 0x00, 0x00, 
	0x00, 0x00, 0x00, 0x09, 0x58, 0x00, 0x00, 0x00, 0x02, 0x00, 0x00, 0x00, 
	0xff, 0xff, 0xff, 0xff, 0x48, 0x00, 0x00, 0x00, 0xcc, 0xf2, 0xff, 0xff, 
	0x08, 0x00, 0x00, 0x00, 0x14, 0x00, 0x00, 0x00, 0x01, 0x00, 0x00, 0x00, 
	0x80, 0xff, 0xff, 0xff, 0xff, 0xff, 0xff, 0xff, 0x00, 0x00, 0x00, 0x00, 
	0x01, 0x00, 0x00, 0x00, 0x32, 0x38, 0x7c, 0x3d, 0x1e, 0x00, 0x00, 0x00, 
	0x73, 0x65, 0x71, 0x75, 0x65, 0x6e, 0x74, 0x69, 0x61, 0x6c, 0x5f, 0x31, 
	0x2f, 0x66, 0x6c, 0x61, 0x74, 0x74, 0x65, 0x6e, 0x5f, 0x31, 0x2f, 0x52, 
	0x65, 0x73, 0x68, 0x61, 0x70, 0x65, 0x00, 0x00, 0x02, 0x00, 0x00, 0x00, 
	0x01, 0x00, 0x00, 0x00, 0x48, 0x00, 0x00, 0x00, 0x46, 0xfb, 0xff, 0xff, 
	0x00, 0x00, 0x00, 0x01, 0x18, 0x00, 0x00, 0x00, 0x28, 0x00, 0x00, 0x00, 
	0x48, 0x00, 0x00, 0x00, 0x11, 0x00, 0x00, 0x00, 0x00, 0x00, 0x00, 0x09, 
	0x68, 0x00, 0x00, 0x00, 0x04, 0x00, 0x00, 0x00, 0xff, 0xff, 0xff, 0xff, 
	0x03, 0x00, 0x00, 0x00, 0x03, 0x00, 0x00, 0x00, 0x08, 0x00, 0x00, 0x00, 
	0x54, 0xf3, 0xff, 0xff, 0x08, 0x00, 0x00, 0x00, 0x14, 0x00, 0x00, 0x00, 
	0x01, 0x00, 0x00, 0x00, 0x80, 0xff, 0xff, 0xff, 0xff, 0xff, 0xff, 0xff, 
	0x00, 0x00, 0x00, 0x00, 0x01, 0x00, 0x00, 0x00, 0x32, 0x38, 0x7c, 0x3d, 
	0x24, 0x00, 0x00, 0x00, 0x73, 0x65, 0x71, 0x75, 0x65, 0x6e, 0x74, 0x69, 
	0x61, 0x6c, 0x5f, 0x31, 0x2f, 0x6d, 0x61, 0x78, 0x5f, 0x70, 0x6f, 0x6f, 
	0x6c, 0x69, 0x6e, 0x67, 0x32, 0x64, 0x5f, 0x35, 0x2f, 0x4d, 0x61, 0x78, 
	0x50, 0x6f, 0x6f, 0x6c, 0x00, 0x00, 0x00, 0x00, 0x04, 0x00, 0x00, 0x00, 
	0x01, 0x00, 0x00, 0x00, 0x03, 0x00, 0x00, 0x00, 0x03, 0x00, 0x00, 0x00, 
	0x08, 0x00, 0x00, 0x00, 0xde, 0xfb, 0xff, 0xff, 0x00, 0x00, 0x00, 0x01, 
	0x18, 0x00, 0x00, 0x00, 0x28, 0x00, 0x00, 0x00, 0x44, 0x00, 0x00, 0x00, 
	0x10, 0x00, 0x00, 0x00, 0x00, 0x00, 0x00, 0x09, 0xc0, 0x00, 0x00, 0x00, 
	0x04, 0x00, 0x00, 0x00, 0xff, 0xff, 0xff, 0xff, 0x06, 0x00, 0x00, 0x00, 
	0x06, 0x00, 0x00, 0x00, 0x08, 0x00, 0x00, 0x00, 0xec, 0xf3, 0xff, 0xff, 
	0x08, 0x00, 0x00, 0x00, 0x10, 0x00, 0x00, 0x00, 0x01, 0x00, 0x00, 0x00, 
	0x80, 0xff, 0xff, 0xff, 0xff, 0xff, 0xff, 0xff, 0x01, 0x00, 0x00, 0x00, 
	0x32, 0x38, 0x7c, 0x3d, 0x82, 0x00, 0x00, 0x00, 0x73, 0x65, 0x71, 0x75, 
	0x65, 0x6e, 0x74, 0x69, 0x61, 0x6c, 0x5f, 0x31, 0x2f, 0x63, 0x6f, 0x6e, 
	0x76, 0x32, 0x64, 0x5f, 0x35, 0x2f, 0x52, 0x65, 0x6c, 0x75, 0x3b, 0x73, 
	0x65, 0x71, 0x75, 0x65, 0x6e, 0x74, 0x69, 0x61, 0x6c, 0x5f, 0x31, 0x2f, 
	0x63, 0x6f, 0x6e, 0x76, 0x32, 0x64, 0x5f, 0x35, 0x2f, 0x42, 0x69, 0x61, 
	0x73, 0x41, 0x64, 0x64, 0x3b, 0x73, 0x65, 0x71, 0x75, 0x65, 0x6e, 0x74, 
	0x69, 0x61, 0x6c, 0x5f, 0x31, 0x2f, 0x63, 0x6f, 0x6e, 0x76, 0x32, 0x64, 
	0x5f, 0x35, 0x2f, 0x43, 0x6f, 0x6e, 0x76, 0x32, 0x44, 0x3b, 0x73, 0x65, 
	0x71, 0x75, 0x65, 0x6e, 0x74, 0x69, 0x61, 0x6c, 0x5f, 0x31, 0x2f, 0x63, 
	0x6f, 0x6e, 0x76, 0x32, 0x64, 0x5f, 0x35, 0x2f, 0x42, 0x69, 0x61, 0x73, 
	0x41, 0x64, 0x64, 0x2f, 0x52, 0x65, 0x61, 0x64, 0x56, 0x61, 0x72, 0x69, 
	0x61, 0x62, 0x6c, 0x65, 0x4f, 0x70, 0x00, 0x00, 0x04, 0x00, 0x00, 0x00, 
	0x01, 0x00, 0x00, 0x00, 0x06, 0x00, 0x00, 0x00, 0x06, 0x00, 0x00, 0x00, 
	0x08, 0x00, 0x00, 0x00, 0xce, 0xfc, 0xff, 0xff, 0x00, 0x00, 0x00, 0x01, 
	0x18, 0x00, 0x00, 0x00, 0x28, 0x00, 0x00, 0x00, 0x48, 0x00, 0x00, 0x00, 
	0x0f, 0x00, 0x00, 0x00, 0x00, 0x00, 0x00, 0x09, 0x68, 0x00, 0x00, 0x00, 
	0x04, 0x00, 0x00, 0x00, 0xff, 0xff, 0xff, 0xff, 0x06, 0x00, 0x00, 0x00, 
	0x06, 0x00, 0x00, 0x00, 0x08, 0x00, 0x00, 0x00, 0xdc, 0xf4, 0xff, 0xff, 
	0x08, 0x00, 0x00, 0x00, 0x14, 0x00, 0x00, 0x00, 0x01, 0x00, 0x00, 0x00, 
	0x80, 0xff, 0xff, 0xff, 0xff, 0xff, 0xff, 0xff, 0x00, 0x00, 0x00, 0x00, 
	0x01, 0x00, 0x00, 0x00, 0x4c, 0x8a, 0x52, 0x3e, 0x24, 0x00, 0x00, 0x00, 
	0x73, 0x65, 0x71, 0x75, 0x65, 0x6e, 0x74, 0x69, 0x61, 0x6c, 0x5f, 0x31, 
	0x2f, 0x6d, 0x61, 0x78, 0x5f, 0x70, 0x6f, 0x6f, 0x6c, 0x69, 0x6e, 0x67, 
	0x32, 0x64, 0x5f, 0x34, 0x2f, 0x4d, 0x61, 0x78, 0x50, 0x6f, 0x6f, 0x6c, 
	0x00, 0x00, 0x00, 0x00, 0x04, 0x00, 0x00, 0x00, 0x01, 0x00, 0x00, 0x00, 
	0x06, 0x00, 0x00, 0x00, 0x06, 0x00, 0x00, 0x00, 0x08, 0x00, 0x00, 0x00, 
	0x66, 0xfd, 0xff, 0xff, 0x00, 0x00, 0x00, 0x01, 0x18, 0x00, 0x00, 0x00, 
	0x28, 0x00, 0x00, 0x00, 0x48, 0x00, 0x00, 0x00, 0x0e, 0x00, 0x00, 0x00, 
	0x00, 0x00, 0x00, 0x09, 0xe0, 0x00, 0x00, 0x00, 0x04, 0x00, 0x00, 0x00, 
	0xff, 0xff, 0xff, 0xff, 0x0c, 0x00, 0x00, 0x00, 0x0c, 0x00, 0x00, 0x00, 
	0x08, 0x00, 0x00, 0x00, 0x74, 0xf5, 0xff, 0xff, 0x08, 0x00, 0x00, 0x00, 
	0x14, 0x00, 0x00, 0x00, 0x01, 0x00, 0x00, 0x00, 0x80, 0xff, 0xff, 0xff, 
	0xff, 0xff, 0xff, 0xff, 0x00, 0x00, 0x00, 0x00, 0x01, 0x00, 0x00, 0x00, 
	0x4c, 0x8a, 0x52, 0x3e, 0x9f, 0x00, 0x00, 0x00, 0x73, 0x65, 0x71, 0x75, 
	0x65, 0x6e, 0x74, 0x69, 0x61, 0x6c, 0x5f, 0x31, 0x2f, 0x63, 0x6f, 0x6e, 
	0x76, 0x32, 0x64, 0x5f, 0x34, 0x2f, 0x52, 0x65, 0x6c, 0x75, 0x3b, 0x73, 
	0x65, 0x71, 0x75, 0x65, 0x6e, 0x74, 0x69, 0x61, 0x6c, 0x5f, 0x31, 0x2f, 
	0x63, 0x6f, 0x6e, 0x76, 0x32, 0x64, 0x5f, 0x34, 0x2f, 0x42, 0x69, 0x61, 
	0x73, 0x41, 0x64, 0x64, 0x3b, 0x73, 0x65, 0x71, 0x75, 0x65, 0x6e, 0x74, 
	0x69, 0x61, 0x6c, 0x5f, 0x31, 0x2f, 0x63, 0x6f, 0x6e, 0x76, 0x32, 0x64, 
	0x5f, 0x35, 0x2f, 0x43, 0x6f, 0x6e, 0x76, 0x32, 0x44, 0x3b, 0x73, 0x65, 
	0x71, 0x75, 0x65, 0x6e, 0x74, 0x69, 0x61, 0x6c, 0x5f, 0x31, 0x2f, 0x63, 
	0x6f, 0x6e, 0x76, 0x32, 0x64, 0x5f, 0x34, 0x2f, 0x43, 0x6f, 0x6e, 0x76, 
	0x32, 0x44, 0x3b, 0x73, 0x65, 0x71, 0x75, 0x65, 0x6e, 0x74, 0x69, 0x61, 
	0x6c, 0x5f, 0x31, 0x2f, 0x63, 0x6f, 0x6e, 0x76, 0x32, 0x64, 0x5f, 0x34, 
	0x2f, 0x42, 0x69, 0x61, 0x73, 0x41, 0x64, 0x64, 0x2f, 0x52, 0x65, 0x61, 
	0x64, 0x56, 0x61, 0x72, 0x69, 0x61, 0x62, 0x6c, 0x65, 0x4f, 0x70, 0x00, 
	0x04, 0x00, 0x00, 0x00, 0x01, 0x00, 0x00, 0x00, 0x0c, 0x00, 0x00, 0x00, 
	0x0c, 0x00, 0x00, 0x00, 0x08, 0x00, 0x00, 0x00, 0x76, 0xfe, 0xff, 0xff, 
	0x00, 0x00, 0x00, 0x01, 0x18, 0x00, 0x00, 0x00, 0x28, 0x00, 0x00, 0x00, 
	0x48, 0x00, 0x00, 0x00, 0x0d, 0x00, 0x00, 0x00, 0x00, 0x00, 0x00, 0x09, 
	0x68, 0x00, 0x00, 0x00, 0x04, 0x00, 0x00, 0x00, 0xff, 0xff, 0xff, 0xff, 
	0x0c, 0x00, 0x00, 0x00, 0x0c, 0x00, 0x00, 0x00, 0x20, 0x00, 0x00, 0x00, 
	0x84, 0xf6, 0xff, 0xff, 0x08, 0x00, 0x00, 0x00, 0x14, 0x00, 0x00, 0x00, 
	0x01, 0x00, 0x00, 0x00, 0x80, 0xff, 0xff, 0xff, 0xff, 0xff, 0xff, 0xff, 
	0x00, 0x00, 0x00, 0x00, 0x01, 0x00, 0x00, 0x00, 0xcd, 0x36, 0xfa, 0x3e, 
	0x24, 0x00, 0x00, 0x00, 0x73, 0x65, 0x71, 0x75, 0x65, 0x6e, 0x74, 0x69, 
	0x61, 0x6c, 0x5f, 0x31, 0x2f, 0x6d, 0x61, 0x78, 0x5f, 0x70, 0x6f, 0x6f, 
	0x6c, 0x69, 0x6e, 0x67, 0x32, 0x64, 0x5f, 0x33, 0x2f, 0x4d, 0x61, 0x78, 
	0x50, 0x6f, 0x6f, 0x6c, 0x00, 0x00, 0x00, 0x00, 0x04, 0x00, 0x00, 0x00, 
	0x01, 0x00, 0x00, 0x00, 0x0c, 0x00, 0x00, 0x00, 0x0c, 0x00, 0x00, 0x00, 
	0x20, 0x00, 0x00, 0x00, 0x0e, 0xff, 0xff, 0xff, 0x00, 0x00, 0x00, 0x01, 
	0x18, 0x00, 0x00, 0x00, 0x28, 0x00, 0x00, 0x00, 0x44, 0x00, 0x00, 0x00, 
	0x0c, 0x00, 0x00, 0x00, 0x00, 0x00, 0x00, 0x09, 0xc0, 0x00, 0x00, 0x00, 
	0x04, 0x00, 0x00, 0x00, 0xff, 0xff, 0xff, 0xff, 0x18, 0x00, 0x00, 0x00, 
	0x18, 0x00, 0x00, 0x00, 0x20, 0x00, 0x00, 0x00, 0x1c, 0xf7, 0xff, 0xff, 
	0x08, 0x00, 0x00, 0x00, 0x10, 0x00, 0x00, 0x00, 0x01, 0x00, 0x00, 0x00, 
	0x80, 0xff, 0xff, 0xff, 0xff, 0xff, 0xff, 0xff, 0x01, 0x00, 0x00, 0x00, 
	0xcd, 0x36, 0xfa, 0x3e, 0x82, 0x00, 0x00, 0x00, 0x73, 0x65, 0x71, 0x75, 
	0x65, 0x6e, 0x74, 0x69, 0x61, 0x6c, 0x5f, 0x31, 0x2f, 0x63, 0x6f, 0x6e, 
	0x76, 0x32, 0x64, 0x5f, 0x33, 0x2f, 0x52, 0x65, 0x6c, 0x75, 0x3b, 0x73, 
	0x65, 0x71, 0x75, 0x65, 0x6e, 0x74, 0x69, 0x61, 0x6c, 0x5f, 0x31, 0x2f, 
	0x63, 0x6f, 0x6e, 0x76, 0x32, 0x64, 0x5f, 0x33, 0x2f, 0x42, 0x69, 0x61, 
	0x73, 0x41, 0x64, 0x64, 0x3b, 0x73, 0x65, 0x71, 0x75, 0x65, 0x6e, 0x74, 
	0x69, 0x61, 0x6c, 0x5f, 0x31, 0x2f, 0x63, 0x6f, 0x6e, 0x76, 0x32, 0x64, 
	0x5f, 0x33, 0x2f, 0x43, 0x6f, 0x6e, 0x76, 0x32, 0x44, 0x3b, 0x73, 0x65, 
	0x71, 0x75, 0x65, 0x6e, 0x74, 0x69, 0x61, 0x6c, 0x5f, 0x31, 0x2f, 0x63, 
	0x6f, 0x6e, 0x76, 0x32, 0x64, 0x5f, 0x33, 0x2f, 0x42, 0x69, 0x61, 0x73, 
	0x41, 0x64, 0x64, 0x2f, 0x52, 0x65, 0x61, 0x64, 0x56, 0x61, 0x72, 0x69, 
	0x61, 0x62, 0x6c, 0x65, 0x4f, 0x70, 0x00, 0x00, 0x04, 0x00, 0x00, 0x00, 
	0x01, 0x00, 0x00, 0x00, 0x18, 0x00, 0x00, 0x00, 0x18, 0x00, 0x00, 0x00, 
	0x20, 0x00, 0x00, 0x00, 0x00, 0x00, 0x16, 0x00, 0x20, 0x00, 0x1c, 0x00, 
	0x1b, 0x00, 0x14, 0x00, 0x10, 0x00, 0x0c, 0x00, 0x00, 0x00, 0x00, 0x00, 
	0x08, 0x00, 0x07, 0x00, 0x16, 0x00, 0x00, 0x00, 0x00, 0x00, 0x00, 0x01, 
	0x18, 0x00, 0x00, 0x00, 0x28, 0x00, 0x00, 0x00, 0x48, 0x00, 0x00, 0x00, 
	0x0b, 0x00, 0x00, 0x00, 0x00, 0x00, 0x00, 0x09, 0x50, 0x00, 0x00, 0x00, 
	0x04, 0x00, 0x00, 0x00, 0xff, 0xff, 0xff, 0xff, 0x18, 0x00, 0x00, 0x00, 
	0x18, 0x00, 0x00, 0x00, 0x01, 0x00, 0x00, 0x00, 0x24, 0xf8, 0xff, 0xff, 
	0x08, 0x00, 0x00, 0x00, 0x14, 0x00, 0x00, 0x00, 0x01, 0x00, 0x00, 0x00, 
	0x80, 0xff, 0xff, 0xff, 0xff, 0xff, 0xff, 0xff, 0x00, 0x00, 0x00, 0x00, 
	0x01, 0x00, 0x00, 0x00, 0x00, 0x00, 0x80, 0x3f, 0x0c, 0x00, 0x00, 0x00, 
	0x74, 0x66, 0x6c, 0x2e, 0x71, 0x75, 0x61, 0x6e, 0x74, 0x69, 0x7a, 0x65, 
	0x00, 0x00, 0x00, 0x00, 0x04, 0x00, 0x00, 0x00, 0x01, 0x00, 0x00, 0x00, 
	0x18, 0x00, 0x00, 0x00, 0x18, 0x00, 0x00, 0x00, 0x01, 0x00, 0x00, 0x00, 
	0x06, 0xf8, 0xff, 0xff, 0x00, 0x00, 0x00, 0x01, 0x14, 0x00, 0x00, 0x00, 
	0xa4, 0x01, 0x00, 0x00, 0x0a, 0x00, 0x00, 0x00, 0x00, 0x00, 0x00, 0x09, 
	0xbc, 0x01, 0x00, 0x00, 0x8c, 0xf8, 0xff, 0xff, 0x08, 0x00, 0x00, 0x00, 
	0x08, 0x01, 0x00, 0x00, 0x20, 0x00, 0x00, 0x00, 0x00, 0x00, 0x00, 0x00, 
	0x00, 0x00, 0x00, 0x00, 0x00, 0x00, 0x00, 0x00, 0x00, 0x00, 0x00, 0x00, 
	0x00, 0x00, 0x00, 0x00, 0x00, 0x00, 0x00, 0x00, 0x00, 0x00, 0x00, 0x00, 
	0x00, 0x00, 0x00, 0x00, 0x00, 0x00, 0x00, 0x00, 0x00, 0x00, 0x00, 0x00, 
	0x00, 0x00, 0x00, 0x00, 0x00, 0x00, 0x00, 0x00, 0x00, 0x00, 0x00, 0x00, 
	0x00, 0x00, 0x00, 0x00, 0x00, 0x00, 0x00, 0x00, 0x00, 0x00, 0x00, 0x00, 
	0x00, 0x00, 0x00, 0x00, 0x00, 0x00, 0x00, 0x00, 0x00, 0x00, 0x00, 0x00, 
	0x00, 0x00, 0x00, 0x00, 0x00, 0x00, 0x00, 0x00, 0x00, 0x00, 0x00, 0x00, 
	0x00, 0x00, 0x00, 0x00, 0x00, 0x00, 0x00, 0x00, 0x00, 0x00, 0x00, 0x00, 
	0x00, 0x00, 0x00, 0x00, 0x00, 0x00, 0x00, 0x00, 0x00, 0x00, 0x00, 0x00, 
	0x00, 0x00, 0x00, 0x00, 0x00, 0x00, 0x00, 0x00, 0x00, 0x00, 0x00, 0x00, 
	0x00, 0x00, 0x00, 0x00, 0x00, 0x00, 0x00, 0x00, 0x00, 0x00, 0x00, 0x00, 
	0x00, 0x00, 0x00, 0x00, 0x00, 0x00, 0x00, 0x00, 0x00, 0x00, 0x00, 0x00, 
	0x00, 0x00, 0x00, 0x00, 0x00, 0x00, 0x00, 0x00, 0x00, 0x00, 0x00, 0x00, 
	0x00, 0x00, 0x00, 0x00, 0x00, 0x00, 0x00, 0x00, 0x00, 0x00, 0x00, 0x00, 
	0x00, 0x00, 0x00, 0x00, 0x00, 0x00, 0x00, 0x00, 0x00, 0x00, 0x00, 0x00, 
	0x00, 0x00, 0x00, 0x00, 0x00, 0x00, 0x00, 0x00, 0x00, 0x00, 0x00, 0x00, 
	0x00, 0x00, 0x00, 0x00, 0x00, 0x00, 0x00, 0x00, 0x00, 0x00, 0x00, 0x00, 
	0x00, 0x00, 0x00, 0x00, 0x00, 0x00, 0x00, 0x00, 0x00, 0x00, 0x00, 0x00, 
	0x00, 0x00, 0x00, 0x00, 0x00, 0x00, 0x00, 0x00, 0x00, 0x00, 0x00, 0x00, 
	0x00, 0x00, 0x00, 0x00, 0x00, 0x00, 0x00, 0x00, 0x00, 0x00, 0x00, 0x00, 
	0x00, 0x00, 0x00, 0x00, 0x00, 0x00, 0x00, 0x00, 0x00, 0x00, 0x00, 0x00, 
	0x20, 0x00, 0x00, 0x00, 0xb6, 0xab, 0x47, 0x3a, 0x2a, 0xb0, 0x7c, 0x3a, 
	0xb9, 0xbf, 0x73, 0x3a, 0xe3, 0xcb, 0x78, 0x3a, 0x7d, 0xb0, 0x81, 0x3a, 
	0x2e, 0xda, 0x47, 0x3a, 0x5c, 0x52, 0x21, 0x3a, 0xad, 0x42, 0x85, 0x3a, 
	0xcf, 0xd1, 0x65, 0x3a, 0x8c, 0xf2, 0x4c, 0x3a, 0x2d, 0x77, 0x79, 0x3a, 
	0x28, 0xad, 0x81, 0x3a, 0x60, 0xeb, 0x84, 0x3a, 0x90, 0x6d, 0x78, 0x3a, 
	0x4e, 0x71, 0x64, 0x3a, 0x4e, 0x21, 0x47, 0x3a, 0x02, 0x8b, 0x8a, 0x3a, 
	0x37, 0x2d, 0x46, 0x3a, 0x56, 0xf5, 0x78, 0x3a, 0x86, 0x30, 0x6c, 0x3a, 
	0x91, 0x7e, 0x84, 0x3a, 0xb2, 0x29, 0x65, 0x3a, 0x3d, 0x74, 0x62, 0x3a, 
	0xc2, 0xbc, 0x6d, 0x3a, 0x8f, 0xba, 0x5a, 0x3a, 0xb9, 0x41, 0x89, 0x3a, 
	0x27, 0x38, 0x7e, 0x3a, 0x02, 0x6a, 0x55, 0x3a, 0x28, 0x05, 0x88, 0x3a, 
	0xfa, 0xd0, 0x76, 0x3a, 0x85, 0xfb, 0x82, 0x3a, 0xf5, 0x9d, 0x71, 0x3a, 
	0x1c, 0x00, 0x00, 0x00, 0x73, 0x65, 0x71, 0x75, 0x65, 0x6e, 0x74, 0x69, 
	0x61, 0x6c, 0x5f, 0x31, 0x2f, 0x63, 0x6f, 0x6e, 0x76, 0x32, 0x64, 0x5f, 
	0x33, 0x2f, 0x43, 0x6f, 0x6e, 0x76, 0x32, 0x44, 0x00, 0x00, 0x00, 0x00, 
	0x04, 0x00, 0x00, 0x00, 0x20, 0x00, 0x00, 0x00, 0x03, 0x00, 0x00, 0x00, 
	0x03, 0x00, 0x00, 0x00, 0x01, 0x00, 0x00, 0x00, 0xee, 0xf9, 0xff, 0xff, 
	0x00, 0x00, 0x00, 0x01, 0x14, 0x00, 0x00, 0x00, 0xa8, 0x01, 0x00, 0x00, 
	0x09, 0x00, 0x00, 0x00, 0x00, 0x00, 0x00, 0x02, 0xd0, 0x01, 0x00, 0x00, 
	0x74, 0xfa, 0xff, 0xff, 0x08, 0x00, 0x00, 0x00, 0x0c, 0x01, 0x00, 0x00, 
	0x20, 0x00, 0x00, 0x00, 0x00, 0x00, 0x00, 0x00, 0x00, 0x00, 0x00, 0x00, 
	0x00, 0x00, 0x00, 0x00, 0x00, 0x00, 0x00, 0x00, 0x00, 0x00, 0x00, 0x00, 
	0x00, 0x00, 0x00, 0x00, 0x00, 0x00, 0x00, 0x00, 0x00, 0x00, 0x00, 0x00, 
	0x00, 0x00, 0x00, 0x00, 0x00, 0x00, 0x00, 0x00, 0x00, 0x00, 0x00, 0x00, 
	0x00, 0x00, 0x00, 0x00, 0x00, 0x00, 0x00, 0x00, 0x00, 0x00, 0x00, 0x00, 
	0x00, 0x00, 0x00, 0x00, 0x00, 0x00, 0x00, 0x00, 0x00, 0x00, 0x00, 0x00, 
	0x00, 0x00, 0x00, 0x00, 0x00, 0x00, 0x00, 0x00, 0x00, 0x00, 0x00, 0x00, 
	0x00, 0x00, 0x00, 0x00, 0x00, 0x00, 0x00, 0x00, 0x00, 0x00, 0x00, 0x00, 
	0x00, 0x00, 0x00, 0x00, 0x00, 0x00, 0x00, 0x00, 0x00, 0x00, 0x00, 0x00, 
	0x00, 0x00, 0x00, 0x00, 0x00, 0x00, 0x00, 0x00, 0x00, 0x00, 0x00, 0x00, 
	0x00, 0x00, 0x00, 0x00, 0x00, 0x00, 0x00, 0x00, 0x00, 0x00, 0x00, 0x00, 
	0x00, 0x00, 0x00, 0x00, 0x00, 0x00, 0x00, 0x00, 0x00, 0x00, 0x00, 0x00, 
	0x00, 0x00, 0x00, 0x00, 0x00, 0x00, 0x00, 0x00, 0x00, 0x00, 0x00, 0x00, 
	0x00, 0x00, 0x00, 0x00, 0x00, 0x00, 0x00, 0x00, 0x00, 0x00, 0x00, 0x00, 
	0x00, 0x00, 0x00, 0x00, 0x00, 0x00, 0x00, 0x00, 0x00, 0x00, 0x00, 0x00, 
	0x00, 0x00, 0x00, 0x00, 0x00, 0x00, 0x00, 0x00, 0x00, 0x00, 0x00, 0x00, 
	0x00, 0x00, 0x00, 0x00, 0x00, 0x00, 0x00, 0x00, 0x00, 0x00, 0x00, 0x00, 
	0x00, 0x00, 0x00, 0x00, 0x00, 0x00, 0x00, 0x00, 0x00, 0x00, 0x00, 0x00, 
	0x00, 0x00, 0x00, 0x00, 0x00, 0x00, 0x00, 0x00, 0x00, 0x00, 0x00, 0x00, 
	0x00, 0x00, 0x00, 0x00, 0x00, 0x00, 0x00, 0x00, 0x00, 0x00, 0x00, 0x00, 
	0x00, 0x00, 0x00, 0x00, 0x00, 0x00, 0x00, 0x00, 0x00, 0x00, 0x00, 0x00, 
	0x00, 0x00, 0x00, 0x00, 0x00, 0x00, 0x00, 0x00, 0x00, 0x00, 0x00, 0x00, 
	0x20, 0x00, 0x00, 0x00, 0xb6, 0xab, 0x47, 0x3a, 0x2a, 0xb0, 0x7c, 0x3a, 
	0xb9, 0xbf, 0x73, 0x3a, 0xe3, 0xcb, 0x78, 0x3a, 0x7d, 0xb0, 0x81, 0x3a, 
	0x2e, 0xda, 0x47, 0x3a, 0x5c, 0x52, 0x21, 0x3a, 0xad, 0x42, 0x85, 0x3a, 
	0xcf, 0xd1, 0x65, 0x3a, 0x8c, 0xf2, 0x4c, 0x3a, 0x2d, 0x77, 0x79, 0x3a, 
	0x28, 0xad, 0x81, 0x3a, 0x60, 0xeb, 0x84, 0x3a, 0x90, 0x6d, 0x78, 0x3a, 
	0x4e, 0x71, 0x64, 0x3a, 0x4e, 0x21, 0x47, 0x3a, 0x02, 0x8b, 0x8a, 0x3a, 
	0x37, 0x2d, 0x46, 0x3a, 0x56, 0xf5, 0x78, 0x3a, 0x86, 0x30, 0x6c, 0x3a, 
	0x91, 0x7e, 0x84, 0x3a, 0xb2, 0x29, 0x65, 0x3a, 0x3d, 0x74, 0x62, 0x3a, 
	0xc2, 0xbc, 0x6d, 0x3a, 0x8f, 0xba, 0x5a, 0x3a, 0xb9, 0x41, 0x89, 0x3a, 
	0x27, 0x38, 0x7e, 0x3a, 0x02, 0x6a, 0x55, 0x3a, 0x28, 0x05, 0x88, 0x3a, 
	0xfa, 0xd0, 0x76, 0x3a, 0x85, 0xfb, 0x82, 0x3a, 0xf5, 0x9d, 0x71, 0x3a, 
	0x2c, 0x00, 0x00, 0x00, 0x73, 0x65, 0x71, 0x75, 0x65, 0x6e, 0x74, 0x69, 
	0x61, 0x6c, 0x5f, 0x31, 0x2f, 0x63, 0x6f, 0x6e, 0x76, 0x32, 0x64, 0x5f, 
	0x33, 0x2f, 0x42, 0x69, 0x61, 0x73, 0x41, 0x64, 0x64, 0x2f, 0x52, 0x65, 
	0x61, 0x64, 0x56, 0x61, 0x72, 0x69, 0x61, 0x62, 0x6c, 0x65, 0x4f, 0x70, 
	0x00, 0x00, 0x00, 0x00, 0x01, 0x00, 0x00, 0x00, 0x20, 0x00, 0x00, 0x00, 
	0xde, 0xfb, 0xff, 0xff, 0x00, 0x00, 0x00, 0x01, 0x14, 0x00, 0x00, 0x00, 
	0x84, 0x00, 0x00, 0x00, 0x08, 0x00, 0x00, 0x00, 0x00, 0x00, 0x00, 0x09, 
	0x9c, 0x00, 0x00, 0x00, 0x64, 0xfc, 0xff, 0xff, 0x08, 0x00, 0x00, 0x00, 
	0x48, 0x00, 0x00, 0x00, 0x08, 0x00, 0x00, 0x00, 0x00, 0x00, 0x00, 0x00, 
	0x00, 0x00, 0x00, 0x00, 0x00, 0x00, 0x00, 0x00, 0x00, 0x00, 0x00, 0x00, 
	0x00, 0x00, 0x00, 0x00, 0x00, 0x00, 0x00, 0x00, 0x00, 0x00, 0x00, 0x00, 
	0x00, 0x00, 0x00, 0x00, 0x00, 0x00, 0x00, 0x00, 0x00, 0x00, 0x00, 0x00, 
	0x00, 0x00, 0x00, 0x00, 0x00, 0x00, 0x00, 0x00, 0x00, 0x00, 0x00, 0x00, 
	0x00, 0x00, 0x00, 0x00, 0x00, 0x00, 0x00, 0x00, 0x00, 0x00, 0x00, 0x00, 
	0x08, 0x00, 0x00, 0x00, 0x35, 0xbe, 0x8d, 0x3a, 0x59, 0x42, 0x8a, 0x3a, 
	0x66, 0x78, 0x9d, 0x3a, 0x25, 0x1b, 0x96, 0x3a, 0x00, 0xc8, 0x8f, 0x3a, 
	0x8e, 0x1b, 0x90, 0x3a, 0x90, 0xfe, 0xa1, 0x3a, 0xfd, 0x17, 0x88, 0x3a, 
	0x1c, 0x00, 0x00, 0x00, 0x73, 0x65, 0x71, 0x75, 0x65, 0x6e, 0x74, 0x69, 
	0x61, 0x6c, 0x5f, 0x31, 0x2f, 0x63, 0x6f, 0x6e, 0x76, 0x32, 0x64, 0x5f, 
	0x34, 0x2f, 0x43, 0x6f, 0x6e, 0x76, 0x32, 0x44, 0x00, 0x00, 0x00, 0x00, 
	0x04, 0x00, 0x00, 0x00, 0x08, 0x00, 0x00, 0x00, 0x03, 0x00, 0x00, 0x00, 
	0x03, 0x00, 0x00, 0x00, 0x20, 0x00, 0x00, 0x00, 0xa6, 0xfc, 0xff, 0xff, 
	0x00, 0x00, 0x00, 0x01, 0x14, 0x00, 0x00, 0x00, 0x88, 0x00, 0x00, 0x00, 
	0x07, 0x00, 0x00, 0x00, 0x00, 0x00, 0x00, 0x02, 0xb0, 0x00, 0x00, 0x00, 
	0x2c, 0xfd, 0xff, 0xff, 0x08, 0x00, 0x00, 0x00, 0x4c, 0x00, 0x00, 0x00, 
	0x08, 0x00, 0x00, 0x00, 0x00, 0x00, 0x00, 0x00, 0x00, 0x00, 0x00, 0x00, 
	0x00, 0x00, 0x00, 0x00, 0x00, 0x00, 0x00, 0x00, 0x00, 0x00, 0x00, 0x00, 
	0x00, 0x00, 0x00, 0x00, 0x00, 0x00, 0x00, 0x00, 0x00, 0x00, 0x00, 0x00, 
	0x00, 0x00, 0x00, 0x00, 0x00, 0x00, 0x00, 0x00, 0x00, 0x00, 0x00, 0x00, 
	0x00, 0x00, 0x00, 0x00, 0x00, 0x00, 0x00, 0x00, 0x00, 0x00, 0x00, 0x00, 
	0x00, 0x00, 0x00, 0x00, 0x00, 0x00, 0x00, 0x00, 0x00, 0x00, 0x00, 0x00, 
	0x08, 0x00, 0x00, 0x00, 0x17, 0x8a, 0x0a, 0x3a, 0x64, 0x22, 0x07, 0x3a, 
	0x49, 0xe9, 0x19, 0x3a, 0xa4, 0xb6, 0x12, 0x3a, 0x17, 0x88, 0x0c, 0x3a, 
	0xc2, 0xd9, 0x0c, 0x3a, 0x46, 0x55, 0x1e, 0x3a, 0x8f, 0x04, 0x05, 0x3a, 
	0x2c, 0x00, 0x00, 0x00, 0x73, 0x65, 0x71, 0x75, 0x65, 0x6e, 0x74, 0x69, 
	0x61, 0x6c, 0x5f, 0x31, 0x2f, 0x63, 0x6f, 0x6e, 0x76, 0x32, 0x64, 0x5f, 
	0x34, 0x2f, 0x42, 0x69, 0x61, 0x73, 0x41, 0x64, 0x64, 0x2f, 0x52, 0x65, 
	0x61, 0x64, 0x56, 0x61, 0x72, 0x69, 0x61, 0x62, 0x6c, 0x65, 0x4f, 0x70, 
	0x00, 0x00, 0x00, 0x00, 0x01, 0x00, 0x00, 0x00, 0x08, 0x00, 0x00, 0x00, 
	0x76, 0xfd, 0xff, 0xff, 0x00, 0x00, 0x00, 0x01, 0x14, 0x00, 0x00, 0x00, 
	0x84, 0x00, 0x00, 0x00, 0x06, 0x00, 0x00, 0x00, 0x00, 0x00, 0x00, 0x09, 
	0x9c, 0x00, 0x00, 0x00, 0xfc, 0xfd, 0xff, 0xff, 0x08, 0x00, 0x00, 0x00, 
	0x48, 0x00, 0x00, 0x00, 0x08, 0x00, 0x00, 0x00, 0x00, 0x00, 0x00, 0x00, 
	0x00, 0x00, 0x00, 0x00, 0x00, 0x00, 0x00, 0x00, 0x00, 0x00, 0x00, 0x00, 
	0x00, 0x00, 0x00, 0x00, 0x00, 0x00, 0x00, 0x00, 0x00, 0x00, 0x00, 0x00, 
	0x00, 0x00, 0x00, 0x00, 0x00, 0x00, 0x00, 0x00, 0x00, 0x00, 0x00, 0x00, 
	0x00, 0x00, 0x00, 0x00, 0x00, 0x00, 0x00, 0x00, 0x00, 0x00, 0x00, 0x00, 
	0x00, 0x00, 0x00, 0x00, 0x00, 0x00, 0x00, 0x00, 0x00, 0x00, 0x00, 0x00, 
	0x08, 0x00, 0x00, 0x00, 0xf9, 0xba, 0xc8, 0x3a, 0x20, 0xb2, 0xce, 0x3a, 
	0x73, 0x72, 0xce, 0x3a, 0xcb, 0xf3, 0xc2, 0x3a, 0xa8, 0x05, 0xc6, 0x3a, 
	0x41, 0x2e, 0xd1, 0x3a, 0x6d, 0xbc, 0xc6, 0x3a, 0x94, 0xf9, 0xcc, 0x3a, 
	0x1c, 0x00, 0x00, 0x00, 0x73, 0x65, 0x71, 0x75, 0x65, 0x6e, 0x74, 0x69, 
	0x61, 0x6c, 0x5f, 0x31, 0x2f, 0x63, 0x6f, 0x6e, 0x76, 0x32, 0x64, 0x5f, 
	0x35, 0x2f, 0x43, 0x6f, 0x6e, 0x76, 0x32, 0x44, 0x00, 0x00, 0x00, 0x00, 
	0x04, 0x00, 0x00, 0x00, 0x08, 0x00, 0x00, 0x00, 0x03, 0x00, 0x00, 0x00, 
	0x03, 0x00, 0x00, 0x00, 0x08, 0x00, 0x00, 0x00, 0x3e, 0xfe, 0xff, 0xff, 
	0x00, 0x00, 0x00, 0x01, 0x14, 0x00, 0x00, 0x00, 0x88, 0x00, 0x00, 0x00, 
	0x05, 0x00, 0x00, 0x00, 0x00, 0x00, 0x00, 0x02, 0xb0, 0x00, 0x00, 0x00, 
	0xc4, 0xfe, 0xff, 0xff, 0x08, 0x00, 0x00, 0x00, 0x4c, 0x00, 0x00, 0x00, 
	0x08, 0x00, 0x00, 0x00, 0x00, 0x00, 0x00, 0x00, 0x00, 0x00, 0x00, 0x00, 
	0x00, 0x00, 0x00, 0x00, 0x00, 0x00, 0x00, 0x00, 0x00, 0x00, 0x00, 0x00, 
	0x00, 0x00, 0x00, 0x00, 0x00, 0x00, 0x00, 0x00, 0x00, 0x00, 0x00, 0x00, 
	0x00, 0x00, 0x00, 0x00, 0x00, 0x00, 0x00, 0x00, 0x00, 0x00, 0x00, 0x00, 
	0x00, 0x00, 0x00, 0x00, 0x00, 0x00, 0x00, 0x00, 0x00, 0x00, 0x00, 0x00, 
	0x00, 0x00, 0x00, 0x00, 0x00, 0x00, 0x00, 0x00, 0x00, 0x00, 0x00, 0x00, 
	0x08, 0x00, 0x00, 0x00, 0xd1, 0x15, 0xa5, 0x39, 0xc8, 0xfd, 0xa9, 0x39, 
	0x69, 0xc9, 0xa9, 0x39, 0x4e, 0x55, 0xa0, 0x39, 0x9e, 0xdb, 0xa2, 0x39, 
	0xf2, 0x08, 0xac, 0x39, 0xee, 0x71, 0xa3, 0x39, 0x77, 0x93, 0xa8, 0x39, 
	0x2c, 0x00, 0x00, 0x00, 0x73, 0x65, 0x71, 0x75, 0x65, 0x6e, 0x74, 0x69, 
	0x61, 0x6c, 0x5f, 0x31, 0x2f, 0x63, 0x6f, 0x6e, 0x76, 0x32, 0x64, 0x5f, 
	0x35, 0x2f, 0x42, 0x69, 0x61, 0x73, 0x41, 0x64, 0x64, 0x2f, 0x52, 0x65, 
	0x61, 0x64, 0x56, 0x61, 0x72, 0x69, 0x61, 0x62, 0x6c, 0x65, 0x4f, 0x70, 
	0x00, 0x00, 0x00, 0x00, 0x01, 0x00, 0x00, 0x00, 0x08, 0x00, 0x00, 0x00, 
	0x0e, 0xff, 0xff, 0xff, 0x00, 0x00, 0x00, 0x01, 0x14, 0x00, 0x00, 0x00, 
	0x34, 0x00, 0x00, 0x00, 0x04, 0x00, 0x00, 0x00, 0x00, 0x00, 0x00, 0x09, 
	0x48, 0x00, 0x00, 0x00, 0x94, 0xff, 0xff, 0xff, 0x08, 0x00, 0x00, 0x00, 
	0x14, 0x00, 0x00, 0x00, 0x01, 0x00, 0x00, 0x00, 0x00, 0x00, 0x00, 0x00, 
	0x00, 0x00, 0x00, 0x00, 0x00, 0x00, 0x00, 0x00, 0x01, 0x00, 0x00, 0x00, 
	0x9c, 0xf8, 0x3d, 0x3b, 0x1b, 0x00, 0x00, 0x00, 0x73, 0x65, 0x71, 0x75, 
	0x65, 0x6e, 0x74, 0x69, 0x61, 0x6c, 0x5f, 0x31, 0x2f, 0x64, 0x65, 0x6e, 
	0x73, 0x65, 0x5f, 0x31, 0x2f, 0x4d, 0x61, 0x74, 0x4d, 0x75, 0x6c, 0x00, 
	0x02, 0x00, 0x00, 0x00, 0x09, 0x00, 0x00, 0x00, 0x48, 0x00, 0x00, 0x00, 
	0x7a, 0xff, 0xff, 0xff, 0x00, 0x00, 0x00, 0x01, 0x20, 0x00, 0x00, 0x00, 
	0x40, 0x00, 0x00, 0x00, 0x03, 0x00, 0x00, 0x00, 0x00, 0x00, 0x00, 0x02, 
	0x64, 0x00, 0x00, 0x00, 0x0c, 0x00, 0x0c, 0x00, 0x00, 0x00, 0x00, 0x00, 
	0x08, 0x00, 0x04, 0x00, 0x0c, 0x00, 0x00, 0x00, 0x08, 0x00, 0x00, 0x00, 
	0x14, 0x00, 0x00, 0x00, 0x01, 0x00, 0x00, 0x00, 0x00, 0x00, 0x00, 0x00, 
	0x00, 0x00, 0x00, 0x00, 0x00, 0x00, 0x00, 0x00, 0x01, 0x00, 0x00, 0x00, 
	0x6d, 0x2a, 0x3b, 0x39, 0x2b, 0x00, 0x00, 0x00, 0x73, 0x65, 0x71, 0x75, 
	0x65, 0x6e, 0x74, 0x69, 0x61, 0x6c, 0x5f, 0x31, 0x2f, 0x64, 0x65, 0x6e, 
	0x73, 0x65, 0x5f, 0x31, 0x2f, 0x42, 0x69, 0x61, 0x73, 0x41, 0x64, 0x64, 
	0x2f, 0x52, 0x65, 0x61, 0x64, 0x56, 0x61, 0x72, 0x69, 0x61, 0x62, 0x6c, 
	0x65, 0x4f, 0x70, 0x00, 0x01, 0x00, 0x00, 0x00, 0x09, 0x00, 0x00, 0x00, 
	0x00, 0x00, 0x16, 0x00, 0x1c, 0x00, 0x18, 0x00, 0x17, 0x00, 0x10, 0x00, 
	0x0c, 0x00, 0x08, 0x00, 0x00, 0x00, 0x00, 0x00, 0x00, 0x00, 0x07, 0x00, 
	0x16, 0x00, 0x00, 0x00, 0x00, 0x00, 0x00, 0x01, 0x14, 0x00, 0x00, 0x00, 
	0x14, 0x00, 0x00, 0x00, 0x02, 0x00, 0x00, 0x00, 0x00, 0x00, 0x00, 0x02, 
	0x2c, 0x00, 0x00, 0x00, 0x88, 0xff, 0xff, 0xff, 0x1c, 0x00, 0x00, 0x00, 
	0x73, 0x65, 0x71, 0x75, 0x65, 0x6e, 0x74, 0x69, 0x61, 0x6c, 0x5f, 0x31, 
	0x2f, 0x66, 0x6c, 0x61, 0x74, 0x74, 0x65, 0x6e, 0x5f, 0x31, 0x2f, 0x43, 
	0x6f, 0x6e, 0x73, 0x74, 0x00, 0x00, 0x00, 0x00, 0x01, 0x00, 0x00, 0x00, 
	0x02, 0x00, 0x00, 0x00, 0x00, 0x00, 0x16, 0x00, 0x1c, 0x00, 0x18, 0x00, 
	0x00, 0x00, 0x14, 0x00, 0x10, 0x00, 0x0c, 0x00, 0x00, 0x00, 0x00, 0x00, 
	0x08, 0x00, 0x07, 0x00, 0x16, 0x00, 0x00, 0x00, 0x00, 0x00, 0x00, 0x01, 
	0x14, 0x00, 0x00, 0x00, 0x28, 0x00, 0x00, 0x00, 0x28, 0x00, 0x00, 0x00, 
	0x01, 0x00, 0x00, 0x00, 0x48, 0x00, 0x00, 0x00, 0x04, 0x00, 0x00, 0x00, 
	0xff, 0xff, 0xff, 0xff, 0x18, 0x00, 0x00, 0x00, 0x18, 0x00, 0x00, 0x00, 
	0x01, 0x00, 0x00, 0x00, 0x04, 0x00, 0x04, 0x00, 0x04, 0x00, 0x00, 0x00, 
	0x20, 0x00, 0x00, 0x00, 0x73, 0x65, 0x72, 0x76, 0x69, 0x6e, 0x67, 0x5f, 
	0x64, 0x65, 0x66, 0x61, 0x75, 0x6c, 0x74, 0x5f, 0x63, 0x6f, 0x6e, 0x76, 
	0x32, 0x64, 0x5f, 0x33, 0x5f, 0x69, 0x6e, 0x70, 0x75, 0x74, 0x3a, 0x30, 
	0x00, 0x00, 0x00, 0x00, 0x04, 0x00, 0x00, 0x00, 0x01, 0x00, 0x00, 0x00, 
	0x18, 0x00, 0x00, 0x00, 0x18, 0x00, 0x00, 0x00, 0x01, 0x00, 0x00, 0x00, 
	0x06, 0x00, 0x00, 0x00, 0x7c, 0x00, 0x00, 0x00, 0x5c, 0x00, 0x00, 0x00, 
	0x3c, 0x00, 0x00, 0x00, 0x2c, 0x00, 0x00, 0x00, 0x18, 0x00, 0x00, 0x00, 
	0x04, 0x00, 0x00, 0x00, 0xc4, 0xff, 0xff, 0xff, 0x06, 0x00, 0x00, 0x00, 
	0x02, 0x00, 0x00, 0x00, 0x00, 0x00, 0x00, 0x06, 0xd4, 0xff, 0xff, 0xff, 
	0x09, 0x00, 0x00, 0x00, 0x04, 0x00, 0x00, 0x00, 0x00, 0x00, 0x00, 0x09, 
	0xc8, 0xff, 0xff, 0xff, 0x16, 0x00, 0x00, 0x00, 0x00, 0x00, 0x00, 0x16, 
	0xf0, 0xff, 0xff, 0xff, 0x11, 0x00, 0x00, 0x00, 0x02, 0x00, 0x00, 0x00, 
	0x00, 0x00, 0x00, 0x11, 0x0c, 0x00, 0x10, 0x00, 0x0f, 0x00, 0x00, 0x00, 
	0x08, 0x00, 0x04, 0x00, 0x0c, 0x00, 0x00, 0x00, 0x03, 0x00, 0x00, 0x00, 
	0x03, 0x00, 0x00, 0x00, 0x00, 0x00, 0x00, 0x03, 0x0c, 0x00, 0x0c, 0x00, 
	0x0b, 0x00, 0x00, 0x00, 0x00, 0x00, 0x04, 0x00, 0x0c, 0x00, 0x00, 0x00, 
	0x72, 0x00, 0x00, 0x00, 0x00, 0x00, 0x00, 0x72
};
const int integro_len = 9632;
