
#ifdef __has_attribute
#define HAVE_ATTRIBUTE(x) __has_attribute(x)
#else
#define HAVE_ATTRIBUTE(x) 0
#endif
#if HAVE_ATTRIBUTE(aligned) || (defined(__GNUC__) && !defined(__clang__))
#define DATA_ALIGN_ATTRIBUTE __attribute__((aligned(4)))
#else
#define DATA_ALIGN_ATTRIBUTE
#endif

const unsigned char minitrentadue[] DATA_ALIGN_ATTRIBUTE = {
	0x20, 0x00, 0x00, 0x00, 0x54, 0x46, 0x4c, 0x33, 0x00, 0x00, 0x00, 0x00, 
	0x14, 0x00, 0x20, 0x00, 0x1c, 0x00, 0x18, 0x00, 0x14, 0x00, 0x10, 0x00, 
	0x0c, 0x00, 0x00, 0x00, 0x08, 0x00, 0x04, 0x00, 0x14, 0x00, 0x00, 0x00, 
	0x1c, 0x00, 0x00, 0x00, 0x88, 0x00, 0x00, 0x00, 0xe0, 0x00, 0x00, 0x00, 
	0x58, 0x18, 0x00, 0x00, 0x68, 0x18, 0x00, 0x00, 0x84, 0x21, 0x00, 0x00, 
	0x03, 0x00, 0x00, 0x00, 0x01, 0x00, 0x00, 0x00, 0x04, 0x00, 0x00, 0x00, 
	0x0e, 0xe7, 0xff, 0xff, 0x0c, 0x00, 0x00, 0x00, 0x1c, 0x00, 0x00, 0x00, 
	0x38, 0x00, 0x00, 0x00, 0x0f, 0x00, 0x00, 0x00, 0x73, 0x65, 0x72, 0x76, 
	0x69, 0x6e, 0x67, 0x5f, 0x64, 0x65, 0x66, 0x61, 0x75, 0x6c, 0x74, 0x00, 
	0x01, 0x00, 0x00, 0x00, 0x04, 0x00, 0x00, 0x00, 0x94, 0xff, 0xff, 0xff, 
	0x0d, 0x00, 0x00, 0x00, 0x04, 0x00, 0x00, 0x00, 0x07, 0x00, 0x00, 0x00, 
	0x64, 0x65, 0x6e, 0x73, 0x65, 0x5f, 0x34, 0x00, 0x01, 0x00, 0x00, 0x00, 
	0x04, 0x00, 0x00, 0x00, 0x2e, 0xe8, 0xff, 0xff, 0x04, 0x00, 0x00, 0x00, 
	0x0e, 0x00, 0x00, 0x00, 0x63, 0x6f, 0x6e, 0x76, 0x32, 0x64, 0x5f, 0x38, 
	0x5f, 0x69, 0x6e, 0x70, 0x75, 0x74, 0x00, 0x00, 0x02, 0x00, 0x00, 0x00, 
	0x34, 0x00, 0x00, 0x00, 0x04, 0x00, 0x00, 0x00, 0xdc, 0xff, 0xff, 0xff, 
	0x10, 0x00, 0x00, 0x00, 0x04, 0x00, 0x00, 0x00, 0x13, 0x00, 0x00, 0x00, 
	0x43, 0x4f, 0x4e, 0x56, 0x45, 0x52, 0x53, 0x49, 0x4f, 0x4e, 0x5f, 0x4d, 
	0x45, 0x54, 0x41, 0x44, 0x41, 0x54, 0x41, 0x00, 0x08, 0x00, 0x0c, 0x00, 
	0x08, 0x00, 0x04, 0x00, 0x08, 0x00, 0x00, 0x00, 0x0f, 0x00, 0x00, 0x00, 
	0x04, 0x00, 0x00, 0x00, 0x13, 0x00, 0x00, 0x00, 0x6d, 0x69, 0x6e, 0x5f, 
	0x72, 0x75, 0x6e, 0x74, 0x69, 0x6d, 0x65, 0x5f, 0x76, 0x65, 0x72, 0x73, 
	0x69, 0x6f, 0x6e, 0x00, 0x11, 0x00, 0x00, 0x00, 0x74, 0x17, 0x00, 0x00, 
	0x6c, 0x17, 0x00, 0x00, 0x54, 0x17, 0x00, 0x00, 0x2c, 0x17, 0x00, 0x00, 
	0x9c, 0x16, 0x00, 0x00, 0x6c, 0x16, 0x00, 0x00, 0xdc, 0x11, 0x00, 0x00, 
	0xcc, 0x08, 0x00, 0x00, 0xbc, 0x00, 0x00, 0x00, 0xb4, 0x00, 0x00, 0x00, 
	0xac, 0x00, 0x00, 0x00, 0xa4, 0x00, 0x00, 0x00, 0x9c, 0x00, 0x00, 0x00, 
	0x94, 0x00, 0x00, 0x00, 0x8c, 0x00, 0x00, 0x00, 0x6c, 0x00, 0x00, 0x00, 
	0x04, 0x00, 0x00, 0x00, 0xee, 0xe8, 0xff, 0xff, 0x04, 0x00, 0x00, 0x00, 
	0x58, 0x00, 0x00, 0x00, 0x0c, 0x00, 0x00, 0x00, 0x08, 0x00, 0x0e, 0x00, 
	0x08, 0x00, 0x04, 0x00, 0x08, 0x00, 0x00, 0x00, 0x10, 0x00, 0x00, 0x00, 
	0x28, 0x00, 0x00, 0x00, 0x00, 0x00, 0x06, 0x00, 0x08, 0x00, 0x04, 0x00, 
	0x06, 0x00, 0x00, 0x00, 0x04, 0x00, 0x00, 0x00, 0x01, 0x00, 0x00, 0x00, 
	0xea, 0x03, 0x00, 0x00, 0x00, 0x00, 0x0a, 0x00, 0x10, 0x00, 0x0c, 0x00, 
	0x08, 0x00, 0x04, 0x00, 0x0a, 0x00, 0x00, 0x00, 0x02, 0x00, 0x00, 0x00, 
	0x02, 0x00, 0x00, 0x00, 0x04, 0x00, 0x00, 0x00, 0x06, 0x00, 0x00, 0x00, 
	0x32, 0x2e, 0x31, 0x32, 0x2e, 0x30, 0x00, 0x00, 0x52, 0xe9, 0xff, 0xff, 
	0x04, 0x00, 0x00, 0x00, 0x10, 0x00, 0x00, 0x00, 0x32, 0x2e, 0x34, 0x2e, 
	0x30, 0x00, 0x00, 0x00, 0x00, 0x00, 0x00, 0x00, 0x00, 0x00, 0x00, 0x00, 
	0x5c, 0xe0, 0xff, 0xff, 0x60, 0xe0, 0xff, 0xff, 0x64, 0xe0, 0xff, 0xff, 
	0x68, 0xe0, 0xff, 0xff, 0x6c, 0xe0, 0xff, 0xff, 0x70, 0xe0, 0xff, 0xff, 
	0x86, 0xe9, 0xff, 0xff, 0x04, 0x00, 0x00, 0x00, 0x00, 0x08, 0x00, 0x00, 
	0xff, 0xf1, 0x00, 0x0d, 0x07, 0xf3, 0xe0, 0xff, 0x04, 0xeb, 0x06, 0xee, 
	0x1d, 0x1f, 0xd9, 0x0f, 0x12, 0xe1, 0xfd, 0xf6, 0x19, 0x0a, 0xd8, 0xca, 
	0x2a, 0xc5, 0xf6, 0x02, 0x18, 0x05, 0xc8, 0xe5, 0xe8, 0xbe, 0xfc, 0xf0, 
	0x1e, 0x0a, 0xd0, 0xed, 0xe6, 0xe6, 0xf9, 0xf7, 0x34, 0x15, 0xe7, 0xd4, 
	0x13, 0xe4, 0xfe, 0xfa, 0x27, 0x06, 0xdf, 0xe2, 0x00, 0xf2, 0xf6, 0xe7, 
	0x11, 0x12, 0xe8, 0x18, 0xeb, 0xde, 0x0c, 0xef, 0x10, 0xe5, 0xca, 0xfe, 
	0xea, 0x0c, 0x0c, 0x04, 0x13, 0xe0, 0xde, 0xd8, 0xfe, 0xe1, 0x07, 0x10, 
	0x12, 0xc7, 0xed, 0xb8, 0xef, 0xdb, 0xfc, 0x0a, 0x06, 0xc6, 0xc6, 0xf5, 
	0xee, 0xf4, 0xf5, 0x1b, 0xf7, 0xe4, 0xe2, 0xf8, 0x07, 0xe0, 0x03, 0xfc, 
	0xfe, 0xdd, 0xe4, 0xc3, 0xe7, 0x14, 0x01, 0xf7, 0x13, 0xe7, 0xed, 0x0e, 
	0xf2, 0xf5, 0xf3, 0xd7, 0xfd, 0xfa, 0xec, 0x03, 0xe1, 0xf5, 0x05, 0xf2, 
	0xf5, 0xd5, 0xe9, 0x05, 0xfb, 0x0b, 0xfe, 0xf8, 0xee, 0xe1, 0xfd, 0xdf, 
	0xeb, 0xec, 0x0b, 0x00, 0x08, 0xf1, 0xe5, 0xe8, 0x34, 0xe5, 0xfc, 0x10, 
	0xfd, 0xe9, 0xe4, 0xef, 0xf6, 0xe4, 0x0d, 0x09, 0x17, 0x23, 0xcd, 0xc9, 
	0x03, 0xef, 0x03, 0xf7, 0xfe, 0x0c, 0x02, 0xd9, 0xee, 0x04, 0x06, 0xec, 
	0xe5, 0xeb, 0xed, 0xe2, 0xf5, 0xec, 0xf4, 0xe3, 0xfb, 0x0c, 0xfb, 0xd1, 
	0x18, 0xd2, 0x05, 0xee, 0xed, 0xd7, 0xea, 0xfc, 0xc6, 0x07, 0xfa, 0xed, 
	0xf6, 0xf8, 0xfb, 0xfd, 0x16, 0xfa, 0x08, 0xfd, 0xfc, 0x08, 0x05, 0xda, 
	0x1f, 0x01, 0xf6, 0xf7, 0x01, 0xee, 0x1c, 0xc9, 0xf1, 0xf8, 0x07, 0x08, 
	0xe4, 0x2e, 0x06, 0xce, 0xe4, 0xf6, 0xfa, 0xf9, 0x0d, 0x16, 0x11, 0xba, 
	0xce, 0x06, 0x0a, 0x02, 0xe3, 0xed, 0xf2, 0xe9, 0xdb, 0xdb, 0xfc, 0xd9, 
	0xe8, 0x22, 0xe6, 0xf8, 0x28, 0x9c, 0xfe, 0xd3, 0xc9, 0xdf, 0xee, 0x07, 
	0xda, 0x13, 0xf5, 0x08, 0xee, 0xd1, 0x06, 0xd4, 0xf1, 0x03, 0xf8, 0xfc, 
	0xf2, 0x24, 0x02, 0xfb, 0xfb, 0xf9, 0xf9, 0xf7, 0xfe, 0xc8, 0x1b, 0xf0, 
	0xc7, 0xfa, 0xf8, 0xf0, 0xfc, 0xdd, 0x14, 0xb6, 0x05, 0xff, 0x08, 0xe6, 
	0x04, 0xe7, 0x0e, 0x00, 0xc4, 0x11, 0x0b, 0xfa, 0xec, 0xfa, 0x01, 0xe2, 
	0xd7, 0xa3, 0x03, 0xd4, 0x00, 0x1f, 0xdd, 0x02, 0x24, 0xc3, 0xfd, 0xfa, 
	0xd8, 0xbd, 0xf1, 0x19, 0x09, 0x22, 0x0d, 0x01, 0xc7, 0xc1, 0x0c, 0xf9, 
	0x09, 0x0c, 0x0c, 0xec, 0x0f, 0xea, 0x0d, 0xd0, 0xd4, 0x0d, 0x07, 0xd4, 
	0xf1, 0xd1, 0xfb, 0xb7, 0xb7, 0xfa, 0xfd, 0xe7, 0xe6, 0xcc, 0x16, 0xb9, 
	0x05, 0xe1, 0xf3, 0xd3, 0xef, 0xba, 0x1d, 0xd3, 0xc5, 0x1d, 0xf7, 0x09, 
	0xfa, 0xdc, 0x1a, 0xc5, 0xd4, 0xd1, 0xf4, 0xe8, 0xea, 0x04, 0xdf, 0xef, 
	0x07, 0xbb, 0x02, 0xe0, 0xef, 0xe5, 0xff, 0x2b, 0xf4, 0x2d, 0x02, 0x00, 
	0xe0, 0xd5, 0x19, 0xc8, 0xed, 0x2e, 0x02, 0x36, 0xeb, 0xd1, 0xfa, 0x01, 
	0xc3, 0x02, 0x08, 0xf9, 0xef, 0xd5, 0x05, 0x12, 0xa4, 0xe3, 0xfc, 0xfe, 
	0xf4, 0xbb, 0x15, 0x04, 0xc7, 0x03, 0xf3, 0x34, 0xc2, 0xb5, 0x20, 0xd5, 
	0xcf, 0x2c, 0x00, 0x1f, 0xf6, 0xcc, 0x18, 0xe0, 0x03, 0xdc, 0xfb, 0xe0, 
	0xdc, 0xeb, 0xfe, 0x90, 0xea, 0xf6, 0x06, 0x03, 0xee, 0xe1, 0x32, 0x0a, 
	0xe2, 0xf5, 0x04, 0xbd, 0xfc, 0xc5, 0x10, 0xa9, 0xd5, 0xee, 0xfc, 0xbd, 
	0xe2, 0xe8, 0x01, 0xb7, 0xf2, 0xf5, 0x0c, 0xbe, 0xd2, 0xe8, 0xef, 0x96, 
	0xa8, 0xff, 0x07, 0x97, 0xd3, 0xe1, 0xfe, 0x8b, 0xcf, 0xfa, 0x0d, 0x99, 
	0xb7, 0xc4, 0x12, 0xba, 0xc6, 0xe4, 0x05, 0xc4, 0x08, 0xbb, 0x0d, 0xb1, 
	0x81, 0xcd, 0xf3, 0xf2, 0xdf, 0xfd, 0x23, 0xd0, 0xf2, 0x01, 0x04, 0xea, 
	0xf4, 0xfd, 0xfc, 0x05, 0xd8, 0xeb, 0xf7, 0xf8, 0xfb, 0x0d, 0x0d, 0xf3, 
	0xdf, 0xfc, 0xf8, 0xed, 0xfc, 0x26, 0xf6, 0xf8, 0x06, 0x04, 0x08, 0x02, 
	0x04, 0x0d, 0xfa, 0x0b, 0xf9, 0x08, 0xfe, 0xfc, 0x13, 0xf0, 0xf9, 0x08, 
	0x03, 0xf1, 0x06, 0x0a, 0xf9, 0xdf, 0x07, 0x07, 0xf9, 0xe5, 0x0d, 0xfc, 
	0xfc, 0xee, 0x07, 0x0d, 0xeb, 0x02, 0xf2, 0xfd, 0x01, 0xd7, 0xf6, 0xf6, 
	0xea, 0x08, 0x0c, 0xf7, 0xf0, 0xf5, 0x06, 0xfb, 0xd6, 0xf5, 0x0a, 0xf5, 
	0xfd, 0x07, 0x0e, 0x17, 0x04, 0x00, 0xef, 0xed, 0xec, 0x2e, 0x08, 0x04, 
	0xfc, 0x19, 0xff, 0xd8, 0xe3, 0x14, 0x1e, 0x1e, 0x1b, 0x0c, 0xff, 0xec, 
	0xed, 0xfe, 0x0f, 0x0f, 0x08, 0xf7, 0x0a, 0xf2, 0xfa, 0x18, 0x0b, 0xf6, 
	0x16, 0x03, 0x0b, 0xf8, 0xe5, 0xfe, 0x11, 0x08, 0xf2, 0x05, 0x02, 0xf4, 
	0xfb, 0x09, 0xf6, 0x01, 0xf1, 0xfb, 0x03, 0x19, 0xf0, 0xfd, 0x19, 0xfa, 
	0xe9, 0xf0, 0xfc, 0x03, 0xdf, 0xcb, 0xfa, 0xdb, 0xd5, 0xff, 0x0e, 0x02, 
	0xd9, 0x06, 0x0b, 0xd3, 0xcf, 0x0c, 0x08, 0xf4, 0xe4, 0xee, 0x05, 0xed, 
	0xfa, 0x12, 0x02, 0xf6, 0xe0, 0x02, 0x0e, 0xf3, 0xfb, 0xf6, 0xfe, 0x07, 
	0xcc, 0xef, 0x02, 0xe7, 0x1d, 0xf6, 0x0b, 0x03, 0xfc, 0x1c, 0x0e, 0x06, 
	0x12, 0x13, 0x08, 0x1a, 0xf0, 0xfa, 0x0c, 0xe4, 0xe2, 0x08, 0xf5, 0x17, 
	0x06, 0x0b, 0x0a, 0xed, 0x01, 0xe1, 0xf2, 0xfb, 0x0b, 0xef, 0x0f, 0xec, 
	0xde, 0xf8, 0xfb, 0x0a, 0xe6, 0xfc, 0xfd, 0xdf, 0xec, 0xed, 0x01, 0xef, 
	0x02, 0xf0, 0xf4, 0x11, 0xde, 0x0b, 0x0f, 0xf4, 0xdc, 0xe7, 0xf8, 0x23, 
	0x0e, 0xe3, 0x05, 0x03, 0xed, 0xe7, 0x0e, 0xf2, 0x1e, 0x02, 0x01, 0xf2, 
	0x05, 0x1a, 0x06, 0xdf, 0xf7, 0x14, 0x0b, 0x3b, 0x07, 0xf3, 0xff, 0xd1, 
	0xe1, 0x09, 0xfb, 0x13, 0x21, 0xfe, 0x05, 0x04, 0xf4, 0xfb, 0x08, 0x0f, 
	0x29, 0xd5, 0xf4, 0xe3, 0xf2, 0xf2, 0x0e, 0x0f, 0x0d, 0xf2, 0x03, 0xf5, 
	0xdd, 0xdf, 0x07, 0x34, 0xff, 0x07, 0xf6, 0xee, 0x0b, 0xe5, 0xf2, 0x28, 
	0xfe, 0x02, 0x06, 0xe2, 0xfd, 0xe9, 0x09, 0x18, 0x01, 0xd5, 0xed, 0xd6, 
	0x06, 0xff, 0xf3, 0x06, 0x11, 0xf3, 0xf0, 0xe2, 0xfd, 0x05, 0x01, 0x29, 
	0x05, 0xee, 0x10, 0xcd, 0xfe, 0x1f, 0xf6, 0x0b, 0x07, 0x06, 0x00, 0xed, 
	0xfc, 0xef, 0xff, 0xfd, 0x18, 0xc6, 0xed, 0x15, 0xec, 0xec, 0x02, 0x0c, 
	0xfe, 0xfa, 0xfa, 0x28, 0xfe, 0xf3, 0xfe, 0x18, 0x05, 0xfe, 0xdc, 0x01, 
	0x15, 0xe9, 0x03, 0x26, 0x08, 0x0a, 0xfa, 0xeb, 0x0b, 0xe4, 0x06, 0x05, 
	0x10, 0xd1, 0xe7, 0x2b, 0xf6, 0xd8, 0xf8, 0xfa, 0x30, 0xf1, 0xf6, 0x12, 
	0xf6, 0x1d, 0x02, 0x07, 0x10, 0xfb, 0x0b, 0xf0, 0x03, 0x16, 0x03, 0x0b, 
	0x06, 0xf7, 0xf4, 0xfb, 0xfa, 0x19, 0x0c, 0x02, 0x0b, 0xd6, 0xf1, 0xf3, 
	0xfd, 0xda, 0xfd, 0xee, 0x04, 0x09, 0x0a, 0x05, 0x18, 0xf0, 0x05, 0x01, 
	0x09, 0x08, 0xf2, 0x1e, 0x1e, 0xfe, 0xfa, 0x08, 0x06, 0xdf, 0xec, 0x1c, 
	0x10, 0xee, 0x04, 0xf4, 0x27, 0xf1, 0xea, 0x0f, 0xf9, 0x0a, 0x06, 0xf6, 
	0xf9, 0x09, 0xf8, 0xfe, 0x01, 0x11, 0x0a, 0x0f, 0x15, 0x08, 0x05, 0xf1, 
	0x03, 0xfd, 0xf6, 0xfe, 0xfd, 0xe6, 0xe2, 0xff, 0x0a, 0xec, 0xf6, 0xf6, 
	0x16, 0xdf, 0xf6, 0x03, 0x16, 0xf3, 0xf3, 0x0d, 0x27, 0x17, 0x16, 0x0b, 
	0x05, 0xf4, 0x0d, 0xf6, 0x05, 0x06, 0x21, 0xfe, 0x0e, 0xfc, 0x08, 0xf4, 
	0x05, 0xf7, 0x00, 0xf7, 0x19, 0xf9, 0xfa, 0x08, 0x0e, 0xed, 0xf4, 0xff, 
	0xee, 0xe9, 0xf7, 0x04, 0x04, 0xf9, 0xf7, 0x0f, 0xf9, 0xe0, 0x0e, 0x07, 
	0x25, 0xee, 0xe3, 0x02, 0xf0, 0x0b, 0xf2, 0x11, 0xeb, 0xda, 0x0f, 0x00, 
	0xe5, 0x0b, 0xfb, 0xf0, 0xe3, 0xd8, 0x04, 0xe6, 0xd6, 0x1e, 0xf8, 0x04, 
	0xef, 0xdb, 0x1a, 0xf0, 0xcf, 0x22, 0xf7, 0xe0, 0xef, 0x05, 0x10, 0xe3, 
	0xfc, 0x16, 0x01, 0xf0, 0xdd, 0x13, 0x20, 0xcd, 0x07, 0x14, 0x0a, 0x07, 
	0xef, 0xe6, 0x09, 0x01, 0xe9, 0x0d, 0x0b, 0xfe, 0xf9, 0xc2, 0x0f, 0xe0, 
	0x9a, 0x04, 0x00, 0x15, 0x06, 0xe4, 0x09, 0xf0, 0x14, 0x01, 0xfa, 0x16, 
	0xe8, 0xdf, 0x01, 0x0d, 0x2f, 0xf8, 0x08, 0xfd, 0xff, 0xda, 0xfe, 0xce, 
	0xe1, 0xff, 0xf8, 0xf3, 0x09, 0xcf, 0x08, 0x13, 0xe4, 0xe6, 0xf5, 0x14, 
	0xec, 0xf3, 0x04, 0xf5, 0xd1, 0xec, 0x00, 0x1c, 0x0c, 0x9c, 0x15, 0xea, 
	0xc6, 0xf7, 0x0b, 0xf5, 0xed, 0xba, 0xfb, 0xfe, 0xe0, 0xf7, 0xfa, 0x07, 
	0x02, 0xd6, 0xf2, 0xd1, 0xfc, 0x16, 0x03, 0x1d, 0x02, 0xca, 0xfc, 0xd2, 
	0x44, 0x0d, 0xff, 0x05, 0xfa, 0x1e, 0x05, 0x04, 0xed, 0xe5, 0xf5, 0xe8, 
	0x0f, 0xfe, 0x01, 0xe3, 0xe5, 0x14, 0x08, 0x00, 0x10, 0x02, 0xf9, 0x13, 
	0xe3, 0xdb, 0x05, 0x13, 0x11, 0x03, 0x01, 0x01, 0xe6, 0xe7, 0x03, 0xf3, 
	0xec, 0xff, 0x04, 0xea, 0xec, 0x20, 0xf6, 0x1a, 0x02, 0xbb, 0x08, 0xf7, 
	0xfe, 0xf3, 0x09, 0xf3, 0x17, 0xfb, 0xfe, 0xef, 0xf9, 0x20, 0xfb, 0x08, 
	0x13, 0xd8, 0xfd, 0x1d, 0x15, 0x28, 0xf7, 0x02, 0x04, 0x19, 0x03, 0xe2, 
	0x03, 0xe2, 0x05, 0x09, 0xfc, 0x07, 0xf5, 0xf4, 0x07, 0xd8, 0xfc, 0xe7, 
	0x03, 0xeb, 0x10, 0xf6, 0xf6, 0xdb, 0xfa, 0xe0, 0xf2, 0x02, 0xed, 0xe3, 
	0xf1, 0x07, 0xfd, 0xf1, 0xe9, 0xf0, 0x0d, 0xcf, 0xbc, 0xd4, 0xfa, 0xdb, 
	0xfa, 0xa1, 0xf0, 0x08, 0xf2, 0xfd, 0x09, 0x0a, 0x0d, 0x00, 0xfe, 0x10, 
	0x10, 0x24, 0x08, 0x02, 0x16, 0xe4, 0xfa, 0x0d, 0xdb, 0x36, 0xf2, 0x1b, 
	0xdc, 0x15, 0x1b, 0xe5, 0xf4, 0xf0, 0xfc, 0xfe, 0xf7, 0x07, 0xf0, 0x1e, 
	0xdf, 0x04, 0x00, 0xfd, 0x08, 0xca, 0x00, 0xfd, 0xdc, 0xf9, 0x00, 0xed, 
	0xef, 0xda, 0xf5, 0x0a, 0xbe, 0xf7, 0x0a, 0xe7, 0xf8, 0xe6, 0xf8, 0x02, 
	0xd8, 0x0f, 0x07, 0x08, 0xec, 0xfb, 0xf5, 0x0b, 0x0f, 0xe4, 0xfb, 0xfa, 
	0xf6, 0x0d, 0xee, 0x13, 0xe5, 0x17, 0xf2, 0xf7, 0x01, 0xf2, 0xf7, 0xff, 
	0xd4, 0x02, 0x07, 0xf7, 0xe9, 0xd7, 0xff, 0xd6, 0xe5, 0xd8, 0xfa, 0xff, 
	0xf4, 0x23, 0x03, 0xc0, 0x07, 0xfc, 0x0d, 0x05, 0xfc, 0xff, 0xed, 0xe1, 
	0x06, 0xfd, 0xf5, 0xd8, 0xfa, 0x10, 0x01, 0xde, 0xc1, 0xfc, 0xf7, 0xd4, 
	0xfd, 0xfd, 0xfa, 0xd2, 0xe1, 0xfc, 0xf4, 0xf6, 0x06, 0x1b, 0xf0, 0xe7, 
	0x07, 0xe5, 0xf3, 0xec, 0x12, 0xe2, 0xf6, 0xff, 0xf6, 0xe6, 0x07, 0x06, 
	0xef, 0xd1, 0xf2, 0xf8, 0xcf, 0x09, 0xfa, 0xea, 0xf7, 0xc8, 0xec, 0xf7, 
	0xea, 0xda, 0xfd, 0xfe, 0x0e, 0x0d, 0xf3, 0xfd, 0x1e, 0x00, 0xfd, 0xea, 
	0x0a, 0xea, 0xfc, 0x13, 0x00, 0x18, 0xf5, 0xd4, 0x0c, 0x02, 0x10, 0xe0, 
	0xd2, 0x11, 0x02, 0xd6, 0x0d, 0x1d, 0xff, 0x02, 0xc2, 0x0d, 0x0a, 0x03, 
	0x0d, 0x18, 0xf3, 0x04, 0x04, 0xdd, 0x05, 0xef, 0x12, 0x00, 0xed, 0xf9, 
	0xed, 0xf5, 0xfe, 0xf5, 0x0d, 0xfb, 0xf2, 0xf7, 0xd4, 0xea, 0xf8, 0xe6, 
	0xf4, 0xff, 0xf3, 0x07, 0x0f, 0xe8, 0xf8, 0xec, 0x09, 0x17, 0xe9, 0xf7, 
	0x21, 0xdb, 0x08, 0xfc, 0xfe, 0xda, 0x07, 0x00, 0x09, 0xda, 0xf6, 0x09, 
	0x0a, 0xe9, 0x13, 0x04, 0x03, 0xcb, 0xfd, 0x0d, 0x0f, 0x04, 0xfc, 0xfd, 
	0x17, 0xda, 0xfd, 0xff, 0x1e, 0x11, 0xf2, 0xf7, 0x1e, 0xe7, 0xf8, 0xe1, 
	0xf8, 0xfe, 0xf3, 0xf8, 0xeb, 0xe6, 0x07, 0xd7, 0x1e, 0xcd, 0xf2, 0x05, 
	0x0d, 0x08, 0x0b, 0xfd, 0xff, 0x13, 0x0c, 0xeb, 0x1c, 0x0a, 0xfd, 0x01, 
	0xe5, 0xe0, 0xff, 0x0c, 0x04, 0x0a, 0xfd, 0xfe, 0xf7, 0xea, 0xf5, 0x0d, 
	0xf8, 0x03, 0x05, 0x22, 0xf7, 0xf5, 0xf3, 0x0c, 0xff, 0xff, 0x0c, 0x13, 
	0xfa, 0xf6, 0xf7, 0x04, 0xfb, 0x0c, 0xfb, 0xff, 0xd4, 0x09, 0x03, 0xfa, 
	0x07, 0x0e, 0x0b, 0xfb, 0xf2, 0x17, 0xff, 0x0c, 0x14, 0xf2, 0xff, 0xf7, 
	0x00, 0x11, 0x0c, 0x09, 0x20, 0xeb, 0xf6, 0x00, 0x00, 0x09, 0xfe, 0x03, 
	0x03, 0x06, 0x07, 0x05, 0xfa, 0x0c, 0x0b, 0xf7, 0x0a, 0x05, 0xf5, 0xfe, 
	0xe6, 0x02, 0x06, 0x0c, 0x10, 0xff, 0x0c, 0xfa, 0xf1, 0x16, 0xf9, 0xe2, 
	0x0c, 0x01, 0xf3, 0xfa, 0x08, 0x06, 0x0a, 0xd8, 0x07, 0x09, 0x0a, 0x0e, 
	0x02, 0x07, 0xf7, 0x03, 0xf6, 0xff, 0x0a, 0xfb, 0x02, 0x16, 0x00, 0xee, 
	0x02, 0xe7, 0xf7, 0xfa, 0x07, 0x01, 0xf0, 0x08, 0xed, 0xf5, 0x0a, 0x00, 
	0xfb, 0x00, 0x01, 0xf7, 0x16, 0x04, 0x03, 0xfb, 0x10, 0x1b, 0x08, 0x1d, 
	0x22, 0x04, 0x04, 0xf8, 0x06, 0xf8, 0xf8, 0x0c, 0x05, 0x1c, 0x0a, 0xed, 
	0xf1, 0x0f, 0xe9, 0x09, 0x09, 0x26, 0xf9, 0xf6, 0x0a, 0xd7, 0xfa, 0x0d, 
	0xf4, 0x0b, 0xfd, 0x01, 0x03, 0xf1, 0xf9, 0x0c, 0xe9, 0x03, 0x08, 0x07, 
	0x0b, 0xfe, 0x01, 0xfe, 0x04, 0xeb, 0x04, 0xed, 0xfc, 0xff, 0xf8, 0x0d, 
	0xc5, 0x00, 0x07, 0x0b, 0xff, 0xe7, 0xf8, 0x03, 0x0d, 0x06, 0xfb, 0xfb, 
	0xf1, 0x0c, 0xfe, 0x10, 0xf3, 0x19, 0x03, 0x01, 0xfd, 0xe3, 0xfd, 0x10, 
	0xed, 0xf2, 0xf7, 0x02, 0xfd, 0xf0, 0xf4, 0x06, 0x23, 0x02, 0x09, 0x04, 
	0x1a, 0xe0, 0xec, 0xea, 0x0f, 0x0d, 0x07, 0x0f, 0x12, 0x03, 0xfe, 0xf7, 
	0xef, 0xf9, 0x04, 0x08, 0xff, 0xff, 0x08, 0x08, 0x07, 0x05, 0xf9, 0x04, 
	0xfa, 0xf8, 0xf3, 0x21, 0xec, 0x0d, 0x08, 0x0a, 0x01, 0xfb, 0xfc, 0x1b, 
	0x0a, 0x08, 0xf8, 0xff, 0xed, 0x20, 0x08, 0x04, 0x0f, 0x03, 0x03, 0xfb, 
	0xe8, 0xef, 0xf0, 0xfb, 0x14, 0x05, 0x06, 0xe5, 0xf2, 0xfd, 0x06, 0xfc, 
	0x11, 0x1e, 0x0d, 0xec, 0x06, 0x15, 0xff, 0x0e, 0xf4, 0xf4, 0x0a, 0xf9, 
	0x00, 0x24, 0xf9, 0x07, 0xd0, 0x0d, 0x03, 0xf2, 0xe6, 0xfd, 0x05, 0x09, 
	0xf1, 0x17, 0x0a, 0x07, 0xf7, 0xed, 0xfc, 0x00, 0xf0, 0x27, 0x00, 0x07, 
	0xe9, 0x00, 0xf6, 0x13, 0xf3, 0x05, 0x04, 0x03, 0xf4, 0x10, 0xff, 0xed, 
	0xf7, 0xfe, 0xff, 0xf8, 0xe4, 0xee, 0x0c, 0xe0, 0xeb, 0x05, 0xf2, 0x02, 
	0xef, 0xdc, 0x15, 0x0b, 0x09, 0xef, 0x05, 0xf1, 0x0c, 0xf5, 0x15, 0x1c, 
	0xdb, 0x03, 0xfd, 0x02, 0xf2, 0x21, 0x0c, 0xe3, 0xe1, 0x08, 0x0a, 0x01, 
	0xdb, 0x13, 0xfd, 0xdd, 0x0c, 0x15, 0xf1, 0x03, 0x01, 0xed, 0xf5, 0x06, 
	0xf0, 0x0a, 0xf5, 0xff, 0x01, 0x02, 0xfb, 0x0a, 0xe8, 0xd4, 0xf3, 0xf7, 
	0xd9, 0x06, 0x08, 0x0a, 0xe8, 0xe5, 0x08, 0xf6, 0xd9, 0xef, 0xea, 0xec, 
	0xf8, 0xf0, 0x0c, 0xf8, 0xde, 0xe3, 0xfc, 0xe9, 0xe2, 0xf4, 0xff, 0xf7, 
	0xf0, 0xf2, 0xf9, 0xcf, 0xe7, 0xfe, 0x0b, 0xeb, 0xe6, 0xe9, 0xfa, 0xea, 
	0xf2, 0xdd, 0x0a, 0xf4, 0xec, 0x01, 0xfa, 0x06, 0xee, 0x14, 0x0c, 0xff, 
	0xff, 0x04, 0xfb, 0x01, 0x0a, 0xfc, 0xfb, 0xfb, 0x03, 0x04, 0x0f, 0x06, 
	0xd8, 0x12, 0x0b, 0x04, 0xe1, 0xfc, 0x09, 0x0b, 0xc8, 0x18, 0x07, 0x06, 
	0xdb, 0xfb, 0x00, 0x09, 0xe1, 0x0e, 0x01, 0x11, 0xdb, 0xf8, 0xf4, 0x03, 
	0xdc, 0x09, 0x0a, 0xfd, 0xe0, 0xef, 0xf9, 0x04, 0xbb, 0x04, 0x06, 0x0a, 
	0xe2, 0xf3, 0x08, 0x00, 0xea, 0x19, 0x06, 0x04, 0xeb, 0xf4, 0xfb, 0xff, 
	0x08, 0x0d, 0x05, 0x11, 0xd4, 0x22, 0xfd, 0xfe, 0x92, 0xf1, 0xff, 0xff, 
	0x04, 0x00, 0x00, 0x00, 0x00, 0x09, 0x00, 0x00, 0x19, 0x16, 0xd2, 0x17, 
	0x44, 0xf3, 0xea, 0x16, 0x09, 0x36, 0xe6, 0xcb, 0x17, 0x05, 0x26, 0x17, 
	0x4b, 0x05, 0xf0, 0x17, 0xb2, 0xcf, 0xef, 0xf5, 0x2d, 0x1e, 0x12, 0x08, 
	0x00, 0x0c, 0xd1, 0xed, 0xf7, 0xf2, 0xef, 0x21, 0x2d, 0x4a, 0xe3, 0x08, 
	0x0d, 0x02, 0xb6, 0x26, 0x15, 0xee, 0x0c, 0x03, 0x63, 0xde, 0x29, 0xe0, 
	0xf4, 0xbe, 0xea, 0xa6, 0x01, 0xf4, 0x15, 0x19, 0xe0, 0x07, 0xf9, 0x16, 
	0x12, 0x15, 0xf8, 0x0a, 0x26, 0x03, 0xda, 0x1b, 0xfe, 0x18, 0xe8, 0x0b, 
	0x1a, 0x0a, 0x3f, 0xfe, 0x2a, 0x02, 0x39, 0x10, 0x0b, 0x01, 0x1f, 0xe3, 
	0x14, 0x1c, 0x24, 0x01, 0xee, 0x07, 0x05, 0x1d, 0xf3, 0x03, 0xf6, 0x3e, 
	0x40, 0xef, 0x25, 0x04, 0xfc, 0xce, 0x04, 0xe8, 0xed, 0xfc, 0xea, 0x15, 
	0xed, 0xcb, 0x35, 0xf8, 0xf6, 0xc3, 0xdf, 0xda, 0xf4, 0x15, 0x31, 0x51, 
	0x04, 0x0d, 0xfb, 0x1a, 0xe8, 0x0c, 0xef, 0x57, 0x41, 0x38, 0xfa, 0xd7, 
	0x81, 0xf6, 0xf3, 0x16, 0x00, 0x2a, 0x43, 0xf3, 0x4d, 0xc8, 0x34, 0xa4, 
	0x2c, 0xaf, 0xf3, 0xb2, 0xb0, 0x00, 0xe1, 0xff, 0x13, 0x07, 0x11, 0x09, 
	0xf6, 0x06, 0xf4, 0x01, 0x16, 0x01, 0xf8, 0xff, 0xf8, 0xdd, 0xe9, 0x0e, 
	0xe9, 0xf9, 0x29, 0xf4, 0xfe, 0xd5, 0xec, 0xf9, 0xdc, 0x08, 0x14, 0x06, 
	0xd8, 0xe9, 0x17, 0x08, 0x01, 0xf7, 0xed, 0x17, 0x1a, 0x00, 0x1f, 0x27, 
	0xdb, 0x16, 0x05, 0x1a, 0xf0, 0xe2, 0xfe, 0xed, 0xc8, 0xd5, 0xc1, 0x11, 
	0xba, 0xcc, 0x06, 0xfb, 0xe9, 0x14, 0xdb, 0xfa, 0xfc, 0x00, 0x49, 0xed, 
	0xdf, 0x17, 0xf5, 0x16, 0x0e, 0x12, 0x12, 0x36, 0xf3, 0x1c, 0x23, 0xdd, 
	0xc0, 0x0f, 0xf6, 0x08, 0xf4, 0x1f, 0x05, 0xeb, 0x0c, 0xe9, 0x0b, 0xe9, 
	0x0e, 0xfa, 0xdc, 0xf6, 0xf0, 0x1f, 0xf2, 0x0e, 0x00, 0x17, 0x0a, 0xf0, 
	0x22, 0xfa, 0xdd, 0xeb, 0x0b, 0x34, 0xec, 0x17, 0x1c, 0xd6, 0xeb, 0x33, 
	0x04, 0x09, 0x2e, 0xfb, 0xf1, 0xe5, 0xf7, 0x03, 0xe7, 0xeb, 0x2d, 0x0f, 
	0xf4, 0xd6, 0x24, 0xdc, 0x08, 0x15, 0x05, 0x32, 0x0b, 0xfb, 0xd2, 0x04, 
	0x01, 0xd9, 0x08, 0xa6, 0xcc, 0xf1, 0xf6, 0x26, 0xc9, 0x32, 0x0b, 0xd6, 
	0x2a, 0xdb, 0xcb, 0xe4, 0x37, 0xea, 0xde, 0xee, 0xbd, 0x17, 0xb5, 0x27, 
	0x21, 0xf9, 0xfc, 0xc0, 0x0a, 0xfb, 0x04, 0xeb, 0x1c, 0xc9, 0x0b, 0xc7, 
	0xfc, 0x25, 0xfc, 0x03, 0xee, 0x33, 0xa3, 0xd7, 0x3f, 0x1f, 0x0f, 0xe4, 
	0x19, 0xeb, 0xf3, 0xfa, 0xe3, 0xf1, 0x01, 0xfc, 0x24, 0x03, 0xeb, 0xd5, 
	0xd9, 0xf3, 0x01, 0x06, 0x1f, 0xac, 0x0b, 0xda, 0xf5, 0xee, 0x16, 0x01, 
	0xb5, 0xee, 0x10, 0xdd, 0xf2, 0x20, 0xfb, 0x0c, 0x42, 0xea, 0xf7, 0xf3, 
	0xe8, 0x00, 0xbc, 0x12, 0x05, 0x04, 0xe6, 0xd9, 0xd3, 0xfe, 0xee, 0x08, 
	0xd7, 0xfd, 0x11, 0xa0, 0xde, 0xde, 0xdb, 0xec, 0xe6, 0x32, 0x18, 0x1b, 
	0x1c, 0x03, 0xfa, 0xdc, 0x21, 0x07, 0xd9, 0xe0, 0xa6, 0xeb, 0xe0, 0xe5, 
	0xe3, 0x08, 0xf9, 0xfd, 0xd0, 0x08, 0xf4, 0x1f, 0xfe, 0x0e, 0x1d, 0xeb, 
	0xdc, 0xe5, 0xf7, 0xce, 0xdf, 0x21, 0x0a, 0x12, 0x22, 0xeb, 0x09, 0xfd, 
	0x1d, 0xfe, 0xf7, 0x0a, 0xc1, 0x17, 0x12, 0xf6, 0xfd, 0x0c, 0xf9, 0xdf, 
	0xd1, 0xf5, 0xd9, 0x1b, 0x19, 0xf8, 0x07, 0xb5, 0xcb, 0x01, 0xdf, 0xd8, 
	0xd3, 0x1c, 0xee, 0x05, 0xef, 0xed, 0xd8, 0xfb, 0x3e, 0xf7, 0x0f, 0x0c, 
	0xe0, 0xcf, 0xdc, 0x24, 0x04, 0xf0, 0xd9, 0x04, 0xf6, 0x10, 0x2b, 0x04, 
	0xf2, 0x0b, 0x0f, 0xe6, 0xab, 0xdf, 0x31, 0x12, 0xdf, 0xec, 0x05, 0x15, 
	0xeb, 0xe4, 0xcc, 0x02, 0x1b, 0x24, 0x14, 0x11, 0xae, 0xdf, 0x55, 0xd4, 
	0x02, 0xf3, 0x0f, 0x0e, 0x0b, 0x17, 0x24, 0x03, 0xf1, 0x0b, 0x10, 0xb3, 
	0xd5, 0xe8, 0xe6, 0xf1, 0xe1, 0x08, 0xd0, 0x07, 0x2b, 0xdb, 0xd5, 0x16, 
	0x0a, 0x38, 0x24, 0x28, 0x98, 0xf7, 0x16, 0x20, 0xf2, 0x18, 0x23, 0xea, 
	0x0b, 0xe9, 0x28, 0x09, 0xfe, 0x0f, 0xf7, 0xc0, 0xf7, 0xeb, 0xdf, 0xe2, 
	0xe6, 0x3e, 0xce, 0x0a, 0x1e, 0xff, 0xe7, 0x1e, 0x3e, 0x14, 0x18, 0x1f, 
	0x81, 0xca, 0x24, 0x45, 0x05, 0x01, 0x2d, 0xbf, 0x20, 0x52, 0xaa, 0xdf, 
	0x27, 0x11, 0xce, 0xf5, 0x0f, 0x17, 0xd4, 0xc7, 0xcb, 0x21, 0xd9, 0x22, 
	0x21, 0x98, 0x35, 0x9a, 0x23, 0x8f, 0xe2, 0x90, 0x27, 0xe2, 0x06, 0xb4, 
	0x2b, 0x12, 0xfe, 0xf6, 0x93, 0x35, 0x1a, 0xa4, 0x1e, 0xdd, 0x0b, 0x12, 
	0xe5, 0xec, 0x34, 0xfc, 0xc7, 0x2a, 0xa9, 0x8d, 0xe0, 0xc8, 0x31, 0xc9, 
	0x56, 0xa7, 0x95, 0x13, 0x9e, 0xd6, 0xfe, 0xf1, 0xc6, 0x4a, 0xbd, 0x39, 
	0xd8, 0xf5, 0xac, 0xa9, 0x03, 0x83, 0xbf, 0xee, 0x01, 0x4e, 0x18, 0xf8, 
	0xe5, 0xc6, 0xe8, 0xb5, 0x21, 0xb9, 0x29, 0x11, 0x32, 0xbf, 0xd7, 0x14, 
	0xc5, 0xe8, 0x4c, 0x22, 0x26, 0xc7, 0xbe, 0xc5, 0x00, 0xe3, 0x04, 0xf2, 
	0xb8, 0x8a, 0xf3, 0xa7, 0xd2, 0x4b, 0x02, 0x0d, 0xac, 0xc1, 0xed, 0x25, 
	0xf9, 0x97, 0xbe, 0xbb, 0xd2, 0xed, 0xfe, 0x0a, 0x0d, 0xf6, 0xeb, 0xbe, 
	0xeb, 0x3d, 0x9e, 0x36, 0x38, 0x50, 0xd2, 0x8b, 0x19, 0xdd, 0x1f, 0xba, 
	0xfe, 0x40, 0x10, 0xb8, 0xdf, 0xca, 0xd4, 0xa1, 0xc9, 0xad, 0xc8, 0xe1, 
	0xda, 0x9c, 0xa5, 0x24, 0xca, 0x10, 0x02, 0x1e, 0x42, 0x3c, 0xbc, 0x32, 
	0xc1, 0xf6, 0xdf, 0xa7, 0x05, 0xa9, 0xf8, 0x4d, 0x9b, 0x2d, 0x04, 0xc0, 
	0xcb, 0xb2, 0x2d, 0x89, 0x9e, 0x11, 0xfd, 0xaa, 0xc5, 0xa2, 0x1f, 0x02, 
	0xa9, 0x10, 0x0a, 0xaf, 0x30, 0x35, 0x81, 0xe6, 0xf9, 0xfd, 0xee, 0xe6, 
	0xc4, 0x3c, 0xd8, 0xcc, 0xe5, 0xb2, 0x33, 0x50, 0xb8, 0x06, 0xf4, 0x1b, 
	0xd5, 0xb4, 0x01, 0xb1, 0xd5, 0xab, 0xa9, 0xd6, 0xc3, 0xf0, 0xb2, 0xfe, 
	0xc6, 0x0a, 0xc0, 0x3c, 0xce, 0xc0, 0x11, 0xf4, 0xff, 0xf1, 0xef, 0xb1, 
	0xb5, 0xd1, 0xda, 0x29, 0xb4, 0x19, 0x02, 0xd1, 0xab, 0xed, 0xaf, 0xde, 
	0xec, 0xec, 0xfa, 0x05, 0x18, 0xb3, 0x13, 0xc7, 0xda, 0xcc, 0xe7, 0xe6, 
	0x12, 0x28, 0xbf, 0xca, 0xfe, 0xf1, 0x09, 0xe4, 0xa9, 0xe0, 0xfb, 0x08, 
	0xe1, 0x34, 0x0e, 0xf2, 0x15, 0xf5, 0x8f, 0xe5, 0xe9, 0x0b, 0xe6, 0xe0, 
	0x2c, 0x29, 0x46, 0xb2, 0x05, 0x02, 0x8f, 0xa2, 0x07, 0xe8, 0xc8, 0xf5, 
	0x25, 0xec, 0xf8, 0x1e, 0x2a, 0xc7, 0xcb, 0xe7, 0x0e, 0xe0, 0x3f, 0x01, 
	0x1a, 0x05, 0xef, 0xf3, 0xce, 0xe1, 0x03, 0xeb, 0x00, 0xea, 0xb2, 0xfd, 
	0xd8, 0x0b, 0xe7, 0xd3, 0xeb, 0xf9, 0xcc, 0x1d, 0x28, 0x35, 0xfb, 0xe9, 
	0xe6, 0xe3, 0xe4, 0x23, 0x19, 0xc9, 0x65, 0xd3, 0x2f, 0xfd, 0x04, 0xe0, 
	0xe2, 0xf5, 0xbe, 0xf9, 0x14, 0xf0, 0xaa, 0xc2, 0xb2, 0xf5, 0xe5, 0x12, 
	0xc3, 0x09, 0xdc, 0x2c, 0x2c, 0x04, 0x1c, 0x2c, 0xee, 0xff, 0xe8, 0xe7, 
	0x0f, 0xc8, 0x1f, 0x0c, 0xb0, 0x0e, 0x1a, 0xe5, 0x2c, 0xe7, 0xeb, 0xc8, 
	0x2f, 0x03, 0xff, 0xb8, 0xc1, 0xf8, 0xdf, 0x16, 0xfc, 0x1d, 0x0c, 0x2b, 
	0xf3, 0x3d, 0x0a, 0x00, 0xf4, 0x0f, 0xd3, 0xe1, 0x27, 0x29, 0x20, 0x15, 
	0x50, 0xf9, 0x5b, 0xe7, 0xd3, 0x05, 0xf7, 0x00, 0xf4, 0xce, 0xfa, 0x5f, 
	0xb0, 0x13, 0x17, 0x1b, 0xec, 0xfa, 0x21, 0x38, 0xee, 0x6c, 0xd2, 0xd0, 
	0xdf, 0xf0, 0xde, 0xe2, 0x40, 0xe9, 0x31, 0x32, 0x7f, 0xdd, 0x4d, 0x0f, 
	0xc2, 0xf9, 0xdc, 0xe0, 0xf1, 0x23, 0xba, 0xe2, 0x9d, 0x03, 0xf5, 0x2b, 
	0xe4, 0xed, 0xee, 0x62, 0x1b, 0x33, 0x26, 0xf6, 0xee, 0x24, 0xe2, 0x0a, 
	0x6d, 0x0a, 0x03, 0x35, 0x1a, 0xe5, 0x70, 0xd9, 0x1b, 0xfe, 0xd9, 0xe6, 
	0x01, 0xd9, 0x37, 0x67, 0xec, 0x16, 0x15, 0x36, 0x36, 0x0b, 0x32, 0xdf, 
	0x11, 0xfe, 0x20, 0xe8, 0xe6, 0xea, 0x01, 0x39, 0xbb, 0xe3, 0x2a, 0xe9, 
	0x17, 0x04, 0x95, 0x1d, 0xd1, 0xfd, 0x24, 0x03, 0xf1, 0xa7, 0x1d, 0x25, 
	0x08, 0x1a, 0x2f, 0x21, 0x4c, 0xe7, 0x17, 0x28, 0x37, 0x2b, 0xec, 0x01, 
	0x07, 0xaa, 0xf2, 0x17, 0xe0, 0x03, 0x0c, 0x0b, 0x0b, 0xfc, 0xbf, 0x09, 
	0xf5, 0x0d, 0xe1, 0x27, 0xff, 0x08, 0x24, 0xe7, 0xe6, 0xf8, 0x2f, 0x23, 
	0xf2, 0xe6, 0x23, 0x25, 0xf2, 0xdc, 0x23, 0x0c, 0x10, 0xd8, 0xea, 0x34, 
	0xd8, 0xbe, 0xf7, 0x1d, 0xa6, 0x14, 0x9e, 0x16, 0xc8, 0xf2, 0x2b, 0x18, 
	0xf3, 0x10, 0x18, 0x2b, 0x1d, 0x01, 0x2a, 0x19, 0x0d, 0xf6, 0x17, 0x26, 
	0xfd, 0x94, 0xec, 0xf2, 0x27, 0xf5, 0x0d, 0x09, 0xde, 0xe7, 0x29, 0x1e, 
	0xcc, 0xfa, 0xf3, 0x22, 0xf7, 0x27, 0x12, 0x14, 0x06, 0x08, 0x0c, 0xeb, 
	0xe7, 0x15, 0x05, 0xbe, 0xf3, 0xef, 0xff, 0x27, 0x0f, 0xe9, 0xeb, 0xbb, 
	0xf5, 0xcb, 0xfb, 0x0c, 0xc3, 0xd6, 0xce, 0xd2, 0x2e, 0x16, 0xf6, 0xed, 
	0xfb, 0x07, 0xd7, 0xea, 0xef, 0x43, 0x9d, 0x15, 0xf3, 0x12, 0xee, 0xed, 
	0xec, 0x06, 0x0b, 0xe6, 0xe5, 0x08, 0xc7, 0x01, 0xdf, 0x24, 0x14, 0xf5, 
	0xf3, 0x0e, 0xfd, 0x3a, 0x10, 0xda, 0x12, 0xd9, 0xc1, 0xec, 0xf4, 0xf1, 
	0xe8, 0xca, 0xde, 0xe2, 0x2b, 0x18, 0x04, 0x00, 0x30, 0x17, 0x25, 0x0d, 
	0x0c, 0xf3, 0x1b, 0x09, 0x1c, 0xe7, 0x0e, 0x0f, 0xd5, 0xef, 0x47, 0x08, 
	0xca, 0x09, 0xd5, 0x2d, 0x37, 0x30, 0x16, 0x2c, 0xe2, 0xba, 0x3b, 0xec, 
	0xd0, 0xe9, 0xe5, 0xfa, 0xe7, 0xf6, 0xd9, 0x0d, 0x39, 0x16, 0x02, 0xd1, 
	0x0f, 0xc4, 0x02, 0xf5, 0xc4, 0xc5, 0x17, 0xcb, 0x29, 0xe4, 0xfb, 0xe9, 
	0x29, 0x00, 0xcd, 0xe0, 0xd8, 0xed, 0xd4, 0xd3, 0xf9, 0xf5, 0x11, 0xc2, 
	0xc8, 0x1c, 0xff, 0x04, 0x0a, 0xd3, 0x08, 0xea, 0xc4, 0xed, 0xf2, 0xf6, 
	0x0a, 0x01, 0x13, 0x13, 0x22, 0xb8, 0xbb, 0xe3, 0xc1, 0xe3, 0x00, 0xd9, 
	0xe0, 0xd1, 0xb9, 0xed, 0xe3, 0xf9, 0x0a, 0x21, 0x4e, 0x19, 0x19, 0x12, 
	0x15, 0x3c, 0xf6, 0x14, 0x3d, 0x1b, 0xe0, 0xeb, 0xba, 0xfa, 0x17, 0x17, 
	0xf8, 0x28, 0xca, 0xf9, 0xdd, 0x12, 0x04, 0x22, 0xd7, 0xfe, 0xf2, 0xde, 
	0x0a, 0xfb, 0xf4, 0x07, 0xe1, 0xec, 0xc8, 0x46, 0x0f, 0xfc, 0x01, 0xda, 
	0xff, 0xea, 0xdd, 0xe6, 0xfc, 0xbd, 0x1d, 0xe1, 0x01, 0xfd, 0x81, 0xfc, 
	0xef, 0xe6, 0xe4, 0x15, 0xe0, 0x2f, 0xe9, 0xea, 0x16, 0x19, 0xe2, 0xab, 
	0xe3, 0x19, 0x05, 0x15, 0x3e, 0xee, 0xf4, 0xf6, 0xe4, 0x1b, 0xda, 0x11, 
	0x1c, 0xcd, 0x17, 0xf8, 0x0e, 0x10, 0x9e, 0xf7, 0x0d, 0xee, 0xf3, 0x0c, 
	0x05, 0x08, 0xe2, 0xc3, 0xfa, 0x0b, 0x0d, 0xf5, 0xf1, 0xff, 0x12, 0x03, 
	0x0d, 0x28, 0x13, 0x15, 0xff, 0x5a, 0x5a, 0x05, 0x31, 0x5b, 0x13, 0xfd, 
	0x4a, 0x12, 0x52, 0xea, 0x5b, 0xe9, 0xe3, 0x0f, 0xef, 0x67, 0x14, 0xfc, 
	0x36, 0x1d, 0x26, 0xfe, 0xd1, 0x01, 0xdc, 0x22, 0x5e, 0xc7, 0xdc, 0xb5, 
	0xb6, 0xf1, 0xf4, 0xee, 0xad, 0xb7, 0xd7, 0x00, 0x04, 0xbe, 0x29, 0xaa, 
	0xcd, 0xc1, 0xd8, 0xcc, 0xc0, 0x0c, 0xa7, 0x02, 0x37, 0x05, 0xed, 0xc0, 
	0xe0, 0x00, 0xf6, 0x13, 0x4c, 0xee, 0xeb, 0xd0, 0xbd, 0xf9, 0xed, 0x19, 
	0x33, 0xff, 0x15, 0xdf, 0x0e, 0xd4, 0x25, 0xe2, 0xea, 0xc3, 0xac, 0xcc, 
	0xdc, 0x0d, 0xd6, 0xf5, 0x08, 0x14, 0x0f, 0xff, 0x32, 0x05, 0x1f, 0xfb, 
	0x14, 0x32, 0x2e, 0xe7, 0x30, 0x06, 0x42, 0x15, 0x38, 0x64, 0xf2, 0x0a, 
	0x43, 0x36, 0x70, 0x04, 0x29, 0xf0, 0xdb, 0x08, 0xf0, 0x14, 0xdf, 0x6b, 
	0x2e, 0x0d, 0x08, 0xfc, 0xee, 0x07, 0x08, 0x37, 0x46, 0xfd, 0xcf, 0xd1, 
	0xdc, 0x32, 0x08, 0xfa, 0xf1, 0x36, 0x03, 0x0a, 0x06, 0xdc, 0x51, 0xbe, 
	0xd5, 0xeb, 0xc0, 0xc0, 0x9d, 0x07, 0x8a, 0xcd, 0x30, 0x13, 0xca, 0xb0, 
	0xf2, 0x08, 0xe2, 0x7f, 0x56, 0xd7, 0x14, 0xda, 0xe1, 0xdd, 0x24, 0x1d, 
	0xbc, 0x0b, 0xf0, 0xd6, 0x42, 0xc5, 0x09, 0xdd, 0xe6, 0xe9, 0xde, 0xc7, 
	0xb8, 0xc5, 0xc4, 0x11, 0xde, 0x13, 0x0a, 0xd0, 0x41, 0xef, 0x35, 0x24, 
	0x21, 0x23, 0x2b, 0xfe, 0x38, 0xbb, 0x5e, 0x59, 0x05, 0xfe, 0x19, 0x18, 
	0x6f, 0x2b, 0x17, 0x1a, 0x66, 0x09, 0xed, 0x0d, 0xd9, 0xd5, 0x0b, 0x12, 
	0x1c, 0xf9, 0x27, 0x22, 0x1e, 0x1a, 0x0f, 0xf0, 0x05, 0x32, 0xe5, 0xc9, 
	0xfe, 0x06, 0x1a, 0x42, 0x0f, 0x2d, 0x18, 0xf8, 0xf9, 0xde, 0x1f, 0xcd, 
	0xed, 0x09, 0xeb, 0xf1, 0xbf, 0x1a, 0xd9, 0xe7, 0x06, 0x0a, 0x18, 0xe0, 
	0xe9, 0xea, 0x0c, 0x28, 0x30, 0x05, 0xe5, 0x9b, 0xb9, 0xd7, 0x2f, 0x15, 
	0xc8, 0xef, 0xbc, 0x0d, 0x1c, 0xbd, 0x2f, 0xf0, 0xe9, 0x02, 0xe6, 0xe7, 
	0xd3, 0xf5, 0xad, 0x29, 0xfa, 0xf3, 0xfb, 0xde, 0x25, 0x00, 0x0d, 0x17, 
	0x0b, 0xcb, 0x05, 0xdf, 0xd1, 0xae, 0x22, 0x15, 0x36, 0x17, 0xd5, 0xdb, 
	0x45, 0xf1, 0xb1, 0xf3, 0x11, 0xcb, 0xda, 0xf0, 0x1e, 0x32, 0xa4, 0xee, 
	0xf8, 0x0e, 0x0b, 0xd1, 0x07, 0x07, 0xf7, 0xe8, 0xf5, 0x06, 0xee, 0x1e, 
	0xf3, 0xe5, 0x2c, 0x21, 0x29, 0x45, 0x81, 0xf0, 0xb7, 0x09, 0x83, 0x31, 
	0xcf, 0x1a, 0x24, 0x0a, 0x1f, 0xea, 0x45, 0xe9, 0x15, 0x13, 0xfc, 0xfb, 
	0x0a, 0xfb, 0x22, 0xf4, 0xe3, 0xb1, 0x02, 0x21, 0x16, 0x91, 0x22, 0x14, 
	0x02, 0xf9, 0xb8, 0xf7, 0xbf, 0x3c, 0x8c, 0x0d, 0xfa, 0x1f, 0x33, 0x14, 
	0x14, 0xfe, 0x23, 0xd6, 0xe9, 0xe6, 0x30, 0xd1, 0x01, 0xe4, 0x36, 0xed, 
	0xd7, 0x1e, 0xf6, 0x12, 0x14, 0xd3, 0xe7, 0xd6, 0x1f, 0x0a, 0xf6, 0xf3, 
	0xc6, 0xda, 0xdb, 0xdf, 0xc9, 0xf0, 0xf5, 0x03, 0xe6, 0xcb, 0xe7, 0xac, 
	0xea, 0x1c, 0x23, 0xf8, 0xec, 0x0d, 0x08, 0x37, 0x0a, 0xde, 0x11, 0x32, 
	0x1d, 0xec, 0x03, 0xd2, 0xe8, 0xe8, 0x15, 0x18, 0x0e, 0x12, 0x24, 0x06, 
	0xe0, 0x06, 0x17, 0xf5, 0x21, 0xe4, 0x04, 0xc9, 0x0d, 0x0d, 0xf0, 0x1a, 
	0xd4, 0x12, 0xdf, 0xf4, 0x1d, 0xe5, 0xf2, 0x32, 0x2d, 0x23, 0xbf, 0xb3, 
	0xfa, 0xd8, 0xf6, 0xe8, 0x37, 0x27, 0x02, 0xfc, 0xf2, 0x07, 0xf5, 0x1c, 
	0x34, 0xda, 0xd1, 0xf5, 0x0e, 0x08, 0xf0, 0xe8, 0x21, 0xff, 0x1f, 0x04, 
	0x0c, 0x1a, 0x1e, 0x06, 0x0f, 0xba, 0xba, 0x09, 0x34, 0x0e, 0x48, 0x03, 
	0xf1, 0xef, 0xe1, 0xed, 0x06, 0xf9, 0x00, 0xf6, 0x0e, 0x1f, 0x04, 0xb3, 
	0xe2, 0xf7, 0x4e, 0x3d, 0x1e, 0x0f, 0xd7, 0x23, 0xf8, 0x02, 0x35, 0xee, 
	0x0b, 0xfd, 0xc2, 0xce, 0x16, 0x31, 0x02, 0xc1, 0x48, 0x0b, 0xc0, 0x0a, 
	0xeb, 0xd9, 0xdc, 0xeb, 0x0d, 0xcf, 0xe3, 0xe7, 0xd2, 0xf8, 0x04, 0xcd, 
	0x0a, 0x06, 0xee, 0xf8, 0xfb, 0x18, 0xfa, 0x29, 0x04, 0x19, 0xfd, 0xb2, 
	0x14, 0x11, 0xee, 0x02, 0xfe, 0xf6, 0x01, 0xec, 0x01, 0xeb, 0xf6, 0xdf, 
	0x27, 0xe5, 0xea, 0xb6, 0x20, 0x10, 0xd7, 0x3c, 0x38, 0x08, 0x22, 0x22, 
	0x09, 0xe0, 0xff, 0x03, 0x0e, 0x22, 0x38, 0x31, 0x1c, 0x1a, 0xf0, 0xe7, 
	0x26, 0x04, 0x05, 0x05, 0x14, 0x01, 0x06, 0x0f, 0x1b, 0xc0, 0x07, 0x23, 
	0xf8, 0x01, 0x0a, 0xe2, 0x0c, 0xfb, 0x03, 0xfb, 0x06, 0xfc, 0xde, 0x23, 
	0x1e, 0xea, 0x1b, 0xff, 0xfd, 0xf8, 0xe2, 0x10, 0xff, 0x29, 0xd3, 0x01, 
	0xe1, 0x19, 0xf2, 0x0b, 0x19, 0xf5, 0xe8, 0xe8, 0xed, 0xee, 0x1d, 0x15, 
	0xfd, 0xf4, 0x07, 0xf3, 0xf9, 0xdb, 0xee, 0x1e, 0x28, 0x2b, 0x09, 0x29, 
	0x18, 0x12, 0xef, 0xee, 0xe2, 0x1a, 0xe0, 0x25, 0xac, 0x15, 0x1b, 0x1b, 
	0x20, 0x13, 0x05, 0x1b, 0x05, 0xf6, 0x28, 0xf3, 0xf2, 0xfe, 0xd2, 0x0a, 
	0x0c, 0xd7, 0xfd, 0xfe, 0xfb, 0x0a, 0x12, 0xfb, 0x28, 0x1c, 0x1f, 0xfe, 
	0x38, 0xfe, 0xe0, 0x0b, 0x13, 0xbd, 0xe4, 0xdf, 0xf1, 0x41, 0x46, 0x33, 
	0x10, 0xe6, 0xc4, 0x03, 0x0b, 0xe8, 0xb0, 0x04, 0x0e, 0xee, 0x02, 0x03, 
	0x03, 0xf2, 0xf3, 0x06, 0x56, 0x0a, 0x0f, 0xef, 0x2f, 0xde, 0xe2, 0xfb, 
	0x23, 0xc2, 0xdc, 0xca, 0x1e, 0x00, 0x16, 0xdc, 0x34, 0x01, 0xe9, 0x18, 
	0x04, 0xf3, 0xfb, 0x14, 0xf9, 0xe6, 0x09, 0x03, 0xf3, 0xf4, 0x08, 0xe7, 
	0x29, 0xe6, 0x06, 0xe8, 0x0e, 0xea, 0xf5, 0xf1, 0x23, 0xd0, 0xda, 0xc5, 
	0x0b, 0x0c, 0x14, 0xec, 0x01, 0x19, 0xec, 0xfe, 0xef, 0xed, 0xf1, 0x1c, 
	0x30, 0x29, 0x20, 0x05, 0x05, 0x47, 0xfc, 0xdc, 0xf4, 0x25, 0x3f, 0x1d, 
	0x1b, 0xe8, 0x45, 0xe0, 0x29, 0xdf, 0xce, 0xe0, 0x11, 0x7f, 0xe6, 0x45, 
	0x24, 0x08, 0xdf, 0x18, 0xf9, 0xf8, 0x03, 0x11, 0x1f, 0x06, 0xe7, 0x05, 
	0x01, 0x20, 0x1f, 0x45, 0x16, 0x3c, 0x1b, 0xf8, 0x18, 0xee, 0x31, 0xdf, 
	0x09, 0x00, 0xf6, 0xf4, 0x08, 0xf4, 0xfa, 0x20, 0x17, 0xed, 0xf4, 0xf6, 
	0xf9, 0x0b, 0x16, 0x03, 0xf8, 0xf9, 0xfe, 0x29, 0x2d, 0xfe, 0xf3, 0x18, 
	0x05, 0x0a, 0x04, 0x11, 0x21, 0x01, 0x0a, 0x02, 0x40, 0xe9, 0x06, 0xf4, 
	0x06, 0x00, 0x16, 0x1f, 0x00, 0x11, 0xf6, 0xff, 0x9e, 0xfa, 0xff, 0xff, 
	0x04, 0x00, 0x00, 0x00, 0x80, 0x04, 0x00, 0x00, 0xfd, 0x78, 0x1d, 0xbc, 
	0x11, 0x3b, 0x0b, 0xbd, 0xc8, 0x86, 0xa0, 0xbd, 0x4e, 0x25, 0x9a, 0x3d, 
	0x3d, 0xd3, 0x0d, 0x3d, 0x5a, 0x46, 0x5c, 0xbc, 0x66, 0x76, 0xa6, 0x3d, 
	0x4b, 0x70, 0xbe, 0xbc, 0x05, 0x89, 0x20, 0xbd, 0xdf, 0x46, 0xea, 0xbc, 
	0x3b, 0xdd, 0x06, 0xbd, 0xd8, 0x5f, 0x26, 0xbd, 0xb4, 0xf9, 0x6e, 0xbc, 
	0xb3, 0xae, 0xca, 0xbc, 0xe4, 0x04, 0xe4, 0xbc, 0x7d, 0x0b, 0x24, 0xbd, 
	0x37, 0x11, 0xa0, 0xbc, 0xc1, 0xf6, 0x24, 0xbd, 0xf8, 0x75, 0x9a, 0xbd, 
	0x0b, 0x56, 0xa8, 0xbc, 0xdf, 0x88, 0x48, 0xbc, 0x52, 0x7d, 0xd2, 0x3c, 
	0x1d, 0x66, 0x3c, 0xbc, 0xdd, 0x40, 0x95, 0xbb, 0xd4, 0x5c, 0x5d, 0x3d, 
	0xe8, 0xcc, 0x13, 0x3d, 0xef, 0x41, 0x29, 0x3d, 0xf1, 0xaa, 0x4f, 0xbd, 
	0x06, 0x57, 0x5a, 0xbc, 0xc2, 0xad, 0x16, 0xbb, 0xa7, 0x6d, 0x49, 0xbd, 
	0xe2, 0x88, 0xfa, 0x3c, 0xac, 0xfb, 0x01, 0xbd, 0x7d, 0xb5, 0x1a, 0xbd, 
	0x5c, 0x75, 0xab, 0x3b, 0xcc, 0x40, 0x1f, 0xbd, 0x7c, 0xdb, 0xe7, 0xbc, 
	0xf1, 0xf8, 0x53, 0xbd, 0xf1, 0x99, 0x93, 0xbc, 0xf4, 0x3d, 0x3f, 0xbd, 
	0x2c, 0x5a, 0x6c, 0xbd, 0x40, 0x3f, 0xa9, 0xbc, 0xdc, 0xfb, 0xd3, 0xbc, 
	0xd9, 0xdc, 0x71, 0x3c, 0xe3, 0x19, 0x59, 0xbd, 0xbf, 0x74, 0x0c, 0x3d, 
	0x15, 0xce, 0x69, 0xbd, 0x22, 0x64, 0xed, 0xbc, 0xd6, 0x2d, 0x2b, 0x3d, 
	0x10, 0xc2, 0xa5, 0xbd, 0x12, 0xa5, 0x5d, 0xbd, 0xa4, 0x1a, 0x4e, 0x3d, 
	0x92, 0x75, 0xaa, 0x3a, 0xe1, 0x36, 0xd9, 0x3c, 0xb8, 0x3b, 0x9c, 0xbd, 
	0x89, 0x66, 0x75, 0x3c, 0xd5, 0xf9, 0x5a, 0xbd, 0xde, 0x6c, 0x2a, 0xbc, 
	0x70, 0x79, 0xe4, 0xbb, 0xcd, 0xf2, 0x31, 0xbd, 0xfd, 0x19, 0x29, 0xbd, 
	0xfd, 0x9f, 0xf8, 0xbc, 0xc0, 0x84, 0x86, 0xbd, 0x1a, 0x37, 0x2b, 0x3d, 
	0xad, 0xdd, 0x53, 0x3d, 0x4b, 0x6b, 0x60, 0x3c, 0xe2, 0x8e, 0x14, 0xbd, 
	0x75, 0xff, 0x27, 0x3d, 0xfd, 0x0c, 0x7b, 0x3c, 0x35, 0xf5, 0x84, 0xbd, 
	0x1f, 0x76, 0xdc, 0x3c, 0x43, 0x60, 0x89, 0xbd, 0x2f, 0x98, 0x31, 0x3d, 
	0x26, 0x3b, 0x1d, 0x3d, 0x22, 0x76, 0x58, 0x3c, 0x30, 0x48, 0x44, 0x3d, 
	0x0e, 0xf1, 0xbd, 0x3c, 0xbc, 0xd7, 0x27, 0xbd, 0x85, 0x91, 0x0d, 0xbb, 
	0x0e, 0x34, 0x19, 0xbd, 0x8a, 0xd4, 0x88, 0xbd, 0x8b, 0xe5, 0xed, 0xbc, 
	0xe2, 0x19, 0x62, 0x3d, 0xf4, 0x2e, 0x52, 0x3c, 0xe7, 0x72, 0x71, 0x3d, 
	0xce, 0xc7, 0xda, 0x3c, 0x8c, 0x10, 0xa7, 0xbd, 0xd9, 0x3c, 0x4b, 0xbd, 
	0xd9, 0xc7, 0x2c, 0xbd, 0x87, 0x4a, 0x31, 0x3c, 0xc4, 0x4b, 0x3a, 0xbe, 
	0x32, 0x54, 0xd2, 0x3b, 0x3c, 0x87, 0x65, 0xbd, 0x90, 0xc3, 0x09, 0x3d, 
	0x0d, 0x8f, 0x07, 0xbc, 0xcd, 0xe7, 0x47, 0x3d, 0xaa, 0xe4, 0xa3, 0xbc, 
	0x83, 0x4e, 0x10, 0x3d, 0x43, 0x28, 0x0e, 0xbc, 0x90, 0x7f, 0xd8, 0xbd, 
	0x30, 0xef, 0x86, 0xbd, 0x44, 0x81, 0x92, 0x3c, 0xb6, 0x5a, 0x32, 0x3d, 
	0xd7, 0x7c, 0x63, 0xba, 0x2a, 0x69, 0x64, 0x3d, 0x3f, 0xed, 0x55, 0xbd, 
	0x3e, 0x21, 0x8f, 0x3c, 0xad, 0x3a, 0x93, 0x3b, 0x94, 0x7e, 0xae, 0x3d, 
	0xed, 0x00, 0x6c, 0xbc, 0x4d, 0xbe, 0x91, 0x3c, 0x20, 0x59, 0x05, 0xbd, 
	0xfc, 0x7a, 0x07, 0xbd, 0x12, 0xbd, 0xcf, 0xbc, 0x71, 0xe0, 0x84, 0xbd, 
	0xa2, 0xd8, 0x96, 0x3c, 0x70, 0xdc, 0xcc, 0x3c, 0xa4, 0x77, 0x88, 0x3d, 
	0x60, 0xb0, 0x32, 0xbd, 0x29, 0x89, 0x11, 0xbd, 0x62, 0x5f, 0xa7, 0x3a, 
	0x27, 0x61, 0x46, 0xbd, 0x79, 0x90, 0x30, 0xbd, 0xef, 0x85, 0xb7, 0xbc, 
	0xc8, 0x68, 0xa4, 0xbc, 0xfe, 0xb3, 0x0c, 0xbc, 0x13, 0x08, 0x68, 0x3c, 
	0x8d, 0xf2, 0xc4, 0xbc, 0x37, 0x32, 0x0b, 0x3b, 0xb2, 0xb4, 0x4f, 0xbd, 
	0x0c, 0xcf, 0x28, 0xbd, 0x12, 0xac, 0xea, 0x3c, 0x3c, 0xa5, 0xbb, 0xbc, 
	0x9a, 0x70, 0x3d, 0xbd, 0xa8, 0xe2, 0xa2, 0x3d, 0x61, 0xb5, 0xad, 0xbc, 
	0xe1, 0xa7, 0x85, 0xbb, 0x4c, 0x5d, 0xfd, 0xbb, 0x69, 0x80, 0x47, 0xbd, 
	0xc5, 0x2d, 0x76, 0xbc, 0x3f, 0xe2, 0x03, 0xbd, 0x9e, 0xd3, 0x8b, 0xba, 
	0xc4, 0x23, 0x4d, 0x3d, 0x3c, 0x3f, 0xf8, 0x3c, 0x8d, 0x56, 0xe8, 0x3c, 
	0x5d, 0x4b, 0xc7, 0x3c, 0xc2, 0x62, 0xcd, 0xbb, 0xcc, 0xdc, 0x17, 0x3d, 
	0xed, 0x7f, 0xc7, 0xbc, 0xd6, 0x93, 0xc3, 0xbd, 0x2b, 0x8c, 0xbb, 0x3c, 
	0x36, 0x0a, 0xbe, 0xbd, 0x04, 0x58, 0xef, 0xbd, 0x39, 0x36, 0x62, 0x3c, 
	0x33, 0x50, 0x91, 0x3a, 0x8c, 0x7a, 0x82, 0xbc, 0xc6, 0xbb, 0x72, 0x3d, 
	0xbc, 0x5c, 0x90, 0x3c, 0x61, 0x1f, 0x4a, 0x3d, 0xa7, 0x1c, 0xe0, 0xbc, 
	0x06, 0xb7, 0x33, 0xbd, 0xb2, 0xac, 0x1e, 0xbd, 0x48, 0x58, 0xcd, 0xbd, 
	0x75, 0x6d, 0xcc, 0xbd, 0x6a, 0x41, 0x8c, 0xbd, 0x0b, 0xa9, 0x4f, 0xbc, 
	0x74, 0x86, 0xc9, 0xbd, 0x04, 0xec, 0x8f, 0xbd, 0x8c, 0xe4, 0xc7, 0x3b, 
	0x5a, 0x9c, 0x83, 0x3d, 0xbc, 0x99, 0x73, 0x3d, 0xd1, 0x8d, 0x63, 0xbb, 
	0x10, 0x23, 0x41, 0x3d, 0x3a, 0x0e, 0x7a, 0xbc, 0xf4, 0xd1, 0xdb, 0xbb, 
	0xc5, 0x39, 0xa6, 0x3c, 0x78, 0x60, 0x9f, 0xbb, 0x78, 0x50, 0x37, 0xbc, 
	0x43, 0xd0, 0xeb, 0x3c, 0x66, 0xad, 0xa0, 0xbc, 0xc6, 0x23, 0x8a, 0xbd, 
	0xe1, 0xc3, 0x8d, 0xbd, 0x88, 0xc2, 0x93, 0xbd, 0x20, 0x8c, 0x09, 0x3d, 
	0xb3, 0x6e, 0x53, 0x3c, 0xa7, 0x25, 0x52, 0xbd, 0x0e, 0xd6, 0x3b, 0x3b, 
	0xc8, 0xb1, 0x75, 0x3d, 0x9e, 0xb8, 0xd5, 0xbd, 0xc7, 0xf2, 0x94, 0x3c, 
	0x38, 0x08, 0x65, 0x3b, 0x7e, 0x33, 0x17, 0xbc, 0x5f, 0xb6, 0x2d, 0x3d, 
	0x11, 0x76, 0xce, 0xba, 0x44, 0x26, 0x74, 0x3c, 0xbd, 0x76, 0x8a, 0x3d, 
	0x75, 0x4b, 0xef, 0x3c, 0xb5, 0x08, 0x3b, 0x3d, 0x75, 0x40, 0x58, 0xbd, 
	0xfd, 0xf1, 0xec, 0x3c, 0xab, 0x3c, 0x5f, 0x3d, 0x2c, 0x9c, 0x89, 0xbc, 
	0x22, 0x2d, 0x2d, 0xbc, 0x74, 0x94, 0x40, 0x3d, 0x70, 0xee, 0x31, 0xbc, 
	0x9e, 0x25, 0x8b, 0x3c, 0x63, 0xc4, 0x42, 0x3d, 0xe5, 0xf0, 0x06, 0xbc, 
	0x7c, 0xe0, 0xb6, 0x3c, 0x95, 0xbb, 0xfe, 0xbc, 0xa2, 0x98, 0x31, 0x3c, 
	0x30, 0xd0, 0x0b, 0x3d, 0xce, 0x64, 0xce, 0xbb, 0xde, 0xba, 0x16, 0x3d, 
	0xad, 0x23, 0x0e, 0x3d, 0x03, 0x45, 0x10, 0x3c, 0x1c, 0x3d, 0x07, 0x3c, 
	0x1c, 0xfa, 0xd2, 0x3c, 0x11, 0x5e, 0x8f, 0x3d, 0xd0, 0x83, 0x92, 0xbc, 
	0xd4, 0x38, 0x68, 0x3d, 0xb5, 0xfa, 0x2c, 0xbc, 0x4a, 0x4a, 0xbd, 0xbc, 
	0xd0, 0xa7, 0xf5, 0xbc, 0xaa, 0xd5, 0x67, 0xbd, 0x57, 0x8d, 0xb2, 0xbc, 
	0xb2, 0x4a, 0x2f, 0xbd, 0x4d, 0x6a, 0x11, 0xbd, 0xc7, 0x96, 0x22, 0xbd, 
	0x63, 0x91, 0x50, 0xbc, 0x3a, 0xae, 0xa7, 0x3d, 0x14, 0x00, 0x04, 0x3d, 
	0x2c, 0xe3, 0x8e, 0xbc, 0xea, 0xad, 0x3f, 0xbd, 0xc0, 0xe4, 0x8e, 0xbb, 
	0xe4, 0xd7, 0xa2, 0x3d, 0x6f, 0x93, 0x15, 0xbd, 0x89, 0x59, 0xac, 0xbd, 
	0x0e, 0x9c, 0x2d, 0x3d, 0x2c, 0x6a, 0x40, 0xbd, 0x30, 0x76, 0x1a, 0xbd, 
	0x94, 0x2b, 0x8a, 0x3d, 0x40, 0xe1, 0x5a, 0xbd, 0x7d, 0x0f, 0x4e, 0x3d, 
	0x0c, 0x02, 0x8b, 0x3d, 0x1b, 0x73, 0x98, 0xbd, 0xee, 0x73, 0x42, 0xbd, 
	0x31, 0x25, 0x3a, 0xbc, 0x44, 0x85, 0x0c, 0xbc, 0xee, 0xea, 0x3f, 0xbd, 
	0x6c, 0xf6, 0x18, 0xbd, 0x24, 0xa5, 0xd5, 0xbc, 0x08, 0x54, 0xf2, 0xbc, 
	0xd4, 0x9f, 0xd4, 0x3a, 0x2b, 0x56, 0x4a, 0xbd, 0xd4, 0x9e, 0x83, 0x3d, 
	0x3e, 0x7a, 0x88, 0xbc, 0xa2, 0x4e, 0x2d, 0x3a, 0xf5, 0xef, 0xbe, 0xbc, 
	0x92, 0xa8, 0xa6, 0xbc, 0x3c, 0xd4, 0xae, 0xbc, 0xfe, 0xdb, 0x23, 0xbd, 
	0x35, 0x4c, 0xf2, 0xbc, 0xfa, 0x11, 0xf7, 0xbb, 0x27, 0x52, 0xd5, 0xbc, 
	0xee, 0xec, 0xe7, 0xbc, 0xaf, 0x58, 0x2c, 0xbc, 0xe7, 0x9c, 0x8c, 0xbc, 
	0xc9, 0x5a, 0x06, 0xbc, 0xd3, 0x9e, 0xb6, 0xbc, 0x28, 0xb2, 0xda, 0xbc, 
	0xaa, 0xc7, 0x60, 0xbd, 0xd5, 0xd0, 0x56, 0xbd, 0x8c, 0x0f, 0xc5, 0xbc, 
	0x56, 0xc7, 0xd3, 0x3b, 0xc4, 0xa6, 0x32, 0x3d, 0xee, 0x1a, 0x3d, 0x3d, 
	0x47, 0x24, 0x58, 0x3c, 0xfc, 0x2d, 0x5c, 0x3d, 0x4f, 0x5a, 0x14, 0xbd, 
	0x1a, 0xe0, 0x1e, 0x3d, 0x4b, 0xc3, 0x77, 0x3c, 0x3e, 0x67, 0xf0, 0xbd, 
	0xaa, 0x88, 0x4e, 0x3c, 0x2d, 0x32, 0x46, 0x3d, 0x50, 0x1e, 0xa1, 0xbd, 
	0x3b, 0x6a, 0xe2, 0x3c, 0x00, 0x41, 0x2e, 0x3d, 0x2a, 0xff, 0xff, 0xff, 
	0x04, 0x00, 0x00, 0x00, 0x20, 0x00, 0x00, 0x00, 0xcd, 0x6d, 0xa2, 0x3d, 
	0xcd, 0x39, 0xc3, 0x3d, 0x67, 0x38, 0xa5, 0xbc, 0x0e, 0xe9, 0x2e, 0x3e, 
	0xec, 0xad, 0x8f, 0x3e, 0xcc, 0x34, 0xfd, 0xbd, 0x4c, 0x28, 0x96, 0xbe, 
	0x9b, 0x5d, 0x4f, 0x3e, 0x56, 0xff, 0xff, 0xff, 0x04, 0x00, 0x00, 0x00, 
	0x80, 0x00, 0x00, 0x00, 0xd1, 0x93, 0xec, 0xbd, 0x00, 0x00, 0x00, 0x00, 
	0xb1, 0xc2, 0x32, 0xbb, 0x0a, 0x0f, 0xf0, 0x3d, 0x6d, 0x06, 0xc1, 0x3d, 
	0x30, 0xc4, 0x4f, 0x3e, 0xaa, 0x59, 0xa5, 0xbd, 0x6d, 0xf3, 0x64, 0xbe, 
	0x31, 0xca, 0xff, 0xbc, 0xa1, 0xcf, 0x57, 0xbe, 0x31, 0x3f, 0xfb, 0xbe, 
	0x39, 0x43, 0x1a, 0xbe, 0xcf, 0x16, 0x15, 0x3e, 0x7c, 0xfb, 0xb3, 0xbc, 
	0xd0, 0x04, 0x49, 0x3e, 0x17, 0x20, 0x47, 0x3e, 0xb0, 0x2d, 0x9b, 0x3e, 
	0x80, 0x22, 0xb6, 0xbe, 0x65, 0xba, 0xd6, 0x3d, 0xa7, 0xcc, 0x79, 0xbe, 
	0x57, 0xaa, 0xd2, 0xbd, 0x0e, 0x28, 0x8a, 0xbe, 0xa0, 0x47, 0x05, 0xbf, 
	0xc7, 0xa5, 0xa9, 0xbc, 0x6e, 0xcf, 0x34, 0xbd, 0x16, 0xc0, 0xcc, 0xbc, 
	0x28, 0x63, 0xcb, 0xbd, 0xa7, 0x59, 0x33, 0xbd, 0xb1, 0x3b, 0x39, 0xbd, 
	0x00, 0x00, 0x00, 0x00, 0x9f, 0xae, 0x52, 0xb9, 0xd8, 0xa8, 0xaf, 0x39, 
	0xe2, 0xff, 0xff, 0xff, 0x04, 0x00, 0x00, 0x00, 0x10, 0x00, 0x00, 0x00, 
	0x6c, 0x12, 0x92, 0x3e, 0x4c, 0xd9, 0x87, 0xbd, 0x59, 0xda, 0xe3, 0x3d, 
	0x44, 0x33, 0x98, 0xbe, 0x00, 0x00, 0x06, 0x00, 0x08, 0x00, 0x04, 0x00, 
	0x06, 0x00, 0x00, 0x00, 0x04, 0x00, 0x00, 0x00, 0x08, 0x00, 0x00, 0x00, 
	0xff, 0xff, 0xff, 0xff, 0x00, 0x02, 0x00, 0x00, 0x08, 0xf7, 0xff, 0xff, 
	0x0c, 0xf7, 0xff, 0xff, 0x0f, 0x00, 0x00, 0x00, 0x4d, 0x4c, 0x49, 0x52, 
	0x20, 0x43, 0x6f, 0x6e, 0x76, 0x65, 0x72, 0x74, 0x65, 0x64, 0x2e, 0x00, 
	0x01, 0x00, 0x00, 0x00, 0x14, 0x00, 0x00, 0x00, 0x00, 0x00, 0x0e, 0x00, 
	0x18, 0x00, 0x14, 0x00, 0x10, 0x00, 0x0c, 0x00, 0x08, 0x00, 0x04, 0x00, 
	0x0e, 0x00, 0x00, 0x00, 0x14, 0x00, 0x00, 0x00, 0x1c, 0x00, 0x00, 0x00, 
	0xd4, 0x01, 0x00, 0x00, 0xd8, 0x01, 0x00, 0x00, 0xdc, 0x01, 0x00, 0x00, 
	0x04, 0x00, 0x00, 0x00, 0x6d, 0x61, 0x69, 0x6e, 0x00, 0x00, 0x00, 0x00, 
	0x06, 0x00, 0x00, 0x00, 0x70, 0x01, 0x00, 0x00, 0x10, 0x01, 0x00, 0x00, 
	0xc0, 0x00, 0x00, 0x00, 0x80, 0x00, 0x00, 0x00, 0x58, 0x00, 0x00, 0x00, 
	0x04, 0x00, 0x00, 0x00, 0x12, 0xff, 0xff, 0xff, 0x20, 0x00, 0x00, 0x00, 
	0x00, 0x00, 0x00, 0x08, 0x20, 0x00, 0x00, 0x00, 0x24, 0x00, 0x00, 0x00, 
	0x03, 0x00, 0x00, 0x00, 0x0c, 0x00, 0x08, 0x00, 0x00, 0x00, 0x00, 0x00, 
	0x00, 0x00, 0x07, 0x00, 0x0c, 0x00, 0x00, 0x00, 0x00, 0x00, 0x00, 0x01, 
	0x01, 0x00, 0x00, 0x00, 0x0d, 0x00, 0x00, 0x00, 0x03, 0x00, 0x00, 0x00, 
	0x0c, 0x00, 0x00, 0x00, 0x07, 0x00, 0x00, 0x00, 0x02, 0x00, 0x00, 0x00, 
	0x00, 0x00, 0x0a, 0x00, 0x10, 0x00, 0x0c, 0x00, 0x08, 0x00, 0x04, 0x00, 
	0x0a, 0x00, 0x00, 0x00, 0x0c, 0x00, 0x00, 0x00, 0x10, 0x00, 0x00, 0x00, 
	0x02, 0x00, 0x00, 0x00, 0x01, 0x00, 0x00, 0x00, 0x0c, 0x00, 0x00, 0x00, 
	0x02, 0x00, 0x00, 0x00, 0x0b, 0x00, 0x00, 0x00, 0x01, 0x00, 0x00, 0x00, 
	0x86, 0xff, 0xff, 0xff, 0x14, 0x00, 0x00, 0x00, 0x00, 0x00, 0x00, 0x05, 
	0x20, 0x00, 0x00, 0x00, 0x24, 0x00, 0x00, 0x00, 0x01, 0x00, 0x00, 0x00, 
	0x76, 0xff, 0xff, 0xff, 0x02, 0x00, 0x00, 0x00, 0x02, 0x00, 0x00, 0x00, 
	0x02, 0x00, 0x00, 0x00, 0x02, 0x00, 0x00, 0x00, 0x01, 0x00, 0x00, 0x00, 
	0x0b, 0x00, 0x00, 0x00, 0x01, 0x00, 0x00, 0x00, 0x0a, 0x00, 0x00, 0x00, 
	0x66, 0xff, 0xff, 0xff, 0x10, 0x00, 0x00, 0x00, 0x00, 0x00, 0x00, 0x01, 
	0x18, 0x00, 0x00, 0x00, 0x1c, 0x00, 0x00, 0x00, 0x58, 0xff, 0xff, 0xff, 
	0x00, 0x00, 0x00, 0x01, 0x01, 0x00, 0x00, 0x00, 0x01, 0x00, 0x00, 0x00, 
	0x01, 0x00, 0x00, 0x00, 0x0a, 0x00, 0x00, 0x00, 0x03, 0x00, 0x00, 0x00, 
	0x09, 0x00, 0x00, 0x00, 0x06, 0x00, 0x00, 0x00, 0x04, 0x00, 0x00, 0x00, 
	0x00, 0x00, 0x0e, 0x00, 0x1a, 0x00, 0x14, 0x00, 0x10, 0x00, 0x0c, 0x00, 
	0x0b, 0x00, 0x04, 0x00, 0x0e, 0x00, 0x00, 0x00, 0x24, 0x00, 0x00, 0x00, 
	0x00, 0x00, 0x00, 0x05, 0x30, 0x00, 0x00, 0x00, 0x34, 0x00, 0x00, 0x00, 
	0x01, 0x00, 0x00, 0x00, 0x00, 0x00, 0x0e, 0x00, 0x14, 0x00, 0x00, 0x00, 
	0x10, 0x00, 0x0c, 0x00, 0x08, 0x00, 0x04, 0x00, 0x0e, 0x00, 0x00, 0x00, 
	0x02, 0x00, 0x00, 0x00, 0x02, 0x00, 0x00, 0x00, 0x02, 0x00, 0x00, 0x00, 
	0x02, 0x00, 0x00, 0x00, 0x01, 0x00, 0x00, 0x00, 0x09, 0x00, 0x00, 0x00, 
	0x01, 0x00, 0x00, 0x00, 0x08, 0x00, 0x00, 0x00, 0x00, 0x00, 0x0e, 0x00, 
	0x14, 0x00, 0x00, 0x00, 0x10, 0x00, 0x0c, 0x00, 0x0b, 0x00, 0x04, 0x00, 
	0x0e, 0x00, 0x00, 0x00, 0x1c, 0x00, 0x00, 0x00, 0x00, 0x00, 0x00, 0x01, 
	0x24, 0x00, 0x00, 0x00, 0x28, 0x00, 0x00, 0x00, 0x0c, 0x00, 0x10, 0x00, 
	0x00, 0x00, 0x0c, 0x00, 0x08, 0x00, 0x07, 0x00, 0x0c, 0x00, 0x00, 0x00, 
	0x00, 0x00, 0x00, 0x01, 0x01, 0x00, 0x00, 0x00, 0x01, 0x00, 0x00, 0x00, 
	0x01, 0x00, 0x00, 0x00, 0x08, 0x00, 0x00, 0x00, 0x03, 0x00, 0x00, 0x00, 
	0x00, 0x00, 0x00, 0x00, 0x05, 0x00, 0x00, 0x00, 0x03, 0x00, 0x00, 0x00, 
	0x01, 0x00, 0x00, 0x00, 0x0d, 0x00, 0x00, 0x00, 0x01, 0x00, 0x00, 0x00, 
	0x00, 0x00, 0x00, 0x00, 0x0e, 0x00, 0x00, 0x00, 0xa0, 0x06, 0x00, 0x00, 
	0x38, 0x06, 0x00, 0x00, 0xc8, 0x05, 0x00, 0x00, 0x54, 0x05, 0x00, 0x00, 
	0xf8, 0x04, 0x00, 0x00, 0xa0, 0x04, 0x00, 0x00, 0xc8, 0x03, 0x00, 0x00, 
	0x58, 0x03, 0x00, 0x00, 0x84, 0x02, 0x00, 0x00, 0x0c, 0x02, 0x00, 0x00, 
	0x38, 0x01, 0x00, 0x00, 0xc0, 0x00, 0x00, 0x00, 0x60, 0x00, 0x00, 0x00, 
	0x04, 0x00, 0x00, 0x00, 0xae, 0xf9, 0xff, 0xff, 0x00, 0x00, 0x00, 0x01, 
	0x14, 0x00, 0x00, 0x00, 0x1c, 0x00, 0x00, 0x00, 0x1c, 0x00, 0x00, 0x00, 
	0x0e, 0x00, 0x00, 0x00, 0x34, 0x00, 0x00, 0x00, 0x02, 0x00, 0x00, 0x00, 
	0xff, 0xff, 0xff, 0xff, 0x04, 0x00, 0x00, 0x00, 0x90, 0xf9, 0xff, 0xff, 
	0x19, 0x00, 0x00, 0x00, 0x53, 0x74, 0x61, 0x74, 0x65, 0x66, 0x75, 0x6c, 
	0x50, 0x61, 0x72, 0x74, 0x69, 0x74, 0x69, 0x6f, 0x6e, 0x65, 0x64, 0x43, 
	0x61, 0x6c, 0x6c, 0x3a, 0x30, 0x00, 0x00, 0x00, 0x02, 0x00, 0x00, 0x00, 
	0x01, 0x00, 0x00, 0x00, 0x04, 0x00, 0x00, 0x00, 0x06, 0xfa, 0xff, 0xff, 
	0x00, 0x00, 0x00, 0x01, 0x14, 0x00, 0x00, 0x00, 0x1c, 0x00, 0x00, 0x00, 
	0x1c, 0x00, 0x00, 0x00, 0x0d, 0x00, 0x00, 0x00, 0x38, 0x00, 0x00, 0x00, 
	0x02, 0x00, 0x00, 0x00, 0xff, 0xff, 0xff, 0xff, 0x00, 0x02, 0x00, 0x00, 
	0xe8, 0xf9, 0xff, 0xff, 0x1e, 0x00, 0x00, 0x00, 0x73, 0x65, 0x71, 0x75, 
	0x65, 0x6e, 0x74, 0x69, 0x61, 0x6c, 0x5f, 0x34, 0x2f, 0x66, 0x6c, 0x61, 
	0x74, 0x74, 0x65, 0x6e, 0x5f, 0x34, 0x2f, 0x52, 0x65, 0x73, 0x68, 0x61, 
	0x70, 0x65, 0x00, 0x00, 0x02, 0x00, 0x00, 0x00, 0x01, 0x00, 0x00, 0x00, 
	0x00, 0x02, 0x00, 0x00, 0x62, 0xfa, 0xff, 0xff, 0x00, 0x00, 0x00, 0x01, 
	0x14, 0x00, 0x00, 0x00, 0x24, 0x00, 0x00, 0x00, 0x24, 0x00, 0x00, 0x00, 
	0x0c, 0x00, 0x00, 0x00, 0x48, 0x00, 0x00, 0x00, 0x04, 0x00, 0x00, 0x00, 
	0xff, 0xff, 0xff, 0xff, 0x08, 0x00, 0x00, 0x00, 0x08, 0x00, 0x00, 0x00, 
	0x08, 0x00, 0x00, 0x00, 0x4c, 0xfa, 0xff, 0xff, 0x24, 0x00, 0x00, 0x00, 
	0x73, 0x65, 0x71, 0x75, 0x65, 0x6e, 0x74, 0x69, 0x61, 0x6c, 0x5f, 0x34, 
	0x2f, 0x6d, 0x61, 0x78, 0x5f, 0x70, 0x6f, 0x6f, 0x6c, 0x69, 0x6e, 0x67, 
	0x32, 0x64, 0x5f, 0x39, 0x2f, 0x4d, 0x61, 0x78, 0x50, 0x6f, 0x6f, 0x6c, 
	0x00, 0x00, 0x00, 0x00, 0x04, 0x00, 0x00, 0x00, 0x01, 0x00, 0x00, 0x00, 
	0x08, 0x00, 0x00, 0x00, 0x08, 0x00, 0x00, 0x00, 0x08, 0x00, 0x00, 0x00, 
	0xd6, 0xfa, 0xff, 0xff, 0x00, 0x00, 0x00, 0x01, 0x14, 0x00, 0x00, 0x00, 
	0x24, 0x00, 0x00, 0x00, 0x24, 0x00, 0x00, 0x00, 0x0b, 0x00, 0x00, 0x00, 
	0xa4, 0x00, 0x00, 0x00, 0x04, 0x00, 0x00, 0x00, 0xff, 0xff, 0xff, 0xff, 
	0x10, 0x00, 0x00, 0x00, 0x10, 0x00, 0x00, 0x00, 0x08, 0x00, 0x00, 0x00, 
	0xc0, 0xfa, 0xff, 0xff, 0x82, 0x00, 0x00, 0x00, 0x73, 0x65, 0x71, 0x75, 
	0x65, 0x6e, 0x74, 0x69, 0x61, 0x6c, 0x5f, 0x34, 0x2f, 0x63, 0x6f, 0x6e, 
	0x76, 0x32, 0x64, 0x5f, 0x39, 0x2f, 0x52, 0x65, 0x6c, 0x75, 0x3b, 0x73, 
	0x65, 0x71, 0x75, 0x65, 0x6e, 0x74, 0x69, 0x61, 0x6c, 0x5f, 0x34, 0x2f, 
	0x63, 0x6f, 0x6e, 0x76, 0x32, 0x64, 0x5f, 0x39, 0x2f, 0x42, 0x69, 0x61, 
	0x73, 0x41, 0x64, 0x64, 0x3b, 0x73, 0x65, 0x71, 0x75, 0x65, 0x6e, 0x74, 
	0x69, 0x61, 0x6c, 0x5f, 0x34, 0x2f, 0x63, 0x6f, 0x6e, 0x76, 0x32, 0x64, 
	0x5f, 0x39, 0x2f, 0x43, 0x6f, 0x6e, 0x76, 0x32, 0x44, 0x3b, 0x73, 0x65, 
	0x71, 0x75, 0x65, 0x6e, 0x74, 0x69, 0x61, 0x6c, 0x5f, 0x34, 0x2f, 0x63, 
	0x6f, 0x6e, 0x76, 0x32, 0x64, 0x5f, 0x39, 0x2f, 0x42, 0x69, 0x61, 0x73, 
	0x41, 0x64, 0x64, 0x2f, 0x52, 0x65, 0x61, 0x64, 0x56, 0x61, 0x72, 0x69, 
	0x61, 0x62, 0x6c, 0x65, 0x4f, 0x70, 0x00, 0x00, 0x04, 0x00, 0x00, 0x00, 
	0x01, 0x00, 0x00, 0x00, 0x10, 0x00, 0x00, 0x00, 0x10, 0x00, 0x00, 0x00, 
	0x08, 0x00, 0x00, 0x00, 0xa6, 0xfb, 0xff, 0xff, 0x00, 0x00, 0x00, 0x01, 
	0x14, 0x00, 0x00, 0x00, 0x24, 0x00, 0x00, 0x00, 0x24, 0x00, 0x00, 0x00, 
	0x0a, 0x00, 0x00, 0x00, 0x48, 0x00, 0x00, 0x00, 0x04, 0x00, 0x00, 0x00, 
	0xff, 0xff, 0xff, 0xff, 0x10, 0x00, 0x00, 0x00, 0x10, 0x00, 0x00, 0x00, 
	0x20, 0x00, 0x00, 0x00, 0x90, 0xfb, 0xff, 0xff, 0x24, 0x00, 0x00, 0x00, 
	0x73, 0x65, 0x71, 0x75, 0x65, 0x6e, 0x74, 0x69, 0x61, 0x6c, 0x5f, 0x34, 
	0x2f, 0x6d, 0x61, 0x78, 0x5f, 0x70, 0x6f, 0x6f, 0x6c, 0x69, 0x6e, 0x67, 
	0x32, 0x64, 0x5f, 0x38, 0x2f, 0x4d, 0x61, 0x78, 0x50, 0x6f, 0x6f, 0x6c, 
	0x00, 0x00, 0x00, 0x00, 0x04, 0x00, 0x00, 0x00, 0x01, 0x00, 0x00, 0x00, 
	0x10, 0x00, 0x00, 0x00, 0x10, 0x00, 0x00, 0x00, 0x20, 0x00, 0x00, 0x00, 
	0x1a, 0xfc, 0xff, 0xff, 0x00, 0x00, 0x00, 0x01, 0x14, 0x00, 0x00, 0x00, 
	0x24, 0x00, 0x00, 0x00, 0x24, 0x00, 0x00, 0x00, 0x09, 0x00, 0x00, 0x00, 
	0xa4, 0x00, 0x00, 0x00, 0x04, 0x00, 0x00, 0x00, 0xff, 0xff, 0xff, 0xff, 
	0x20, 0x00, 0x00, 0x00, 0x20, 0x00, 0x00, 0x00, 0x20, 0x00, 0x00, 0x00, 
	0x04, 0xfc, 0xff, 0xff, 0x82, 0x00, 0x00, 0x00, 0x73, 0x65, 0x71, 0x75, 
	0x65, 0x6e, 0x74, 0x69, 0x61, 0x6c, 0x5f, 0x34, 0x2f, 0x63, 0x6f, 0x6e, 
	0x76, 0x32, 0x64, 0x5f, 0x38, 0x2f, 0x52, 0x65, 0x6c, 0x75, 0x3b, 0x73, 
	0x65, 0x71, 0x75, 0x65, 0x6e, 0x74, 0x69, 0x61, 0x6c, 0x5f, 0x34, 0x2f, 
	0x63, 0x6f, 0x6e, 0x76, 0x32, 0x64, 0x5f, 0x38, 0x2f, 0x42, 0x69, 0x61, 
	0x73, 0x41, 0x64, 0x64, 0x3b, 0x73, 0x65, 0x71, 0x75, 0x65, 0x6e, 0x74, 
	0x69, 0x61, 0x6c, 0x5f, 0x34, 0x2f, 0x63, 0x6f, 0x6e, 0x76, 0x32, 0x64, 
	0x5f, 0x38, 0x2f, 0x43, 0x6f, 0x6e, 0x76, 0x32, 0x44, 0x3b, 0x73, 0x65, 
	0x71, 0x75, 0x65, 0x6e, 0x74, 0x69, 0x61, 0x6c, 0x5f, 0x34, 0x2f, 0x63, 
	0x6f, 0x6e, 0x76, 0x32, 0x64, 0x5f, 0x38, 0x2f, 0x42, 0x69, 0x61, 0x73, 
	0x41, 0x64, 0x64, 0x2f, 0x52, 0x65, 0x61, 0x64, 0x56, 0x61, 0x72, 0x69, 
	0x61, 0x62, 0x6c, 0x65, 0x4f, 0x70, 0x00, 0x00, 0x04, 0x00, 0x00, 0x00, 
	0x01, 0x00, 0x00, 0x00, 0x20, 0x00, 0x00, 0x00, 0x20, 0x00, 0x00, 0x00, 
	0x20, 0x00, 0x00, 0x00, 0x4e, 0xfd, 0xff, 0xff, 0x00, 0x00, 0x00, 0x01, 
	0x14, 0x00, 0x00, 0x00, 0x34, 0x00, 0x00, 0x00, 0x08, 0x00, 0x00, 0x00, 
	0x00, 0x00, 0x00, 0x09, 0x48, 0x00, 0x00, 0x00, 0x94, 0xff, 0xff, 0xff, 
	0x08, 0x00, 0x00, 0x00, 0x14, 0x00, 0x00, 0x00, 0x01, 0x00, 0x00, 0x00, 
	0x00, 0x00, 0x00, 0x00, 0x00, 0x00, 0x00, 0x00, 0x00, 0x00, 0x00, 0x00, 
	0x01, 0x00, 0x00, 0x00, 0x18, 0xae, 0x12, 0x3b, 0x1b, 0x00, 0x00, 0x00, 
	0x73, 0x65, 0x71, 0x75, 0x65, 0x6e, 0x74, 0x69, 0x61, 0x6c, 0x5f, 0x34, 
	0x2f, 0x64, 0x65, 0x6e, 0x73, 0x65, 0x5f, 0x34, 0x2f, 0x4d, 0x61, 0x74, 
	0x4d, 0x75, 0x6c, 0x00, 0x02, 0x00, 0x00, 0x00, 0x04, 0x00, 0x00, 0x00, 
	0x00, 0x02, 0x00, 0x00, 0xba, 0xfd, 0xff, 0xff, 0x00, 0x00, 0x00, 0x01, 
	0x20, 0x00, 0x00, 0x00, 0x90, 0x00, 0x00, 0x00, 0x07, 0x00, 0x00, 0x00, 
	0x00, 0x00, 0x00, 0x09, 0xa8, 0x00, 0x00, 0x00, 0x0c, 0x00, 0x0c, 0x00, 
	0x00, 0x00, 0x00, 0x00, 0x08, 0x00, 0x04, 0x00, 0x0c, 0x00, 0x00, 0x00, 
	0x08, 0x00, 0x00, 0x00, 0x48, 0x00, 0x00, 0x00, 0x08, 0x00, 0x00, 0x00, 
	0x00, 0x00, 0x00, 0x00, 0x00, 0x00, 0x00, 0x00, 0x00, 0x00, 0x00, 0x00, 
	0x00, 0x00, 0x00, 0x00, 0x00, 0x00, 0x00, 0x00, 0x00, 0x00, 0x00, 0x00, 
	0x00, 0x00, 0x00, 0x00, 0x00, 0x00, 0x00, 0x00, 0x00, 0x00, 0x00, 0x00, 
	0x00, 0x00, 0x00, 0x00, 0x00, 0x00, 0x00, 0x00, 0x00, 0x00, 0x00, 0x00, 
	0x00, 0x00, 0x00, 0x00, 0x00, 0x00, 0x00, 0x00, 0x00, 0x00, 0x00, 0x00, 
	0x00, 0x00, 0x00, 0x00, 0x08, 0x00, 0x00, 0x00, 0xe1, 0x39, 0xcf, 0x3a, 
	0x3a, 0xd2, 0xc3, 0x3a, 0x25, 0x66, 0xe2, 0x39, 0xbe, 0x77, 0xa3, 0x3a, 
	0xd0, 0x8d, 0xa4, 0x3a, 0x09, 0xa0, 0xa5, 0x3a, 0x6b, 0x7d, 0xa4, 0x3a, 
	0x23, 0x37, 0xb7, 0x3a, 0x1c, 0x00, 0x00, 0x00, 0x73, 0x65, 0x71, 0x75, 
	0x65, 0x6e, 0x74, 0x69, 0x61, 0x6c, 0x5f, 0x34, 0x2f, 0x63, 0x6f, 0x6e, 
	0x76, 0x32, 0x64, 0x5f, 0x39, 0x2f, 0x43, 0x6f, 0x6e, 0x76, 0x32, 0x44, 
	0x00, 0x00, 0x00, 0x00, 0x04, 0x00, 0x00, 0x00, 0x08, 0x00, 0x00, 0x00, 
	0x03, 0x00, 0x00, 0x00, 0x03, 0x00, 0x00, 0x00, 0x20, 0x00, 0x00, 0x00, 
	0xfa, 0xfe, 0xff, 0xff, 0x00, 0x00, 0x00, 0x01, 0x10, 0x00, 0x00, 0x00, 
	0x10, 0x00, 0x00, 0x00, 0x06, 0x00, 0x00, 0x00, 0x2c, 0x00, 0x00, 0x00, 
	0xfc, 0xfd, 0xff, 0xff, 0x1c, 0x00, 0x00, 0x00, 0x73, 0x65, 0x71, 0x75, 
	0x65, 0x6e, 0x74, 0x69, 0x61, 0x6c, 0x5f, 0x34, 0x2f, 0x63, 0x6f, 0x6e, 
	0x76, 0x32, 0x64, 0x5f, 0x38, 0x2f, 0x43, 0x6f, 0x6e, 0x76, 0x32, 0x44, 
	0x00, 0x00, 0x00, 0x00, 0x04, 0x00, 0x00, 0x00, 0x20, 0x00, 0x00, 0x00, 
	0x03, 0x00, 0x00, 0x00, 0x03, 0x00, 0x00, 0x00, 0x01, 0x00, 0x00, 0x00, 
	0x4e, 0xff, 0xff, 0xff, 0x00, 0x00, 0x00, 0x01, 0x10, 0x00, 0x00, 0x00, 
	0x10, 0x00, 0x00, 0x00, 0x05, 0x00, 0x00, 0x00, 0x3c, 0x00, 0x00, 0x00, 
	0x50, 0xfe, 0xff, 0xff, 0x2c, 0x00, 0x00, 0x00, 0x73, 0x65, 0x71, 0x75, 
	0x65, 0x6e, 0x74, 0x69, 0x61, 0x6c, 0x5f, 0x34, 0x2f, 0x63, 0x6f, 0x6e, 
	0x76, 0x32, 0x64, 0x5f, 0x39, 0x2f, 0x42, 0x69, 0x61, 0x73, 0x41, 0x64, 
	0x64, 0x2f, 0x52, 0x65, 0x61, 0x64, 0x56, 0x61, 0x72, 0x69, 0x61, 0x62, 
	0x6c, 0x65, 0x4f, 0x70, 0x00, 0x00, 0x00, 0x00, 0x01, 0x00, 0x00, 0x00, 
	0x08, 0x00, 0x00, 0x00, 0xa6, 0xff, 0xff, 0xff, 0x00, 0x00, 0x00, 0x01, 
	0x10, 0x00, 0x00, 0x00, 0x10, 0x00, 0x00, 0x00, 0x04, 0x00, 0x00, 0x00, 
	0x3c, 0x00, 0x00, 0x00, 0xa8, 0xfe, 0xff, 0xff, 0x2c, 0x00, 0x00, 0x00, 
	0x73, 0x65, 0x71, 0x75, 0x65, 0x6e, 0x74, 0x69, 0x61, 0x6c, 0x5f, 0x34, 
	0x2f, 0x63, 0x6f, 0x6e, 0x76, 0x32, 0x64, 0x5f, 0x38, 0x2f, 0x42, 0x69, 
	0x61, 0x73, 0x41, 0x64, 0x64, 0x2f, 0x52, 0x65, 0x61, 0x64, 0x56, 0x61, 
	0x72, 0x69, 0x61, 0x62, 0x6c, 0x65, 0x4f, 0x70, 0x00, 0x00, 0x00, 0x00, 
	0x01, 0x00, 0x00, 0x00, 0x20, 0x00, 0x00, 0x00, 0x00, 0x00, 0x16, 0x00, 
	0x18, 0x00, 0x14, 0x00, 0x00, 0x00, 0x10, 0x00, 0x0c, 0x00, 0x08, 0x00, 
	0x00, 0x00, 0x00, 0x00, 0x00, 0x00, 0x07, 0x00, 0x16, 0x00, 0x00, 0x00, 
	0x00, 0x00, 0x00, 0x01, 0x10, 0x00, 0x00, 0x00, 0x10, 0x00, 0x00, 0x00, 
	0x03, 0x00, 0x00, 0x00, 0x38, 0x00, 0x00, 0x00, 0x18, 0xff, 0xff, 0xff, 
	0x2b, 0x00, 0x00, 0x00, 0x73, 0x65, 0x71, 0x75, 0x65, 0x6e, 0x74, 0x69, 
	0x61, 0x6c, 0x5f, 0x34, 0x2f, 0x64, 0x65, 0x6e, 0x73, 0x65, 0x5f, 0x34, 
	0x2f, 0x42, 0x69, 0x61, 0x73, 0x41, 0x64, 0x64, 0x2f, 0x52, 0x65, 0x61, 
	0x64, 0x56, 0x61, 0x72, 0x69, 0x61, 0x62, 0x6c, 0x65, 0x4f, 0x70, 0x00, 
	0x01, 0x00, 0x00, 0x00, 0x04, 0x00, 0x00, 0x00, 0x00, 0x00, 0x16, 0x00, 
	0x1c, 0x00, 0x18, 0x00, 0x17, 0x00, 0x10, 0x00, 0x0c, 0x00, 0x08, 0x00, 
	0x00, 0x00, 0x00, 0x00, 0x00, 0x00, 0x07, 0x00, 0x16, 0x00, 0x00, 0x00, 
	0x00, 0x00, 0x00, 0x01, 0x14, 0x00, 0x00, 0x00, 0x14, 0x00, 0x00, 0x00, 
	0x02, 0x00, 0x00, 0x00, 0x00, 0x00, 0x00, 0x02, 0x2c, 0x00, 0x00, 0x00, 
	0x88, 0xff, 0xff, 0xff, 0x1c, 0x00, 0x00, 0x00, 0x73, 0x65, 0x71, 0x75, 
	0x65, 0x6e, 0x74, 0x69, 0x61, 0x6c, 0x5f, 0x34, 0x2f, 0x66, 0x6c, 0x61, 
	0x74, 0x74, 0x65, 0x6e, 0x5f, 0x34, 0x2f, 0x43, 0x6f, 0x6e, 0x73, 0x74, 
	0x00, 0x00, 0x00, 0x00, 0x01, 0x00, 0x00, 0x00, 0x02, 0x00, 0x00, 0x00, 
	0x00, 0x00, 0x16, 0x00, 0x1c, 0x00, 0x18, 0x00, 0x00, 0x00, 0x14, 0x00, 
	0x10, 0x00, 0x0c, 0x00, 0x00, 0x00, 0x00, 0x00, 0x08, 0x00, 0x07, 0x00, 
	0x16, 0x00, 0x00, 0x00, 0x00, 0x00, 0x00, 0x01, 0x14, 0x00, 0x00, 0x00, 
	0x28, 0x00, 0x00, 0x00, 0x28, 0x00, 0x00, 0x00, 0x01, 0x00, 0x00, 0x00, 
	0x48, 0x00, 0x00, 0x00, 0x04, 0x00, 0x00, 0x00, 0xff, 0xff, 0xff, 0xff, 
	0x20, 0x00, 0x00, 0x00, 0x20, 0x00, 0x00, 0x00, 0x01, 0x00, 0x00, 0x00, 
	0x04, 0x00, 0x04, 0x00, 0x04, 0x00, 0x00, 0x00, 0x20, 0x00, 0x00, 0x00, 
	0x73, 0x65, 0x72, 0x76, 0x69, 0x6e, 0x67, 0x5f, 0x64, 0x65, 0x66, 0x61, 
	0x75, 0x6c, 0x74, 0x5f, 0x63, 0x6f, 0x6e, 0x76, 0x32, 0x64, 0x5f, 0x38, 
	0x5f, 0x69, 0x6e, 0x70, 0x75, 0x74, 0x3a, 0x30, 0x00, 0x00, 0x00, 0x00, 
	0x04, 0x00, 0x00, 0x00, 0x01, 0x00, 0x00, 0x00, 0x20, 0x00, 0x00, 0x00, 
	0x20, 0x00, 0x00, 0x00, 0x01, 0x00, 0x00, 0x00, 0x04, 0x00, 0x00, 0x00, 
	0x50, 0x00, 0x00, 0x00, 0x34, 0x00, 0x00, 0x00, 0x18, 0x00, 0x00, 0x00, 
	0x04, 0x00, 0x00, 0x00, 0xcc, 0xff, 0xff, 0xff, 0x09, 0x00, 0x00, 0x00, 
	0x09, 0x00, 0x00, 0x00, 0x00, 0x00, 0x00, 0x09, 0xf4, 0xff, 0xff, 0xff, 
	0x16, 0x00, 0x00, 0x00, 0x00, 0x00, 0x00, 0x16, 0x0c, 0x00, 0x0c, 0x00, 
	0x0b, 0x00, 0x00, 0x00, 0x00, 0x00, 0x04, 0x00, 0x0c, 0x00, 0x00, 0x00, 
	0x11, 0x00, 0x00, 0x00, 0x00, 0x00, 0x00, 0x11, 0x0c, 0x00, 0x10, 0x00, 
	0x0f, 0x00, 0x00, 0x00, 0x08, 0x00, 0x04, 0x00, 0x0c, 0x00, 0x00, 0x00, 
	0x03, 0x00, 0x00, 0x00, 0x05, 0x00, 0x00, 0x00, 0x00, 0x00, 0x00, 0x03
};
const int minitrentadue_len = 8736;
