
#ifdef __has_attribute
#define HAVE_ATTRIBUTE(x) __has_attribute(x)
#else
#define HAVE_ATTRIBUTE(x) 0
#endif
#if HAVE_ATTRIBUTE(aligned) || (defined(__GNUC__) && !defined(__clang__))
#define DATA_ALIGN_ATTRIBUTE __attribute__((aligned(4)))
#else
#define DATA_ALIGN_ATTRIBUTE
#endif

const unsigned char uno[] DATA_ALIGN_ATTRIBUTE = {
	0x20, 0x00, 0x00, 0x00, 0x54, 0x46, 0x4c, 0x33, 0x00, 0x00, 0x00, 0x00, 
	0x14, 0x00, 0x20, 0x00, 0x1c, 0x00, 0x18, 0x00, 0x14, 0x00, 0x10, 0x00, 
	0x0c, 0x00, 0x00, 0x00, 0x08, 0x00, 0x04, 0x00, 0x14, 0x00, 0x00, 0x00, 
	0x1c, 0x00, 0x00, 0x00, 0x88, 0x00, 0x00, 0x00, 0xe0, 0x00, 0x00, 0x00, 
	0xac, 0x2a, 0x00, 0x00, 0xbc, 0x2a, 0x00, 0x00, 0x80, 0x3d, 0x00, 0x00, 
	0x03, 0x00, 0x00, 0x00, 0x01, 0x00, 0x00, 0x00, 0x04, 0x00, 0x00, 0x00, 
	0x9e, 0xd4, 0xff, 0xff, 0x0c, 0x00, 0x00, 0x00, 0x1c, 0x00, 0x00, 0x00, 
	0x38, 0x00, 0x00, 0x00, 0x0f, 0x00, 0x00, 0x00, 0x73, 0x65, 0x72, 0x76, 
	0x69, 0x6e, 0x67, 0x5f, 0x64, 0x65, 0x66, 0x61, 0x75, 0x6c, 0x74, 0x00, 
	0x01, 0x00, 0x00, 0x00, 0x04, 0x00, 0x00, 0x00, 0x94, 0xff, 0xff, 0xff, 
	0x13, 0x00, 0x00, 0x00, 0x04, 0x00, 0x00, 0x00, 0x07, 0x00, 0x00, 0x00, 
	0x64, 0x65, 0x6e, 0x73, 0x65, 0x5f, 0x33, 0x00, 0x01, 0x00, 0x00, 0x00, 
	0x04, 0x00, 0x00, 0x00, 0xda, 0xd5, 0xff, 0xff, 0x04, 0x00, 0x00, 0x00, 
	0x0e, 0x00, 0x00, 0x00, 0x63, 0x6f, 0x6e, 0x76, 0x32, 0x64, 0x5f, 0x39, 
	0x5f, 0x69, 0x6e, 0x70, 0x75, 0x74, 0x00, 0x00, 0x02, 0x00, 0x00, 0x00, 
	0x34, 0x00, 0x00, 0x00, 0x04, 0x00, 0x00, 0x00, 0xdc, 0xff, 0xff, 0xff, 
	0x16, 0x00, 0x00, 0x00, 0x04, 0x00, 0x00, 0x00, 0x13, 0x00, 0x00, 0x00, 
	0x43, 0x4f, 0x4e, 0x56, 0x45, 0x52, 0x53, 0x49, 0x4f, 0x4e, 0x5f, 0x4d, 
	0x45, 0x54, 0x41, 0x44, 0x41, 0x54, 0x41, 0x00, 0x08, 0x00, 0x0c, 0x00, 
	0x08, 0x00, 0x04, 0x00, 0x08, 0x00, 0x00, 0x00, 0x15, 0x00, 0x00, 0x00, 
	0x04, 0x00, 0x00, 0x00, 0x13, 0x00, 0x00, 0x00, 0x6d, 0x69, 0x6e, 0x5f, 
	0x72, 0x75, 0x6e, 0x74, 0x69, 0x6d, 0x65, 0x5f, 0x76, 0x65, 0x72, 0x73, 
	0x69, 0x6f, 0x6e, 0x00, 0x17, 0x00, 0x00, 0x00, 0xc8, 0x29, 0x00, 0x00, 
	0xc0, 0x29, 0x00, 0x00, 0xa8, 0x29, 0x00, 0x00, 0x6c, 0x29, 0x00, 0x00, 
	0x44, 0x14, 0x00, 0x00, 0xd4, 0x13, 0x00, 0x00, 0x44, 0x06, 0x00, 0x00, 
	0xf4, 0x05, 0x00, 0x00, 0x64, 0x01, 0x00, 0x00, 0x34, 0x01, 0x00, 0x00, 
	0xdc, 0x00, 0x00, 0x00, 0xd4, 0x00, 0x00, 0x00, 0xcc, 0x00, 0x00, 0x00, 
	0xc4, 0x00, 0x00, 0x00, 0xbc, 0x00, 0x00, 0x00, 0xb4, 0x00, 0x00, 0x00, 
	0xac, 0x00, 0x00, 0x00, 0xa4, 0x00, 0x00, 0x00, 0x9c, 0x00, 0x00, 0x00, 
	0x94, 0x00, 0x00, 0x00, 0x8c, 0x00, 0x00, 0x00, 0x6c, 0x00, 0x00, 0x00, 
	0x04, 0x00, 0x00, 0x00, 0xb2, 0xd6, 0xff, 0xff, 0x04, 0x00, 0x00, 0x00, 
	0x58, 0x00, 0x00, 0x00, 0x0c, 0x00, 0x00, 0x00, 0x08, 0x00, 0x0e, 0x00, 
	0x08, 0x00, 0x04, 0x00, 0x08, 0x00, 0x00, 0x00, 0x10, 0x00, 0x00, 0x00, 
	0x28, 0x00, 0x00, 0x00, 0x00, 0x00, 0x06, 0x00, 0x08, 0x00, 0x04, 0x00, 
	0x06, 0x00, 0x00, 0x00, 0x04, 0x00, 0x00, 0x00, 0x01, 0x00, 0x00, 0x00, 
	0xeb, 0x03, 0x00, 0x00, 0x00, 0x00, 0x0a, 0x00, 0x10, 0x00, 0x0c, 0x00, 
	0x08, 0x00, 0x04, 0x00, 0x0a, 0x00, 0x00, 0x00, 0x02, 0x00, 0x00, 0x00, 
	0x02, 0x00, 0x00, 0x00, 0x04, 0x00, 0x00, 0x00, 0x06, 0x00, 0x00, 0x00, 
	0x32, 0x2e, 0x31, 0x32, 0x2e, 0x30, 0x00, 0x00, 0x16, 0xd7, 0xff, 0xff, 
	0x04, 0x00, 0x00, 0x00, 0x10, 0x00, 0x00, 0x00, 0x31, 0x2e, 0x31, 0x34, 
	0x2e, 0x30, 0x00, 0x00, 0x00, 0x00, 0x00, 0x00, 0x00, 0x00, 0x00, 0x00, 
	0x20, 0xc5, 0xff, 0xff, 0x24, 0xc5, 0xff, 0xff, 0x28, 0xc5, 0xff, 0xff, 
	0x2c, 0xc5, 0xff, 0xff, 0x30, 0xc5, 0xff, 0xff, 0x34, 0xc5, 0xff, 0xff, 
	0x38, 0xc5, 0xff, 0xff, 0x3c, 0xc5, 0xff, 0xff, 0x40, 0xc5, 0xff, 0xff, 
	0x44, 0xc5, 0xff, 0xff, 0x5a, 0xd7, 0xff, 0xff, 0x04, 0x00, 0x00, 0x00, 
	0x48, 0x00, 0x00, 0x00, 0x5a, 0x09, 0x7e, 0x0a, 0xbd, 0x6a, 0xd9, 0x7f, 
	0xa4, 0x42, 0x81, 0x95, 0xaa, 0x14, 0x5b, 0xef, 0xcf, 0xcc, 0x20, 0x14, 
	0x44, 0x81, 0x8c, 0x58, 0xa6, 0xed, 0x2a, 0xd5, 0x2a, 0x93, 0x9b, 0x88, 
	0x41, 0x7a, 0x76, 0x7f, 0xf5, 0x7f, 0xb5, 0x95, 0x7b, 0x83, 0xe4, 0x0f, 
	0xaf, 0x58, 0x20, 0x63, 0x99, 0xc7, 0x81, 0xef, 0x08, 0x5b, 0xda, 0x56, 
	0x7f, 0x14, 0x1c, 0x2c, 0x66, 0x8b, 0x41, 0x0b, 0x40, 0x84, 0xad, 0x81, 
	0x5f, 0xa5, 0x04, 0x4b, 0xae, 0xd7, 0xff, 0xff, 0x04, 0x00, 0x00, 0x00, 
	0x20, 0x00, 0x00, 0x00, 0x09, 0x00, 0x00, 0x00, 0x05, 0x00, 0x00, 0x00, 
	0x04, 0x00, 0x00, 0x00, 0x01, 0x00, 0x00, 0x00, 0x3a, 0x00, 0x00, 0x00, 
	0x06, 0x00, 0x00, 0x00, 0xe1, 0xff, 0xff, 0xff, 0xff, 0xff, 0xff, 0xff, 
	0xda, 0xd7, 0xff, 0xff, 0x04, 0x00, 0x00, 0x00, 0x80, 0x04, 0x00, 0x00, 
	0xe0, 0x10, 0x1c, 0x1c, 0x48, 0x53, 0xfd, 0x58, 0x33, 0x11, 0x35, 0xe9, 
	0x36, 0xc0, 0xc5, 0x42, 0x54, 0xd5, 0xcf, 0x4c, 0x4b, 0x4b, 0xc1, 0x18, 
	0xde, 0x01, 0x44, 0xd8, 0x3b, 0x59, 0x64, 0x53, 0xf3, 0x31, 0x60, 0x4c, 
	0x53, 0xc4, 0x0f, 0x02, 0x2a, 0xaf, 0x1d, 0xdd, 0x2e, 0xd6, 0xc6, 0xe5, 
	0x29, 0xcd, 0x7f, 0xfb, 0x76, 0xd0, 0xd4, 0x49, 0xeb, 0x31, 0x62, 0xe1, 
	0xe6, 0xcf, 0x30, 0x20, 0xcd, 0xdb, 0x14, 0x55, 0xe2, 0xb1, 0xd8, 0xb0, 
	0xaa, 0x3c, 0xe7, 0x3e, 0xcb, 0x00, 0xa2, 0xb0, 0xdc, 0xd0, 0x91, 0x00, 
	0x60, 0xff, 0xdc, 0x71, 0x8b, 0x90, 0x59, 0x11, 0x5c, 0xd4, 0xef, 0x0b, 
	0x78, 0x65, 0xed, 0x6c, 0xdd, 0x97, 0xf3, 0xb8, 0x66, 0x72, 0x79, 0x99, 
	0x4e, 0xa1, 0xa4, 0x18, 0xca, 0xb1, 0x4c, 0x1d, 0x51, 0x7e, 0x46, 0x20, 
	0x06, 0xad, 0xce, 0x0a, 0x8f, 0x7f, 0xcb, 0x31, 0x03, 0xb3, 0x83, 0x82, 
	0x95, 0xd7, 0x26, 0xe3, 0xc0, 0xcc, 0x19, 0x9d, 0xbb, 0x90, 0x85, 0xe1, 
	0xed, 0x4b, 0xfe, 0x6d, 0x61, 0x3d, 0x24, 0xf3, 0xe1, 0x46, 0xe7, 0xc3, 
	0x5c, 0x41, 0x29, 0xcc, 0xe8, 0x18, 0x50, 0xc5, 0x85, 0xaa, 0x1b, 0x01, 
	0x53, 0xde, 0xb5, 0x2b, 0xc9, 0xdc, 0x4a, 0x5b, 0x28, 0x8e, 0x46, 0x2f, 
	0x56, 0x49, 0x9b, 0xb5, 0x51, 0xa9, 0x32, 0x60, 0xaf, 0x97, 0xfb, 0x50, 
	0xdb, 0x41, 0x4c, 0x05, 0xc3, 0xa1, 0xa4, 0x5c, 0x9e, 0x51, 0x81, 0xe5, 
	0xa5, 0xf2, 0xfb, 0xdf, 0x49, 0x76, 0x4a, 0x6a, 0x1d, 0x52, 0x7c, 0x60, 
	0xfa, 0x14, 0x2c, 0x2f, 0x04, 0xc8, 0x12, 0xb9, 0xd4, 0xbe, 0x3e, 0x50, 
	0x3c, 0xec, 0xd5, 0x9e, 0xf0, 0xb1, 0xff, 0x18, 0xb1, 0xad, 0xc7, 0x03, 
	0xa7, 0x10, 0x7f, 0x27, 0x6c, 0x0a, 0xe8, 0xfe, 0x17, 0xce, 0x29, 0xdd, 
	0xf7, 0xd9, 0xf2, 0xda, 0x28, 0x1d, 0x5e, 0x9e, 0x1d, 0x2b, 0x52, 0xc5, 
	0x42, 0x02, 0x6b, 0xf8, 0x2e, 0xcf, 0x37, 0x37, 0xe2, 0xc7, 0xfb, 0xa7, 
	0xaf, 0xbd, 0xf6, 0x1c, 0x9f, 0x9d, 0x41, 0x4e, 0x9d, 0x36, 0xbe, 0x24, 
	0x02, 0xb6, 0x67, 0xec, 0xf3, 0xab, 0xe8, 0xc2, 0x96, 0xfe, 0x23, 0xe9, 
	0xc4, 0x99, 0x92, 0x63, 0xec, 0x91, 0xde, 0x38, 0xe5, 0x81, 0x22, 0xf3, 
	0x5a, 0xe6, 0x50, 0x2e, 0x4c, 0xb8, 0x6c, 0x49, 0xa3, 0xb9, 0xe5, 0xe0, 
	0x71, 0x12, 0xab, 0xcf, 0x31, 0x6c, 0xa6, 0x9c, 0xde, 0x8a, 0x4f, 0x19, 
	0xa2, 0xe1, 0xb0, 0x35, 0xe0, 0x32, 0xfb, 0xb0, 0xdc, 0x89, 0x69, 0xf1, 
	0xb5, 0xfd, 0x89, 0x6d, 0x62, 0x1a, 0xa7, 0x35, 0x2d, 0x1e, 0xf8, 0xde, 
	0x0b, 0x54, 0xe8, 0xb7, 0x26, 0x1e, 0x97, 0xa4, 0x35, 0xa8, 0x53, 0x1e, 
	0xf9, 0xde, 0x4c, 0xb5, 0xae, 0x81, 0x25, 0xe5, 0x38, 0x2f, 0xe1, 0x30, 
	0x02, 0x1c, 0xb7, 0x8d, 0x42, 0xe7, 0x92, 0xef, 0x26, 0xf3, 0x3c, 0x40, 
	0x9a, 0xa7, 0xab, 0xa9, 0x45, 0x9f, 0x9d, 0x62, 0xe4, 0xc8, 0x83, 0xf2, 
	0x8b, 0x54, 0x88, 0xbe, 0x43, 0xed, 0xe7, 0xd4, 0x0e, 0xae, 0x20, 0xb9, 
	0xac, 0xb6, 0x21, 0x9a, 0xe8, 0xbf, 0x2b, 0xdd, 0xdd, 0xab, 0xef, 0x16, 
	0xb7, 0xdd, 0xb9, 0xbb, 0xd7, 0xca, 0xf7, 0x4f, 0x37, 0xcc, 0xfb, 0xbc, 
	0xed, 0xf1, 0x01, 0x26, 0x0f, 0xf4, 0x57, 0x00, 0x00, 0xcd, 0xfd, 0xc6, 
	0xfe, 0x3c, 0xf9, 0x43, 0x15, 0x9d, 0x98, 0x1e, 0xf7, 0xa7, 0xee, 0xfa, 
	0x54, 0xb6, 0xbd, 0xc4, 0xed, 0xaf, 0xb0, 0xdd, 0xd9, 0xe5, 0xda, 0x9d, 
	0x4e, 0xd6, 0x49, 0xfd, 0x30, 0xeb, 0xa4, 0xda, 0x9f, 0x5c, 0xb6, 0xc8, 
	0x7f, 0xa3, 0x2f, 0xcb, 0x49, 0xff, 0xce, 0x4b, 0xb7, 0x14, 0x23, 0x0f, 
	0xc7, 0x3c, 0xf6, 0x64, 0x34, 0xc9, 0x6d, 0xe2, 0x9d, 0x0d, 0x1b, 0xb3, 
	0x7f, 0xce, 0x00, 0x65, 0xea, 0x63, 0xb2, 0xad, 0x71, 0x4b, 0xbe, 0x52, 
	0xe8, 0x5f, 0xd2, 0xd0, 0xb2, 0xd7, 0x1e, 0xf6, 0x66, 0x38, 0xba, 0x50, 
	0x94, 0xd4, 0xc6, 0x84, 0x03, 0xef, 0xb7, 0x0f, 0xb0, 0xa0, 0xb2, 0xd5, 
	0xdf, 0x23, 0x3d, 0x52, 0x5b, 0xef, 0xec, 0x86, 0x23, 0x75, 0xca, 0xd9, 
	0x2f, 0x02, 0xbf, 0x26, 0x33, 0x64, 0x23, 0xb1, 0x86, 0xf1, 0xd0, 0x2c, 
	0x0f, 0x3e, 0x81, 0x19, 0xdd, 0xab, 0x0b, 0x11, 0x2a, 0x59, 0xad, 0xba, 
	0x43, 0xd7, 0x9e, 0x55, 0xef, 0xc2, 0xf3, 0x29, 0x64, 0x38, 0x10, 0xea, 
	0x9f, 0xda, 0xf1, 0xe3, 0x30, 0x00, 0x18, 0xc7, 0x70, 0x55, 0x9f, 0xdd, 
	0xcb, 0x15, 0x16, 0xeb, 0x38, 0x1b, 0x35, 0xcb, 0x1d, 0x4a, 0x64, 0x11, 
	0xca, 0xca, 0x3f, 0x57, 0x8a, 0xb3, 0xf9, 0x84, 0x52, 0x16, 0xd3, 0xc9, 
	0xa2, 0x23, 0xbe, 0xe3, 0x58, 0x52, 0x55, 0xb4, 0x95, 0xc1, 0xac, 0xa8, 
	0x0f, 0x5a, 0xe8, 0x28, 0xe8, 0xd1, 0x16, 0x0a, 0xd4, 0xf3, 0x3a, 0x31, 
	0xf4, 0xd7, 0x3f, 0xe3, 0x4e, 0xb9, 0x2f, 0xd9, 0x20, 0x30, 0xbf, 0xa7, 
	0xe6, 0xad, 0xc4, 0x32, 0xfc, 0xe7, 0x01, 0xe1, 0x19, 0xae, 0x2c, 0x3e, 
	0xbc, 0xf4, 0x4a, 0x5f, 0x1e, 0xda, 0x0b, 0xee, 0xbc, 0x06, 0x5b, 0xa8, 
	0x43, 0xff, 0x23, 0xc8, 0x03, 0x56, 0x1c, 0x4e, 0xb7, 0xbf, 0x05, 0x2d, 
	0x81, 0xa2, 0xb6, 0xa5, 0xcc, 0x1d, 0xbd, 0xe3, 0xdb, 0x3f, 0xfd, 0x63, 
	0x91, 0xad, 0xc6, 0x3d, 0x05, 0xe2, 0x6f, 0x45, 0xbb, 0x8f, 0x0e, 0xb1, 
	0xea, 0x5e, 0xbb, 0xd9, 0x60, 0xe1, 0x9d, 0x81, 0x07, 0xc8, 0x96, 0x57, 
	0x11, 0xc5, 0xc7, 0x44, 0xab, 0x8c, 0x37, 0x0b, 0xb0, 0x8b, 0x82, 0xe1, 
	0x23, 0x4b, 0xba, 0xea, 0x17, 0x25, 0x7b, 0xe3, 0x8f, 0xe7, 0x3c, 0x13, 
	0xfd, 0xf5, 0x1f, 0x8e, 0xa7, 0xa3, 0x5f, 0x17, 0xf6, 0xba, 0x09, 0x25, 
	0x47, 0x14, 0xd1, 0x65, 0x2e, 0x04, 0xe8, 0xfe, 0xb7, 0xad, 0xcb, 0xd7, 
	0x58, 0x11, 0x6a, 0xa6, 0xde, 0xe8, 0x61, 0x55, 0x6b, 0xcd, 0xad, 0xc8, 
	0x0f, 0x11, 0x8c, 0x08, 0xdc, 0xa9, 0xcc, 0x8d, 0xdb, 0x85, 0x0a, 0xfe, 
	0x9c, 0x12, 0x4f, 0x05, 0xbe, 0x15, 0x11, 0xc1, 0xa3, 0x68, 0xb2, 0xfa, 
	0xc2, 0x97, 0x59, 0x3b, 0x41, 0xe2, 0x0a, 0xd4, 0xeb, 0x63, 0xcd, 0x61, 
	0x3c, 0x43, 0xdb, 0xd6, 0x5d, 0x47, 0xe7, 0x72, 0xa4, 0x20, 0x97, 0x81, 
	0xcb, 0x8e, 0x86, 0x53, 0x67, 0xe2, 0x57, 0x0e, 0x39, 0x53, 0x1a, 0x18, 
	0x03, 0xa7, 0xbb, 0xe0, 0x8d, 0x60, 0x33, 0x21, 0x49, 0x08, 0x46, 0x61, 
	0xee, 0xe1, 0x45, 0xe4, 0x32, 0x0d, 0x4e, 0x36, 0x86, 0xd9, 0x09, 0x99, 
	0xc6, 0xd5, 0xdd, 0xbb, 0xec, 0xc9, 0x35, 0xa4, 0x8c, 0xc4, 0xc6, 0xdd, 
	0xa1, 0xb5, 0x56, 0x75, 0x96, 0x60, 0x88, 0x5c, 0xe9, 0xeb, 0x81, 0x4f, 
	0xfc, 0xdd, 0xbd, 0x01, 0xb4, 0xd1, 0x12, 0x6a, 0xa3, 0x39, 0xe3, 0x9a, 
	0xd9, 0x5e, 0x2e, 0xcf, 0x1d, 0xd7, 0x57, 0x4b, 0xac, 0x1c, 0x42, 0x8b, 
	0x68, 0xc2, 0x51, 0x38, 0x39, 0x3b, 0xba, 0x1a, 0xa5, 0xd8, 0x34, 0x40, 
	0xa0, 0x94, 0xb5, 0xd1, 0x1c, 0x82, 0x65, 0x42, 0x44, 0xdb, 0x67, 0x9a, 
	0x92, 0x65, 0x4a, 0xa9, 0x1e, 0x58, 0xec, 0x31, 0x57, 0x9f, 0x22, 0x8b, 
	0x3c, 0x8b, 0xdf, 0x68, 0x9d, 0x5b, 0x05, 0x5d, 0x98, 0x94, 0x37, 0xd3, 
	0x81, 0x1c, 0xa3, 0x2b, 0x33, 0x5a, 0x55, 0xc5, 0x15, 0x24, 0x88, 0x43, 
	0x16, 0x31, 0xa0, 0x75, 0xe7, 0x60, 0x07, 0xd1, 0x12, 0x3e, 0xda, 0x53, 
	0x95, 0x2a, 0xc6, 0x67, 0x03, 0xf1, 0xaf, 0x52, 0xdd, 0xbb, 0x61, 0x46, 
	0x06, 0xde, 0xc4, 0x39, 0x71, 0x7d, 0xf4, 0x69, 0x3c, 0x8e, 0x23, 0x90, 
	0x01, 0xed, 0xc2, 0x89, 0xef, 0x45, 0x00, 0x78, 0x0c, 0x6a, 0x8d, 0x2d, 
	0x33, 0x49, 0x6c, 0x89, 0xec, 0x9d, 0x41, 0xfd, 0x10, 0x2d, 0x62, 0xff, 
	0x55, 0xfe, 0xf1, 0x0f, 0x81, 0x89, 0xc4, 0xa8, 0xb7, 0x9e, 0x55, 0x23, 
	0x5c, 0xc1, 0xc5, 0xe5, 0x40, 0xa8, 0x29, 0x3a, 0x29, 0x4e, 0x5f, 0xbc, 
	0x79, 0xf2, 0x2d, 0x63, 0x20, 0x99, 0x2c, 0x63, 0x04, 0xc2, 0x65, 0xfd, 
	0xe2, 0xdb, 0x19, 0x62, 0x0b, 0x3b, 0xe5, 0xe7, 0x28, 0x0a, 0xcd, 0x7b, 
	0x2b, 0x06, 0xfc, 0xc9, 0x47, 0x45, 0x09, 0x83, 0x5e, 0xcd, 0x74, 0x0a, 
	0xa3, 0xdb, 0xa0, 0x7f, 0x94, 0xb8, 0xd2, 0x40, 0x1a, 0xab, 0xf0, 0xa7, 
	0x84, 0x45, 0x48, 0x22, 0xcc, 0xdc, 0x97, 0x95, 0x6a, 0xdd, 0xed, 0x47, 
	0x86, 0x0c, 0x34, 0xc2, 0x2e, 0x29, 0x9f, 0xbd, 0x08, 0x7b, 0xdc, 0x20, 
	0x66, 0xdc, 0xff, 0xff, 0x04, 0x00, 0x00, 0x00, 0x40, 0x00, 0x00, 0x00, 
	0x4a, 0x00, 0x00, 0x00, 0x06, 0x00, 0x00, 0x00, 0xfd, 0xff, 0xff, 0xff, 
	0x06, 0x00, 0x00, 0x00, 0xea, 0xff, 0xff, 0xff, 0xec, 0xff, 0xff, 0xff, 
	0xf3, 0xff, 0xff, 0xff, 0xfa, 0xff, 0xff, 0xff, 0xf0, 0xff, 0xff, 0xff, 
	0xfc, 0xff, 0xff, 0xff, 0xe3, 0xff, 0xff, 0xff, 0xe3, 0xff, 0xff, 0xff, 
	0xc7, 0xff, 0xff, 0xff, 0xe3, 0xff, 0xff, 0xff, 0xff, 0xff, 0xff, 0xff, 
	0xe7, 0xff, 0xff, 0xff, 0xb2, 0xdc, 0xff, 0xff, 0x04, 0x00, 0x00, 0x00, 
	0x80, 0x0d, 0x00, 0x00, 0xa3, 0x9c, 0xed, 0xa6, 0x94, 0x41, 0x89, 0x46, 
	0x89, 0x31, 0x9d, 0x69, 0xfa, 0x2d, 0x9e, 0x1f, 0x44, 0xa7, 0x58, 0x32, 
	0x3a, 0x39, 0x57, 0x18, 0x4b, 0x5c, 0x59, 0xf3, 0xa7, 0xe2, 0xa4, 0xbb, 
	0xd8, 0x98, 0xfb, 0xe4, 0x61, 0x4f, 0x13, 0xf7, 0x8f, 0xe8, 0xce, 0xac, 
	0x09, 0x24, 0x2c, 0x92, 0xa0, 0xc2, 0x53, 0x78, 0x2a, 0x12, 0x0a, 0xea, 
	0x42, 0x09, 0xdb, 0x57, 0x35, 0xd7, 0x60, 0x13, 0x32, 0xc3, 0xd9, 0x8a, 
	0x05, 0xde, 0x10, 0x2a, 0x49, 0x88, 0x93, 0xf2, 0xb5, 0xb2, 0x2d, 0xfb, 
	0x87, 0x2c, 0xd1, 0x0b, 0x72, 0x86, 0x0a, 0xb0, 0xbf, 0x9b, 0x0b, 0x81, 
	0x6c, 0x21, 0x35, 0x93, 0x50, 0x87, 0x35, 0xe3, 0x19, 0xc3, 0x17, 0x46, 
	0x16, 0xbb, 0x27, 0xe1, 0x97, 0x59, 0xa7, 0x22, 0x1a, 0xc8, 0xe7, 0x07, 
	0x3f, 0x4e, 0x2d, 0x0a, 0xe2, 0xaf, 0xd9, 0x3a, 0x14, 0xec, 0x6a, 0x00, 
	0xc4, 0x3a, 0x2b, 0xfd, 0x30, 0xb7, 0xef, 0x30, 0xc0, 0xac, 0x66, 0x8b, 
	0x06, 0xc6, 0xbc, 0xe4, 0xe2, 0xf7, 0x04, 0xee, 0x24, 0x0c, 0xbd, 0xde, 
	0x07, 0x1a, 0x38, 0xde, 0x3d, 0xd1, 0x0c, 0xd5, 0x0b, 0x0d, 0xac, 0x49, 
	0xf6, 0x4c, 0x38, 0x18, 0xdc, 0x9f, 0xbf, 0x25, 0x48, 0x5c, 0x55, 0x0e, 
	0x81, 0xb1, 0x4c, 0xb6, 0x2b, 0x24, 0x27, 0x16, 0x06, 0xda, 0xd6, 0x2e, 
	0xef, 0x15, 0xb6, 0x94, 0x57, 0xc9, 0xce, 0x56, 0xea, 0x1a, 0x06, 0x10, 
	0x9d, 0x1e, 0xe4, 0x11, 0x36, 0xd4, 0x9f, 0x38, 0xd5, 0x34, 0x21, 0x5a, 
	0xa3, 0xc3, 0x2f, 0xbe, 0x4b, 0x9c, 0x57, 0x15, 0x1b, 0x18, 0x19, 0xdf, 
	0xee, 0x19, 0x9a, 0x36, 0x30, 0xc9, 0x37, 0xf6, 0xbb, 0x26, 0x0e, 0x2d, 
	0xa9, 0x26, 0xfa, 0x0a, 0xb3, 0x0b, 0xb2, 0xed, 0xd0, 0x1f, 0xb1, 0xfb, 
	0xb2, 0xe5, 0x5a, 0xb2, 0x4f, 0x9b, 0x29, 0xd3, 0x96, 0xed, 0xc6, 0x3d, 
	0x1d, 0xc5, 0x01, 0xab, 0x8f, 0xaa, 0x50, 0x5a, 0x29, 0x00, 0xe7, 0x18, 
	0x33, 0x04, 0x31, 0x3b, 0x3b, 0xdc, 0x4a, 0xa8, 0x25, 0x38, 0x1e, 0x0d, 
	0x44, 0xd8, 0x32, 0xe4, 0x1c, 0x01, 0xc1, 0xcf, 0x34, 0xac, 0xba, 0xa7, 
	0xc3, 0x46, 0x3c, 0x00, 0xa9, 0xa9, 0x63, 0xa4, 0xe6, 0xb9, 0x3e, 0x3d, 
	0xd0, 0x28, 0x57, 0xf1, 0x42, 0x8a, 0x9a, 0x55, 0x50, 0x61, 0x2f, 0x57, 
	0x5f, 0x0e, 0x45, 0x01, 0xfc, 0x93, 0x53, 0x04, 0x20, 0xc8, 0x9b, 0x52, 
	0xdc, 0x5e, 0xf8, 0x0f, 0x03, 0x2e, 0x06, 0x2e, 0x10, 0x71, 0xcf, 0xce, 
	0xbf, 0xeb, 0xc1, 0x56, 0x5c, 0xb4, 0x37, 0xc7, 0xa2, 0xbb, 0xdb, 0xad, 
	0xef, 0xef, 0x19, 0x5b, 0x46, 0xd7, 0x9d, 0x5e, 0xb3, 0xd7, 0x96, 0xc1, 
	0xc0, 0x1b, 0xa1, 0xd0, 0x39, 0xc8, 0xa6, 0x23, 0xe3, 0x90, 0x42, 0x31, 
	0x4f, 0x05, 0xf8, 0xbc, 0x96, 0xa9, 0x25, 0x8e, 0xa0, 0x20, 0x41, 0xc8, 
	0x81, 0x5c, 0xfd, 0x43, 0xc4, 0xd8, 0xef, 0x16, 0xda, 0xd7, 0x95, 0x9a, 
	0xee, 0xdc, 0x36, 0x13, 0x23, 0x96, 0x30, 0xc3, 0xed, 0x29, 0xef, 0x62, 
	0xbd, 0x6a, 0x11, 0x0d, 0x0c, 0x56, 0x1b, 0x5e, 0xe0, 0x5a, 0xca, 0x5d, 
	0xda, 0xc5, 0xc4, 0x47, 0xaa, 0xc7, 0xd5, 0xea, 0x2f, 0x55, 0xe2, 0x26, 
	0x3e, 0xb7, 0x8d, 0x3a, 0x52, 0x57, 0x0d, 0x9b, 0x8e, 0x17, 0x6c, 0xf9, 
	0x38, 0x9b, 0x32, 0x4e, 0x02, 0x65, 0x54, 0x9c, 0x6a, 0x57, 0xd7, 0xda, 
	0x37, 0x30, 0x11, 0x2e, 0x37, 0x89, 0x23, 0xeb, 0x96, 0xe9, 0xd9, 0x41, 
	0x3f, 0x2d, 0xdd, 0x0d, 0xe3, 0xcb, 0x65, 0x2b, 0xed, 0xab, 0x54, 0x24, 
	0x5b, 0xa2, 0x9f, 0x9e, 0x32, 0xb0, 0x81, 0xf5, 0x41, 0x16, 0x48, 0x91, 
	0x65, 0xe4, 0xbe, 0x0a, 0x32, 0x4d, 0x50, 0xcf, 0xd2, 0xdb, 0xe5, 0x24, 
	0xc8, 0xb5, 0xe8, 0x13, 0x9f, 0x97, 0x3f, 0xf0, 0x01, 0xea, 0x5e, 0x1f, 
	0xec, 0xa8, 0x1e, 0xda, 0x89, 0x8e, 0xb9, 0xf0, 0x49, 0x31, 0x36, 0x92, 
	0x5a, 0x67, 0x88, 0x42, 0x3c, 0xda, 0xa0, 0xd7, 0xd1, 0x65, 0xd6, 0x89, 
	0x54, 0x8c, 0xaa, 0x58, 0xe1, 0x16, 0xd8, 0x4b, 0xf4, 0x71, 0xe2, 0xf2, 
	0x89, 0xcd, 0xbc, 0x88, 0x2d, 0x3e, 0x39, 0xd6, 0xc1, 0xd2, 0x6a, 0x4b, 
	0x3e, 0x49, 0x94, 0xe5, 0xf7, 0xb2, 0x45, 0x24, 0x17, 0xd4, 0xad, 0x24, 
	0x43, 0xd5, 0x52, 0xf9, 0xdb, 0xd6, 0xd0, 0xdd, 0x81, 0xaa, 0xd4, 0x3d, 
	0x04, 0xc0, 0x30, 0x2a, 0x29, 0xc1, 0x3a, 0xee, 0xdf, 0xc1, 0xfc, 0xcb, 
	0x3e, 0x1b, 0x92, 0xa6, 0xa0, 0xbf, 0x43, 0xcf, 0xd8, 0xf5, 0x22, 0xb7, 
	0xb2, 0xbf, 0x01, 0xc5, 0xa7, 0x41, 0xc4, 0x3f, 0xba, 0xf8, 0xaa, 0x3b, 
	0xd3, 0x08, 0x2a, 0xb7, 0x15, 0x03, 0xa2, 0x9e, 0x2b, 0x38, 0x26, 0xa8, 
	0x52, 0x3a, 0x30, 0xd7, 0x17, 0xb5, 0xad, 0x07, 0xa9, 0xb6, 0xc7, 0x2e, 
	0xbc, 0xac, 0x18, 0x30, 0x3e, 0xeb, 0x0e, 0xc5, 0xd2, 0x96, 0x11, 0x12, 
	0x44, 0x0d, 0x54, 0xf2, 0x86, 0xa2, 0x28, 0xea, 0x35, 0x5d, 0x0f, 0xed, 
	0x95, 0xb8, 0x1f, 0x51, 0x2f, 0xde, 0x19, 0x4c, 0xf0, 0x4e, 0xce, 0xf1, 
	0xf5, 0x08, 0xb3, 0xda, 0xc8, 0x05, 0x45, 0x3f, 0x58, 0x1c, 0x54, 0x1b, 
	0xa6, 0x1d, 0x4c, 0x25, 0x97, 0xae, 0x47, 0xf2, 0x17, 0x19, 0xaa, 0x9d, 
	0xbd, 0x26, 0xc7, 0x36, 0xe0, 0xdd, 0xd3, 0xde, 0xe3, 0x23, 0xfe, 0x4b, 
	0xd7, 0x39, 0x37, 0x03, 0xe4, 0xfd, 0xcf, 0x4b, 0x05, 0xaf, 0x0a, 0x14, 
	0x53, 0x03, 0xcc, 0x3d, 0x92, 0x3e, 0x39, 0x36, 0x51, 0xb8, 0xd5, 0x39, 
	0xb5, 0x24, 0x87, 0xe3, 0xef, 0x45, 0xdc, 0xbe, 0x33, 0x4b, 0x40, 0xd2, 
	0x2c, 0xdb, 0x64, 0xd4, 0xb6, 0x8c, 0xcc, 0x64, 0xd3, 0x51, 0xed, 0xfa, 
	0x99, 0x12, 0x8d, 0x59, 0x0d, 0xe3, 0x9a, 0xfb, 0x08, 0x2e, 0xdb, 0x93, 
	0x90, 0x7f, 0x06, 0x97, 0xa2, 0xbc, 0x21, 0xe8, 0x10, 0x09, 0xca, 0x41, 
	0xff, 0xa9, 0x92, 0xed, 0x55, 0xca, 0x72, 0x31, 0xb6, 0xd0, 0xcd, 0xca, 
	0xf3, 0x45, 0x42, 0xa5, 0xf5, 0x39, 0x16, 0x02, 0x48, 0x09, 0xe0, 0x35, 
	0xb1, 0xd4, 0x0c, 0xe0, 0x39, 0xb4, 0xb0, 0x49, 0xa5, 0x87, 0xfa, 0x46, 
	0x06, 0x72, 0xda, 0x91, 0xc1, 0x13, 0x10, 0x8c, 0x12, 0xfa, 0xca, 0x92, 
	0xf0, 0x08, 0x23, 0x87, 0x97, 0xc4, 0xa1, 0xea, 0x2d, 0xae, 0x58, 0x33, 
	0x67, 0x24, 0x00, 0xc5, 0xa0, 0x26, 0x9d, 0x38, 0x55, 0x4a, 0x13, 0xf7, 
	0x0c, 0xea, 0xad, 0x5f, 0x00, 0xde, 0xe4, 0x1c, 0xfa, 0xec, 0x8c, 0x9c, 
	0xc8, 0xc5, 0xdb, 0xec, 0xb0, 0x09, 0xa6, 0xa9, 0x13, 0xce, 0x24, 0xeb, 
	0xc0, 0xce, 0x56, 0xf8, 0xb3, 0xa3, 0x0a, 0xe9, 0xa1, 0x60, 0xa9, 0xd3, 
	0x12, 0x34, 0xf1, 0xed, 0xc6, 0xe7, 0xb6, 0xf5, 0x16, 0x2e, 0x94, 0xfa, 
	0xd3, 0xdc, 0x22, 0x5d, 0x60, 0xd9, 0x09, 0x13, 0x07, 0x2e, 0xc1, 0x51, 
	0xe8, 0x40, 0xe9, 0x1d, 0x3a, 0xf5, 0xe6, 0x9a, 0x8d, 0xd2, 0x31, 0x04, 
	0x3a, 0xfd, 0xcb, 0x54, 0xfb, 0x3b, 0xff, 0xbe, 0xa6, 0x18, 0xfa, 0x5a, 
	0x26, 0xe3, 0x10, 0x9b, 0xcb, 0x7f, 0xf1, 0x45, 0x01, 0x69, 0xfb, 0xbe, 
	0x9a, 0xb4, 0x71, 0x9c, 0x55, 0xf7, 0x4f, 0xf5, 0xf0, 0xc4, 0xfb, 0x50, 
	0x61, 0x4a, 0xb6, 0xbc, 0xce, 0x1b, 0x5c, 0x99, 0xad, 0x0f, 0x16, 0xe7, 
	0x2c, 0x34, 0xac, 0xad, 0xf9, 0xaa, 0x00, 0x2d, 0xeb, 0xec, 0x20, 0xa7, 
	0x61, 0x15, 0xa7, 0x9a, 0x4b, 0xf5, 0x15, 0x69, 0xce, 0xa0, 0xc3, 0x0f, 
	0xa2, 0x91, 0x65, 0x0c, 0xe9, 0x66, 0x6a, 0x15, 0xe7, 0xfb, 0xe4, 0x9c, 
	0xa3, 0xdc, 0xb1, 0xf8, 0x3e, 0x83, 0x8e, 0xf3, 0x8d, 0xab, 0x9c, 0x9c, 
	0x2b, 0x1e, 0xb9, 0xef, 0xbb, 0xce, 0xfe, 0xd5, 0x38, 0x13, 0x0b, 0xae, 
	0x21, 0xce, 0xeb, 0x8a, 0x11, 0x6a, 0xcb, 0xbe, 0xd0, 0xa9, 0x61, 0xa9, 
	0xaa, 0x14, 0xdd, 0xa2, 0xba, 0x4e, 0xb7, 0x49, 0xbb, 0x07, 0x50, 0xf5, 
	0xa1, 0xbe, 0x96, 0x14, 0xb0, 0xf5, 0x35, 0x5d, 0x69, 0x9d, 0x5d, 0x3c, 
	0x18, 0xed, 0x46, 0x3b, 0x15, 0x2c, 0xfb, 0xff, 0xad, 0x5c, 0x38, 0x71, 
	0x0b, 0xac, 0x5f, 0x54, 0xbc, 0xc0, 0x09, 0xe1, 0x40, 0x59, 0x39, 0x1c, 
	0x96, 0x25, 0x27, 0xb3, 0x0f, 0xbc, 0x88, 0x24, 0xbd, 0x65, 0xa8, 0xe2, 
	0x17, 0x08, 0xd9, 0x4e, 0xa3, 0x94, 0x5c, 0x06, 0x44, 0xc3, 0x4b, 0x41, 
	0xeb, 0xc8, 0xe9, 0xf4, 0xc8, 0xdc, 0xf1, 0x7b, 0xee, 0xd2, 0x4c, 0x4b, 
	0x01, 0xde, 0x81, 0xbb, 0xed, 0x3e, 0xd0, 0xb2, 0x3b, 0x48, 0xd0, 0xbf, 
	0xcc, 0xc1, 0x37, 0x18, 0xb6, 0x30, 0x1d, 0x42, 0xfa, 0xbc, 0x2f, 0xa6, 
	0xf8, 0x08, 0x0a, 0xdf, 0x4e, 0x4d, 0xcc, 0xd1, 0x1d, 0x53, 0xf2, 0x4c, 
	0xc3, 0x25, 0x1a, 0xce, 0x1a, 0x3b, 0xdb, 0xd2, 0xd9, 0x37, 0xe3, 0x4a, 
	0xfe, 0x32, 0xc8, 0xd3, 0x3e, 0xf0, 0xd0, 0xab, 0xb3, 0xae, 0xf2, 0x1a, 
	0x21, 0x2f, 0x51, 0x52, 0x57, 0xf9, 0x1b, 0xb2, 0xca, 0x27, 0x2e, 0xd8, 
	0xe0, 0xd5, 0xfd, 0x00, 0xb6, 0xcd, 0x0b, 0xa6, 0xcf, 0x20, 0xdb, 0xa3, 
	0xd9, 0xa9, 0xc2, 0x36, 0xad, 0x24, 0x01, 0x1b, 0xd9, 0xc5, 0xb4, 0xe9, 
	0xa8, 0xb1, 0x2c, 0xe3, 0xd7, 0x12, 0xfb, 0x20, 0x30, 0xc2, 0xe8, 0xf4, 
	0x8e, 0xd7, 0x28, 0xfd, 0xf5, 0x13, 0xf0, 0xf3, 0x21, 0xd8, 0xae, 0xe0, 
	0x5b, 0xbb, 0xe7, 0x18, 0x81, 0x14, 0xeb, 0x29, 0x13, 0xd2, 0x30, 0x4e, 
	0xcc, 0xfb, 0x27, 0x13, 0x12, 0x2f, 0x2c, 0x19, 0x15, 0x42, 0x4d, 0xf2, 
	0xd5, 0x22, 0x08, 0x09, 0x6a, 0xa0, 0x1b, 0x31, 0xf4, 0x0c, 0xb2, 0x10, 
	0x3f, 0xb7, 0xb8, 0xb0, 0x12, 0xf6, 0xab, 0xc0, 0xbe, 0xc7, 0xc5, 0x35, 
	0xc8, 0x3d, 0x9f, 0xc4, 0x3e, 0x34, 0xe9, 0x18, 0xad, 0x41, 0x9c, 0xc2, 
	0xdc, 0xb7, 0xd4, 0x50, 0x04, 0x24, 0xb6, 0x23, 0xbe, 0x30, 0x3c, 0x69, 
	0xd6, 0x58, 0xde, 0x1e, 0x2f, 0x03, 0xe3, 0xdc, 0x00, 0xed, 0xdf, 0x9f, 
	0x28, 0xdf, 0x3a, 0x1c, 0x83, 0x09, 0xbb, 0xe2, 0x5a, 0x82, 0xde, 0x1f, 
	0xb0, 0x20, 0x41, 0x08, 0x41, 0x5c, 0x1d, 0x22, 0xca, 0x86, 0xe3, 0x2a, 
	0xda, 0x30, 0x9b, 0xe1, 0xb7, 0x92, 0x9b, 0x28, 0xa6, 0x24, 0xda, 0x12, 
	0xb6, 0x4a, 0x8e, 0x3f, 0x94, 0x48, 0x54, 0xc1, 0x6b, 0x81, 0x27, 0x01, 
	0x94, 0x18, 0xf4, 0xef, 0xde, 0x65, 0xe8, 0xb3, 0xf7, 0xbd, 0xc7, 0x29, 
	0x5f, 0x9f, 0xa7, 0xd9, 0x38, 0xa9, 0x95, 0xe6, 0xa4, 0xc1, 0xc1, 0x41, 
	0xc7, 0x16, 0x15, 0xf5, 0xdc, 0xdf, 0x4c, 0xb9, 0x2c, 0xef, 0x87, 0x20, 
	0xc4, 0xaa, 0xe3, 0xb1, 0x81, 0x31, 0x02, 0x9f, 0xe2, 0xb2, 0x4c, 0xd2, 
	0x3e, 0x45, 0x36, 0x56, 0xeb, 0x1e, 0xd2, 0x3d, 0x92, 0x28, 0xcd, 0x00, 
	0x14, 0xca, 0xe9, 0xa1, 0x05, 0xc3, 0x00, 0xd9, 0xd2, 0x00, 0xcd, 0x21, 
	0x28, 0x42, 0x4f, 0x08, 0x35, 0x47, 0x42, 0xdc, 0xd7, 0xbc, 0x13, 0xe9, 
	0x2c, 0x5e, 0xda, 0xa4, 0x4a, 0xd3, 0xea, 0xa2, 0xa4, 0xf8, 0xc3, 0x9f, 
	0xa5, 0xea, 0x55, 0xfd, 0xd1, 0xfd, 0xd5, 0x28, 0xae, 0x0c, 0x0a, 0x4e, 
	0x0a, 0xba, 0x32, 0xe0, 0x9b, 0xa3, 0x01, 0xbf, 0x59, 0x12, 0x03, 0x01, 
	0xb6, 0xb1, 0x06, 0x1d, 0xa6, 0x60, 0xc5, 0x37, 0x2c, 0x9c, 0xa5, 0x5a, 
	0x3a, 0x4c, 0x0d, 0x32, 0xe6, 0x12, 0xa9, 0xca, 0x09, 0xf1, 0x2e, 0x14, 
	0xfb, 0x29, 0xbc, 0x0a, 0xa6, 0xb9, 0x52, 0x3c, 0xc3, 0x22, 0xf4, 0x14, 
	0xdc, 0xb1, 0xd7, 0xac, 0x06, 0xb7, 0xe0, 0x42, 0xc2, 0xaa, 0xf6, 0x03, 
	0x90, 0xd9, 0xfa, 0xf6, 0x16, 0x15, 0x5e, 0xdd, 0xb1, 0xfe, 0x01, 0xab, 
	0x5a, 0xaf, 0x39, 0xf3, 0x98, 0xc7, 0xae, 0x8c, 0x28, 0x17, 0x2e, 0x52, 
	0xac, 0xf9, 0xe0, 0x23, 0xf1, 0xe5, 0xcc, 0x94, 0x73, 0x36, 0x64, 0x76, 
	0x71, 0xfb, 0xeb, 0x26, 0x06, 0x28, 0x14, 0xec, 0x97, 0x74, 0x97, 0x67, 
	0x95, 0x19, 0x81, 0x66, 0x0c, 0xd3, 0xa6, 0x2d, 0x96, 0x17, 0xee, 0x2f, 
	0x27, 0xbc, 0xe0, 0x49, 0x2f, 0x56, 0x58, 0xe7, 0xdc, 0x79, 0x8f, 0x09, 
	0x4e, 0x86, 0xf2, 0xc5, 0xed, 0x97, 0x65, 0xb4, 0xd5, 0x35, 0x87, 0xff, 
	0x2b, 0xc3, 0x4a, 0x3d, 0x91, 0xb4, 0x32, 0x4f, 0x45, 0x2d, 0xca, 0xba, 
	0x3b, 0x61, 0xa3, 0x4c, 0x37, 0x00, 0xc5, 0xa0, 0x42, 0x4f, 0xa7, 0x53, 
	0xbb, 0x52, 0x01, 0x30, 0xd7, 0xbb, 0xa3, 0xca, 0xf2, 0x30, 0xfb, 0xaa, 
	0x92, 0xa0, 0x38, 0x0b, 0xdd, 0xac, 0x1c, 0x87, 0xbb, 0xe2, 0xe6, 0xbb, 
	0x28, 0x2d, 0x0b, 0x47, 0x40, 0x56, 0xb1, 0xd9, 0xfd, 0x25, 0xfb, 0x21, 
	0xa4, 0xcb, 0x09, 0xc7, 0x39, 0x34, 0x42, 0xb1, 0xe6, 0xa5, 0x06, 0x4a, 
	0xdb, 0x56, 0x99, 0xb6, 0x4e, 0xca, 0xa2, 0x0d, 0x72, 0xf6, 0x30, 0x6b, 
	0x48, 0xbb, 0x6d, 0x4c, 0xf5, 0x0e, 0x90, 0x85, 0xf0, 0x58, 0x10, 0x69, 
	0x34, 0x4f, 0xa9, 0xbd, 0xa8, 0x4b, 0x38, 0xc0, 0x3d, 0x36, 0x58, 0xad, 
	0xd5, 0x4f, 0x3f, 0x9d, 0x20, 0xe4, 0x55, 0x1c, 0x45, 0xa7, 0xb6, 0x0e, 
	0xab, 0xad, 0x8e, 0x3c, 0x4d, 0x41, 0xc8, 0xd8, 0x6b, 0xd4, 0x9f, 0x40, 
	0x41, 0x66, 0xde, 0xfc, 0x1c, 0x11, 0x99, 0x88, 0xe5, 0xc7, 0x28, 0x2f, 
	0xf2, 0xc0, 0xf1, 0xe1, 0x59, 0x63, 0x31, 0x67, 0xd5, 0x43, 0xac, 0xaf, 
	0xc4, 0x94, 0x85, 0xe7, 0xe3, 0x3c, 0x4b, 0xfe, 0xc1, 0x06, 0xc9, 0x24, 
	0x4e, 0xa2, 0x33, 0x9d, 0x33, 0x0b, 0xc4, 0x37, 0xb4, 0xf2, 0x9a, 0xbc, 
	0x28, 0xae, 0xde, 0x6d, 0x16, 0x34, 0x88, 0x23, 0x96, 0x1a, 0x39, 0x2c, 
	0x86, 0xb5, 0xb7, 0x59, 0xf3, 0xc7, 0x2f, 0x9e, 0x39, 0x81, 0x13, 0x10, 
	0xa8, 0x5c, 0x82, 0x1a, 0x0d, 0x92, 0x6e, 0xd1, 0xe6, 0x62, 0x88, 0xfe, 
	0xc4, 0x14, 0x3b, 0xe1, 0x3a, 0xec, 0x05, 0x7c, 0x36, 0xef, 0x02, 0xbf, 
	0xf7, 0x81, 0x43, 0xae, 0x04, 0xe8, 0xa9, 0x2c, 0xfb, 0x62, 0xe9, 0xe1, 
	0xd6, 0xfd, 0xf2, 0x38, 0xb3, 0x3e, 0x4e, 0x2d, 0x34, 0xe5, 0x99, 0xa5, 
	0x1b, 0x47, 0xf3, 0x23, 0xd2, 0xce, 0x20, 0xbc, 0x22, 0xee, 0xc6, 0x16, 
	0xa8, 0xa5, 0x98, 0x23, 0x3e, 0x01, 0xb6, 0x30, 0xf0, 0xd3, 0x30, 0xa2, 
	0x2b, 0x8f, 0x1d, 0xfe, 0xd9, 0xae, 0x59, 0x3a, 0x3c, 0xd5, 0xff, 0x00, 
	0xac, 0x0b, 0x43, 0x3c, 0x03, 0xd5, 0x38, 0xe2, 0xad, 0xcf, 0xeb, 0xc3, 
	0xc6, 0x3e, 0xea, 0xbf, 0x05, 0x44, 0xa7, 0xb7, 0xf7, 0xb9, 0xb9, 0xc8, 
	0x24, 0x91, 0xec, 0x3c, 0xfd, 0x00, 0xc4, 0x21, 0xf1, 0xc2, 0x44, 0xb0, 
	0xba, 0xc1, 0xc4, 0x37, 0xb5, 0xa1, 0x50, 0xf2, 0x7d, 0x1d, 0x3c, 0x3e, 
	0xa9, 0xef, 0x17, 0x53, 0xdd, 0xb4, 0xc4, 0xb2, 0x59, 0x3c, 0x24, 0xe0, 
	0x47, 0x6e, 0xd1, 0xda, 0x4d, 0x38, 0x0d, 0x3b, 0xf9, 0xf3, 0x1b, 0xcb, 
	0xcb, 0xaa, 0xd2, 0xf4, 0xff, 0x45, 0xc7, 0x60, 0x32, 0x02, 0xc7, 0x91, 
	0x3e, 0x19, 0xf0, 0x07, 0x8a, 0x28, 0xb7, 0x9e, 0xb2, 0x60, 0x94, 0xdf, 
	0xb4, 0x2f, 0x95, 0x41, 0xcc, 0x31, 0xcf, 0x64, 0xb3, 0x45, 0x2a, 0x15, 
	0xb1, 0x6d, 0x61, 0xdd, 0x69, 0xa4, 0xb0, 0x08, 0x27, 0x87, 0xdb, 0x36, 
	0x4d, 0x25, 0x11, 0x07, 0xad, 0xef, 0xe2, 0x9b, 0xc1, 0xba, 0x92, 0x20, 
	0x69, 0x56, 0x25, 0x1b, 0xbc, 0x4f, 0xb2, 0xed, 0xde, 0xeb, 0x69, 0xf3, 
	0xd7, 0x46, 0x5d, 0x9c, 0xdd, 0x57, 0x06, 0x2f, 0x94, 0x05, 0x17, 0xab, 
	0xee, 0x91, 0x88, 0xeb, 0xd9, 0xb2, 0x29, 0xb3, 0xff, 0x5d, 0x5b, 0xf2, 
	0x08, 0x9c, 0x16, 0xa3, 0x67, 0x33, 0xdf, 0x20, 0xab, 0xed, 0x67, 0x18, 
	0x57, 0x8e, 0x3c, 0x62, 0x62, 0x57, 0xe6, 0x0f, 0xd7, 0xcd, 0xb6, 0xba, 
	0x25, 0x9c, 0xe3, 0x3f, 0x8f, 0xec, 0x71, 0x43, 0x3e, 0x0c, 0x33, 0x61, 
	0x25, 0x9c, 0x36, 0x2d, 0xcb, 0xff, 0x98, 0x02, 0xa7, 0x81, 0xe4, 0x3e, 
	0x0e, 0x24, 0x8e, 0x69, 0xf8, 0x37, 0xdc, 0xe8, 0xf4, 0x2c, 0x63, 0xbb, 
	0x18, 0x50, 0x2f, 0x64, 0x49, 0xd8, 0x3c, 0x97, 0xa9, 0x41, 0x8e, 0x0e, 
	0xff, 0xd0, 0xbc, 0xad, 0xc4, 0x81, 0xf8, 0x4f, 0x10, 0x62, 0x8c, 0x41, 
	0x6f, 0x51, 0x81, 0xd3, 0x0a, 0x5b, 0x57, 0xb0, 0x2b, 0xe7, 0xbf, 0xeb, 
	0xc1, 0xea, 0xe0, 0xab, 0xa7, 0x4a, 0x18, 0xcc, 0x03, 0xb1, 0xed, 0xfc, 
	0xa7, 0x59, 0x1c, 0x27, 0x9d, 0xb3, 0x51, 0x9b, 0xe9, 0x35, 0xc3, 0x51, 
	0xfe, 0x70, 0x0d, 0x67, 0x30, 0x48, 0xf2, 0xf8, 0xf4, 0xae, 0xd4, 0xdb, 
	0x1f, 0x09, 0xba, 0x61, 0x0c, 0xd8, 0x9d, 0xfe, 0x87, 0x13, 0xdd, 0x01, 
	0xe6, 0xff, 0x1b, 0xd9, 0x32, 0x43, 0x1d, 0x11, 0x5d, 0xab, 0xbd, 0xeb, 
	0x40, 0x5e, 0x47, 0xa9, 0x43, 0xe4, 0xcf, 0x9c, 0xcb, 0x25, 0x1b, 0x0e, 
	0x4d, 0xe1, 0x58, 0x67, 0x1a, 0xb3, 0x12, 0xd0, 0x39, 0xc5, 0xed, 0xd3, 
	0xd7, 0x12, 0xe9, 0x2e, 0xe5, 0xc1, 0xf8, 0x55, 0xc2, 0x9f, 0xa0, 0x0d, 
	0x20, 0xa8, 0xda, 0x3f, 0xc1, 0xe6, 0x4e, 0xcf, 0xc0, 0x36, 0x9e, 0xb3, 
	0x03, 0x81, 0xd0, 0xc9, 0x36, 0x42, 0xff, 0x0e, 0x18, 0xfb, 0x34, 0xb0, 
	0xd6, 0x10, 0x24, 0xaa, 0xbf, 0x4a, 0x15, 0x1f, 0xa2, 0x26, 0x52, 0xe1, 
	0x3e, 0x44, 0x8e, 0xdc, 0x03, 0xee, 0x1d, 0x6a, 0x21, 0xcb, 0xcc, 0xbd, 
	0xf2, 0x27, 0xa9, 0xc6, 0xa9, 0x7c, 0x03, 0x3a, 0x2b, 0x26, 0x71, 0xeb, 
	0xb9, 0x4f, 0x3e, 0x0d, 0xd8, 0xa0, 0x06, 0xe1, 0xf5, 0xd9, 0xcb, 0x3d, 
	0x4c, 0xf0, 0xac, 0xe8, 0x21, 0xce, 0x3d, 0xd4, 0x13, 0x29, 0x03, 0xb6, 
	0x73, 0x09, 0xf3, 0xcd, 0xb9, 0xaa, 0x05, 0x95, 0x41, 0xe0, 0x35, 0xa9, 
	0xc8, 0xb5, 0x02, 0xad, 0xf7, 0xe6, 0x01, 0x66, 0x11, 0xab, 0xe9, 0x0a, 
	0x46, 0x88, 0x6e, 0x5f, 0xca, 0x48, 0xd7, 0x8f, 0x5d, 0xa5, 0x2f, 0x03, 
	0x67, 0x9e, 0x1c, 0x0c, 0x8f, 0xeb, 0x59, 0x1b, 0xe2, 0xac, 0xf5, 0xa4, 
	0xcd, 0x9c, 0xdc, 0x39, 0xab, 0x3b, 0x9c, 0xd7, 0x4d, 0xde, 0xa5, 0x39, 
	0x46, 0x54, 0xdf, 0x1d, 0xab, 0x39, 0x20, 0x4b, 0xc2, 0x06, 0x10, 0xda, 
	0x9a, 0x11, 0xb9, 0x21, 0x44, 0x45, 0x60, 0x58, 0x03, 0x11, 0x56, 0xff, 
	0xc2, 0x3d, 0x62, 0x43, 0x2a, 0x85, 0x0d, 0x8b, 0xe9, 0x62, 0xd0, 0xdf, 
	0x10, 0xf7, 0x82, 0xc4, 0xf3, 0xa1, 0xb5, 0xe3, 0xfb, 0x81, 0x5d, 0xf0, 
	0x63, 0xaa, 0x55, 0x28, 0x86, 0xdc, 0x90, 0x8d, 0x55, 0x3a, 0x58, 0x01, 
	0xca, 0x0f, 0xe0, 0xd4, 0xb2, 0xaa, 0x42, 0xdd, 0x16, 0x24, 0xbc, 0x2f, 
	0x58, 0x9d, 0xf4, 0x37, 0x02, 0x92, 0xcf, 0x8f, 0xd2, 0x24, 0x22, 0xb8, 
	0xda, 0xe8, 0x1e, 0x3f, 0xd9, 0x0f, 0xd5, 0xef, 0x18, 0xab, 0x5e, 0x5a, 
	0x5d, 0xbd, 0x1e, 0xa0, 0x1c, 0x9e, 0xcc, 0xcf, 0xd5, 0xcc, 0xf8, 0x57, 
	0xbf, 0xce, 0x9b, 0xba, 0x1a, 0x16, 0xd0, 0x11, 0x05, 0xfa, 0x39, 0x57, 
	0x0f, 0xff, 0xcc, 0xfb, 0x50, 0x8b, 0x58, 0x12, 0x02, 0xb7, 0x47, 0x34, 
	0x9e, 0x0e, 0xd7, 0xd6, 0x61, 0xdd, 0x72, 0xf8, 0xd9, 0x30, 0x5e, 0x6b, 
	0xf2, 0x4e, 0xeb, 0xf6, 0xe5, 0xc1, 0xe2, 0x5a, 0xf7, 0x2f, 0xaa, 0x46, 
	0xc4, 0xb8, 0x5e, 0x5e, 0xe4, 0x57, 0x87, 0x30, 0xe2, 0x41, 0xa1, 0x67, 
	0xc9, 0x8b, 0x6e, 0xf6, 0x94, 0x5d, 0xb1, 0xcb, 0xd8, 0x1a, 0x36, 0x28, 
	0x1c, 0x97, 0xb1, 0x32, 0xaf, 0xcf, 0xf3, 0x2a, 0x01, 0x0e, 0xa6, 0x92, 
	0x3a, 0x28, 0xde, 0xc5, 0xd5, 0x7f, 0xe4, 0x0f, 0xe4, 0xa3, 0xf8, 0x20, 
	0x43, 0xd1, 0x3f, 0x44, 0x71, 0x52, 0x83, 0x82, 0xcd, 0x25, 0x30, 0xad, 
	0x86, 0xa2, 0x64, 0x58, 0xff, 0x99, 0x4f, 0xfb, 0xba, 0xc5, 0x1a, 0x00, 
	0x1c, 0xe7, 0x48, 0x9a, 0x42, 0x56, 0x5a, 0x8d, 0xb4, 0xf8, 0x34, 0x4d, 
	0x3e, 0x97, 0x99, 0xbb, 0x9d, 0x50, 0x87, 0x95, 0x35, 0x1a, 0x14, 0x40, 
	0xc2, 0x54, 0x82, 0x3d, 0x42, 0x0a, 0x9b, 0x1e, 0x4d, 0x4f, 0xcc, 0xfd, 
	0xef, 0x42, 0x96, 0xfa, 0xaf, 0x0b, 0x6d, 0xb9, 0xbb, 0x42, 0xe9, 0x9a, 
	0x3d, 0x7a, 0x62, 0x7a, 0x57, 0x13, 0x63, 0x30, 0x1c, 0xfd, 0xfb, 0x15, 
	0x6f, 0xb0, 0xd5, 0x4c, 0x3c, 0x1c, 0x50, 0xe7, 0x2d, 0x7f, 0x95, 0xd6, 
	0xa8, 0xca, 0xd3, 0xec, 0xf2, 0x40, 0xe6, 0xc6, 0x43, 0x69, 0x30, 0x4f, 
	0xca, 0x9c, 0x31, 0xed, 0xa5, 0xcf, 0xea, 0xc2, 0xcc, 0x38, 0xc9, 0x1c, 
	0xe5, 0x02, 0x06, 0x18, 0xed, 0xf4, 0xb6, 0x14, 0x33, 0x22, 0x4b, 0x3b, 
	0xc7, 0xcd, 0xd0, 0x23, 0x6b, 0xb6, 0xf8, 0x1b, 0x34, 0xce, 0xea, 0x52, 
	0x43, 0xac, 0x07, 0xe6, 0xf9, 0x44, 0xb5, 0xe6, 0xcd, 0x51, 0xfa, 0xc8, 
	0xe0, 0xdd, 0xd1, 0x1c, 0xd8, 0xb8, 0xba, 0xdf, 0x13, 0x05, 0x23, 0x31, 
	0xdd, 0xf2, 0xc9, 0x2f, 0x31, 0x57, 0x3b, 0x38, 0xda, 0xdb, 0xc5, 0xe5, 
	0x2a, 0x21, 0x3c, 0xdb, 0xb5, 0x43, 0x56, 0xf8, 0xdf, 0xe3, 0xa9, 0xda, 
	0x26, 0x0b, 0x43, 0x23, 0x0a, 0xaa, 0xc3, 0x29, 0x41, 0xcf, 0x34, 0xf9, 
	0x12, 0x0f, 0xc1, 0x3e, 0x30, 0xec, 0xe3, 0xee, 0x10, 0x11, 0x0e, 0xba, 
	0x52, 0xee, 0x02, 0x44, 0xbf, 0x29, 0x31, 0xd4, 0x99, 0xb6, 0x39, 0xa1, 
	0x39, 0x0d, 0xda, 0x25, 0xfb, 0xd4, 0x4f, 0xff, 0xa6, 0x41, 0x13, 0xb6, 
	0x15, 0x2c, 0x35, 0xe9, 0x29, 0xda, 0xba, 0x46, 0xe0, 0x03, 0xbc, 0xd9, 
	0x44, 0xc3, 0x27, 0xb2, 0xbe, 0xe4, 0xf5, 0xad, 0xc9, 0x1b, 0x34, 0xf2, 
	0x9b, 0xdf, 0x32, 0x00, 0xab, 0xbd, 0x25, 0x52, 0xab, 0xdb, 0x30, 0xc8, 
	0x9e, 0x05, 0xd1, 0x05, 0xe0, 0x3a, 0xcb, 0xdd, 0x1b, 0x0d, 0x1a, 0xb6, 
	0x3a, 0x23, 0x36, 0xc9, 0xc9, 0xea, 0x4c, 0xec, 0x16, 0xbc, 0xef, 0xc2, 
	0x22, 0x40, 0x1e, 0xad, 0xa1, 0x16, 0x0f, 0xad, 0xfe, 0x20, 0xda, 0x4b, 
	0x47, 0xd4, 0xd9, 0x51, 0xb6, 0xb5, 0xf3, 0x3a, 0x20, 0x09, 0xfa, 0x99, 
	0xd0, 0x49, 0x3a, 0xd3, 0x81, 0xb8, 0x98, 0x0e, 0xd4, 0x98, 0xd9, 0xb5, 
	0xb4, 0x49, 0xd5, 0x45, 0xb2, 0xfa, 0xff, 0xd8, 0xb2, 0x47, 0x18, 0xde, 
	0xf5, 0x0f, 0x22, 0xf8, 0x35, 0xaa, 0x3d, 0xab, 0xa0, 0x25, 0xb7, 0xbe, 
	0xc8, 0xba, 0x0b, 0x57, 0x57, 0xc0, 0xc1, 0x15, 0xcc, 0xeb, 0x15, 0x2a, 
	0xda, 0xf8, 0xf4, 0x4a, 0xea, 0xa0, 0xcc, 0x4b, 0xc5, 0x4f, 0x22, 0x0a, 
	0x98, 0x92, 0x9b, 0x09, 0xbd, 0xcf, 0xa7, 0xfa, 0x1b, 0x2b, 0xc0, 0x21, 
	0xf1, 0x01, 0x22, 0xd1, 0x2d, 0xf1, 0x3f, 0x0d, 0x21, 0x27, 0xd9, 0xe7, 
	0x3c, 0xc3, 0xbc, 0xd5, 0x9d, 0x12, 0xf9, 0x04, 0x01, 0xd9, 0x59, 0xb1, 
	0xe6, 0x1c, 0x37, 0xcb, 0x4d, 0xc5, 0x4e, 0x65, 0xb6, 0xd1, 0xac, 0xff, 
	0xf8, 0x24, 0xa1, 0xfd, 0xae, 0xe1, 0x44, 0xf3, 0x2d, 0xf2, 0xce, 0xdf, 
	0x4d, 0x1e, 0xc8, 0xc7, 0xf2, 0xa3, 0x0b, 0x3a, 0xe1, 0xda, 0xc9, 0x03, 
	0xaf, 0x56, 0x4b, 0xff, 0xd1, 0x61, 0x0e, 0xff, 0xea, 0x47, 0xfa, 0x02, 
	0xf1, 0xd6, 0x30, 0x20, 0xe3, 0xc7, 0x4b, 0xa8, 0x3a, 0xcc, 0x11, 0xe9, 
	0x0c, 0x06, 0xe4, 0xe2, 0x51, 0xfc, 0x3e, 0x55, 0x49, 0xed, 0x0d, 0x7f, 
	0x30, 0x65, 0x4c, 0x4f, 0x27, 0x42, 0xe0, 0xef, 0xe0, 0xc4, 0xfa, 0xe8, 
	0x39, 0x4b, 0xbd, 0xed, 0x2d, 0x4c, 0x4d, 0x26, 0xac, 0x0d, 0x08, 0xf6, 
	0xa9, 0xb4, 0x34, 0xab, 0x60, 0x05, 0x0f, 0x60, 0xc9, 0x0c, 0xb9, 0xd4, 
	0xee, 0xb6, 0xf4, 0x96, 0x93, 0x19, 0x26, 0xe3, 0xb9, 0xdd, 0xbd, 0xb8, 
	0xe2, 0x38, 0x37, 0x1e, 0x24, 0x90, 0x12, 0xd2, 0x2e, 0x41, 0xc8, 0xeb, 
	0x7a, 0xd7, 0xfc, 0x5f, 0x0b, 0x51, 0x4b, 0x15, 0xff, 0xb3, 0xd0, 0x39, 
	0xdd, 0x5c, 0x22, 0x40, 0x16, 0x41, 0xd8, 0xb2, 0xb0, 0x13, 0xbf, 0xc1, 
	0x1e, 0xa9, 0x86, 0x33, 0x3d, 0x24, 0xed, 0xfe, 0x1a, 0x93, 0xc8, 0xda, 
	0xd6, 0xf5, 0xad, 0x42, 0xb6, 0xcc, 0xd7, 0x6d, 0xd6, 0x5b, 0xcd, 0x2b, 
	0xac, 0xfa, 0x3b, 0x5a, 0xa9, 0x03, 0x34, 0x52, 0xd8, 0x96, 0xc2, 0xdf, 
	0xa5, 0xe5, 0xc3, 0x18, 0xa6, 0xf8, 0x28, 0x73, 0x35, 0x39, 0xaa, 0x99, 
	0x9c, 0x3b, 0xe6, 0x99, 0x00, 0x5a, 0x16, 0x86, 0xfe, 0x1c, 0x81, 0x66, 
	0x9a, 0x73, 0x4b, 0xb3, 0x11, 0x82, 0xc3, 0x92, 0x8c, 0x61, 0xc8, 0x48, 
	0x71, 0xd1, 0x2f, 0x38, 0xee, 0xe6, 0x12, 0x49, 0x44, 0x2d, 0x69, 0xa7, 
	0xd3, 0x0d, 0x5d, 0xbe, 0x5e, 0xb3, 0x49, 0x70, 0x3d, 0x1f, 0x76, 0x31, 
	0xea, 0x1a, 0x24, 0xcb, 0xcb, 0xa9, 0xbe, 0x2c, 0xd9, 0x9b, 0xe5, 0x25, 
	0x4e, 0x5a, 0xb7, 0x11, 0x95, 0xa6, 0xf2, 0x26, 0x84, 0x43, 0xe2, 0x9b, 
	0xa2, 0x53, 0x36, 0xe6, 0x0d, 0xbb, 0x54, 0xbb, 0x2d, 0xd7, 0xc2, 0xc2, 
	0x35, 0x4d, 0x68, 0x58, 0xea, 0x24, 0x8c, 0x59, 0x2c, 0x1d, 0x31, 0x39, 
	0x47, 0x42, 0xc6, 0x48, 0x33, 0x9f, 0xd1, 0x9a, 0x48, 0xb0, 0xb8, 0x70, 
	0x38, 0x16, 0x72, 0xa7, 0xe5, 0x24, 0x5c, 0xba, 0x15, 0xc8, 0x2d, 0x5e, 
	0x9c, 0x01, 0xa1, 0x43, 0xdb, 0x5e, 0xbb, 0x3d, 0x1c, 0x12, 0x56, 0x9a, 
	0xe8, 0x2d, 0x9b, 0x66, 0xf5, 0xa1, 0x8a, 0xe3, 0xa9, 0x07, 0x99, 0x02, 
	0xfa, 0x0b, 0x47, 0x1e, 0x9a, 0xf8, 0xef, 0x95, 0x95, 0x32, 0x10, 0x32, 
	0x3e, 0xde, 0x45, 0xeb, 0x3e, 0xfb, 0xbb, 0xb2, 0xf9, 0x4c, 0xba, 0x06, 
	0xb8, 0xb1, 0xa4, 0x4e, 0x13, 0xb4, 0x81, 0xcb, 0xbd, 0xfa, 0xc3, 0x55, 
	0xf1, 0xeb, 0x6c, 0xca, 0x3e, 0xea, 0xff, 0xff, 0x04, 0x00, 0x00, 0x00, 
	0x60, 0x00, 0x00, 0x00, 0xd0, 0xff, 0xff, 0xff, 0xc2, 0xff, 0xff, 0xff, 
	0xdd, 0xff, 0xff, 0xff, 0xee, 0xff, 0xff, 0xff, 0xd2, 0xff, 0xff, 0xff, 
	0xdc, 0xff, 0xff, 0xff, 0xf2, 0xff, 0xff, 0xff, 0xe4, 0xff, 0xff, 0xff, 
	0xe4, 0xff, 0xff, 0xff, 0xea, 0xff, 0xff, 0xff, 0xf6, 0xff, 0xff, 0xff, 
	0xe7, 0xff, 0xff, 0xff, 0xec, 0xff, 0xff, 0xff, 0x0d, 0x00, 0x00, 0x00, 
	0xd1, 0xff, 0xff, 0xff, 0xf2, 0xff, 0xff, 0xff, 0x01, 0x00, 0x00, 0x00, 
	0xc0, 0xff, 0xff, 0xff, 0xdb, 0xff, 0xff, 0xff, 0x51, 0x00, 0x00, 0x00, 
	0xc0, 0xff, 0xff, 0xff, 0xa4, 0x00, 0x00, 0x00, 0x43, 0x00, 0x00, 0x00, 
	0xed, 0xff, 0xff, 0xff, 0xaa, 0xea, 0xff, 0xff, 0x04, 0x00, 0x00, 0x00, 
	0x18, 0x15, 0x00, 0x00, 0xe5, 0x15, 0x09, 0x14, 0xdd, 0xe4, 0x2d, 0x30, 
	0xed, 0xf2, 0x2c, 0xd8, 0x14, 0xfe, 0x0d, 0xff, 0x04, 0x14, 0xd6, 0xf8, 
	0xd6, 0xe6, 0xe9, 0xe6, 0xe6, 0xe8, 0x01, 0xe8, 0x32, 0xda, 0xd3, 0x23, 
	0x2d, 0xf1, 0xed, 0xcb, 0xd7, 0xe4, 0xd5, 0xe1, 0xf4, 0x0d, 0x25, 0x12, 
	0xf6, 0xdd, 0x25, 0xbf, 0xf3, 0x0a, 0xd7, 0xfb, 0x17, 0xff, 0x0f, 0x16, 
	0x1f, 0xd6, 0x17, 0xe6, 0x11, 0x28, 0xfa, 0xf6, 0x0a, 0xf7, 0x27, 0x18, 
	0x12, 0x24, 0x1d, 0xf2, 0x17, 0xfd, 0x14, 0x20, 0xfc, 0x22, 0x10, 0xde, 
	0x12, 0xe7, 0x2d, 0xdb, 0xfe, 0xdb, 0xf8, 0xec, 0x03, 0xd2, 0x16, 0x11, 
	0xf5, 0xfb, 0x2a, 0xce, 0xcf, 0xfc, 0xd0, 0xe4, 0x2e, 0xfa, 0xe9, 0xe4, 
	0x00, 0xe7, 0x24, 0x13, 0x03, 0x09, 0xd3, 0xea, 0x11, 0xd0, 0xfd, 0xe7, 
	0x1f, 0xfe, 0x1e, 0xd7, 0xef, 0xf1, 0x14, 0xd6, 0x07, 0x0a, 0x15, 0x12, 
	0x06, 0x0d, 0x1f, 0xe8, 0xd5, 0xf5, 0xcf, 0x15, 0x26, 0x05, 0xf5, 0x2a, 
	0x25, 0xf0, 0x0c, 0xfc, 0x11, 0xf9, 0xd4, 0xcb, 0xe0, 0x15, 0x26, 0x22, 
	0x13, 0xdf, 0x11, 0x03, 0xf4, 0x05, 0xfa, 0x05, 0xfa, 0xda, 0x0e, 0x12, 
	0xd3, 0x07, 0x09, 0xdb, 0x39, 0xfa, 0xd2, 0x17, 0x07, 0x1d, 0x21, 0x16, 
	0xfb, 0xef, 0x10, 0xf2, 0x01, 0x03, 0x20, 0x33, 0x0f, 0xe1, 0x28, 0x0d, 
	0x1d, 0x53, 0x15, 0x0f, 0x16, 0xd2, 0x24, 0x2f, 0x14, 0x2f, 0x26, 0x04, 
	0x28, 0x20, 0xd2, 0xdb, 0x05, 0x0b, 0xd6, 0xd3, 0x2c, 0x0b, 0x2d, 0xde, 
	0xcc, 0x08, 0x26, 0xf5, 0xd0, 0x1e, 0x1c, 0x15, 0x23, 0x13, 0xf0, 0x25, 
	0xf9, 0x33, 0x0b, 0xf2, 0x1b, 0xcc, 0x0e, 0xd1, 0x25, 0x12, 0xfc, 0x04, 
	0x2d, 0xf5, 0x04, 0x19, 0x26, 0x0f, 0x2b, 0xcc, 0x1b, 0xec, 0x2a, 0xdc, 
	0x13, 0xdb, 0xe0, 0xc8, 0x14, 0xfb, 0xca, 0xd0, 0xcd, 0x1b, 0x1d, 0xec, 
	0x1c, 0x17, 0xe2, 0xd2, 0x23, 0xda, 0x03, 0x29, 0xed, 0x26, 0x10, 0xdf, 
	0x1f, 0xfa, 0xfa, 0x2c, 0xff, 0xea, 0x22, 0xe2, 0xde, 0xed, 0x05, 0x13, 
	0x09, 0xe8, 0x1f, 0x29, 0xf0, 0xec, 0xe7, 0xe5, 0xe4, 0xd0, 0x19, 0x16, 
	0xe2, 0x15, 0xea, 0xcb, 0x07, 0xe7, 0xe2, 0xee, 0xe1, 0xde, 0x23, 0x21, 
	0xea, 0x13, 0xca, 0x0d, 0x1d, 0xe1, 0x0d, 0x05, 0xde, 0xfd, 0xe6, 0x01, 
	0x07, 0x06, 0xfc, 0x09, 0x25, 0xd2, 0xe4, 0xd0, 0x19, 0xfd, 0xf6, 0x0f, 
	0xe1, 0x16, 0x0e, 0x27, 0x08, 0xfe, 0xef, 0xf9, 0xff, 0xe5, 0xfe, 0xe1, 
	0x2b, 0xe6, 0xd0, 0xdb, 0x1c, 0x10, 0x03, 0xda, 0x0e, 0xf4, 0xd7, 0xc8, 
	0x17, 0xfd, 0x1f, 0xb9, 0x0f, 0xee, 0x0a, 0x22, 0x1c, 0x09, 0x25, 0xff, 
	0xce, 0xc6, 0xf2, 0xcd, 0xf8, 0xed, 0xef, 0x0e, 0xff, 0x2d, 0xcf, 0x04, 
	0x02, 0xd2, 0xf9, 0xd1, 0x11, 0x08, 0xdc, 0x28, 0xee, 0xd4, 0xdc, 0x33, 
	0xcf, 0xda, 0x35, 0xd9, 0x2c, 0xcc, 0x16, 0xd7, 0xed, 0xe4, 0xe8, 0xf1, 
	0xdd, 0xd7, 0xc1, 0xe9, 0xeb, 0x2b, 0x24, 0x06, 0x26, 0xf5, 0xe1, 0xd6, 
	0xea, 0x00, 0x06, 0xd7, 0xdf, 0x26, 0xdc, 0x22, 0x28, 0xea, 0xfc, 0xfa, 
	0xcd, 0xbe, 0xd8, 0xf2, 0x13, 0x10, 0xec, 0xdf, 0xe1, 0x20, 0xe2, 0xe8, 
	0xfd, 0x06, 0xd7, 0xe7, 0xe3, 0xc5, 0x05, 0xdb, 0xdf, 0xf0, 0xd2, 0xe0, 
	0xf4, 0xa2, 0xf2, 0xce, 0x17, 0xf8, 0xe6, 0x1f, 0xd3, 0x13, 0xf2, 0xfb, 
	0xe7, 0x0d, 0x1b, 0xe2, 0xeb, 0xdb, 0xf6, 0x13, 0xf4, 0xe1, 0x05, 0x05, 
	0xd6, 0xcf, 0x0b, 0xd2, 0x1c, 0x29, 0x21, 0xec, 0xeb, 0x0c, 0x25, 0xfd, 
	0x0a, 0xf0, 0x2c, 0x1e, 0x0a, 0xac, 0xd7, 0xe7, 0xaf, 0xee, 0x05, 0xe5, 
	0x19, 0xa3, 0x12, 0xe0, 0x29, 0xfd, 0xfc, 0x25, 0xfb, 0x2a, 0xdf, 0x2f, 
	0xf9, 0xff, 0xde, 0xe4, 0xe0, 0x11, 0xcf, 0x0c, 0xfb, 0x24, 0xd8, 0xc4, 
	0xec, 0xcf, 0xcd, 0x0c, 0x1e, 0x08, 0x2e, 0xd1, 0xdc, 0xe5, 0xe8, 0xfe, 
	0xf9, 0x2b, 0xdd, 0x23, 0xe6, 0xea, 0xd7, 0x23, 0xc6, 0x03, 0x1c, 0xd1, 
	0x19, 0xbb, 0xc5, 0xe1, 0xce, 0x2c, 0x0c, 0x0b, 0x30, 0x29, 0x35, 0xdb, 
	0xe7, 0x1a, 0x15, 0xe4, 0xf7, 0xb6, 0xc5, 0x05, 0xd9, 0x27, 0xe5, 0xb1, 
	0xf8, 0xd3, 0xe8, 0xd5, 0xf9, 0x30, 0xe5, 0x02, 0x1a, 0xed, 0xf3, 0xd2, 
	0xda, 0x15, 0x1c, 0xd5, 0x15, 0xf8, 0xf5, 0xdc, 0x02, 0xfb, 0x01, 0xed, 
	0xe8, 0xd8, 0x08, 0xe1, 0xe6, 0xdf, 0x1d, 0x14, 0x22, 0x28, 0xe2, 0x02, 
	0x25, 0x18, 0xe1, 0xfd, 0x14, 0x10, 0xd7, 0x1f, 0x03, 0x2e, 0x13, 0xf7, 
	0xed, 0xf6, 0x07, 0xdc, 0xf5, 0xf7, 0xe5, 0xf9, 0x20, 0xe8, 0x0f, 0x13, 
	0x1f, 0x05, 0x03, 0x0d, 0x2e, 0xf0, 0xe0, 0xe9, 0xf0, 0x2c, 0xf7, 0xfa, 
	0x0f, 0xe1, 0x16, 0x26, 0xd9, 0xe0, 0xf3, 0xf2, 0x0e, 0xfd, 0x02, 0x03, 
	0xfe, 0xe0, 0x2d, 0xfe, 0xf9, 0x04, 0x09, 0xfd, 0xee, 0xd5, 0xd5, 0xf9, 
	0xd1, 0xcf, 0xdd, 0x15, 0xe4, 0xf1, 0xec, 0xf2, 0x28, 0xee, 0xf0, 0xe4, 
	0xe3, 0xfb, 0x1d, 0xfc, 0x30, 0xf1, 0xf1, 0x1b, 0xf5, 0xce, 0x0a, 0x15, 
	0x01, 0xd9, 0xe4, 0xf4, 0x0d, 0x21, 0x0d, 0x28, 0x24, 0xe5, 0xe9, 0xd6, 
	0x32, 0xfd, 0x26, 0x21, 0x21, 0xe9, 0xfe, 0x26, 0xf9, 0xd7, 0xe2, 0x16, 
	0xf4, 0x19, 0x2a, 0xcf, 0x1d, 0x01, 0x0d, 0xeb, 0xef, 0xe7, 0x19, 0x26, 
	0xe2, 0xe2, 0x02, 0xfc, 0xfc, 0xfa, 0x06, 0x07, 0xfc, 0x1e, 0xde, 0x2a, 
	0xe6, 0xf9, 0xf7, 0xc4, 0xe5, 0x10, 0x11, 0x22, 0xfa, 0xda, 0x12, 0x26, 
	0xdf, 0xfa, 0x0e, 0x07, 0x12, 0xfd, 0x00, 0xed, 0x1a, 0x0e, 0xdf, 0x04, 
	0xe3, 0xf8, 0xd6, 0xe5, 0xf4, 0xf3, 0x25, 0xd8, 0x24, 0x2d, 0x1d, 0xfe, 
	0x26, 0xf0, 0x23, 0x16, 0x2f, 0xfa, 0xfb, 0xe9, 0x16, 0xea, 0x18, 0x05, 
	0xd1, 0x01, 0x0f, 0x25, 0x09, 0x18, 0x01, 0x2a, 0xe5, 0xe7, 0xcd, 0x0c, 
	0xd3, 0xe8, 0xed, 0xff, 0xde, 0xcb, 0xe7, 0xf6, 0xec, 0xf9, 0xdf, 0xdf, 
	0xf5, 0xf5, 0x12, 0xd4, 0xd7, 0x29, 0x30, 0xe0, 0xf4, 0x0f, 0x27, 0xea, 
	0xd9, 0xd7, 0x30, 0xcd, 0xdb, 0x0a, 0x2c, 0x2e, 0xdb, 0x2e, 0xe4, 0xde, 
	0xcd, 0xcf, 0x35, 0xbc, 0x2e, 0xdc, 0x2a, 0x06, 0x1a, 0x00, 0xe2, 0x12, 
	0xfb, 0x01, 0x0c, 0x1f, 0x17, 0xe2, 0x11, 0x2e, 0x09, 0xef, 0xe7, 0xe1, 
	0x06, 0x1e, 0xeb, 0xf1, 0x08, 0x00, 0x24, 0xe0, 0x23, 0xd2, 0x25, 0xdb, 
	0xd3, 0xed, 0x23, 0x16, 0xfc, 0x06, 0xeb, 0x1b, 0x07, 0xd3, 0xf2, 0xe4, 
	0xec, 0xf0, 0xbf, 0xea, 0x1a, 0x22, 0xfb, 0xf2, 0xe6, 0x00, 0xf1, 0xf6, 
	0x0a, 0x13, 0x31, 0xd8, 0x2c, 0xd2, 0x2b, 0xf5, 0x1f, 0x20, 0x2b, 0xf2, 
	0xd2, 0x08, 0x1b, 0x10, 0xdf, 0x2b, 0xee, 0x20, 0x07, 0xe9, 0x33, 0x0f, 
	0x18, 0x10, 0xd2, 0x1e, 0x0a, 0xd7, 0xff, 0xf9, 0x13, 0x28, 0xd4, 0xf7, 
	0xe3, 0x08, 0x24, 0xef, 0xf7, 0xe8, 0xd0, 0x16, 0xce, 0x0e, 0xf4, 0x0f, 
	0xe6, 0xe7, 0x11, 0x1b, 0x32, 0xe8, 0xd6, 0x0e, 0xbd, 0xfc, 0x2d, 0x28, 
	0xda, 0x0c, 0x26, 0xe0, 0xd8, 0xfd, 0x01, 0x2e, 0xd5, 0xef, 0xed, 0x08, 
	0x0e, 0xdc, 0x12, 0xe9, 0xf6, 0x00, 0xea, 0xe9, 0xc9, 0x03, 0x0c, 0xfe, 
	0x0a, 0xfc, 0x05, 0xc9, 0x28, 0x32, 0x01, 0x0c, 0x1c, 0xf1, 0xd7, 0xd6, 
	0xf4, 0xcd, 0x23, 0xee, 0x07, 0x1d, 0x12, 0xf4, 0xfb, 0xdd, 0x19, 0xec, 
	0x2a, 0x2d, 0xc2, 0xf2, 0x30, 0x08, 0x28, 0xe2, 0x34, 0xd1, 0x24, 0xdd, 
	0x09, 0x0a, 0xf1, 0xf1, 0xd8, 0xf4, 0x18, 0x34, 0x35, 0x32, 0x19, 0x1b, 
	0xfa, 0x05, 0x10, 0xe1, 0x2a, 0x20, 0x1a, 0xeb, 0x27, 0x28, 0x0d, 0xff, 
	0x1d, 0x2d, 0x01, 0x1c, 0x11, 0x24, 0xe2, 0x24, 0x03, 0xdd, 0xfc, 0xf1, 
	0x1b, 0x12, 0x36, 0xf0, 0xd5, 0xed, 0x1b, 0x24, 0xd6, 0x0b, 0xe1, 0xf3, 
	0x08, 0x08, 0xff, 0x29, 0x14, 0xd5, 0xd1, 0xfb, 0x17, 0x0b, 0x06, 0xf8, 
	0x04, 0x0f, 0x02, 0xe9, 0xda, 0x16, 0xf6, 0xdc, 0x2f, 0x10, 0x1b, 0xe7, 
	0x1a, 0x10, 0xe7, 0x13, 0x2e, 0xec, 0xdf, 0x13, 0x1e, 0xee, 0x16, 0x12, 
	0xe6, 0x0c, 0x02, 0x28, 0xce, 0x11, 0xf4, 0x30, 0xf0, 0xdb, 0xe3, 0xe6, 
	0x06, 0xff, 0xda, 0x19, 0x20, 0xf5, 0xd8, 0x2e, 0xf6, 0x04, 0xf5, 0x14, 
	0xe5, 0xee, 0xe0, 0x0a, 0x2a, 0xf2, 0x05, 0x00, 0xe3, 0xf0, 0x28, 0xe1, 
	0x1f, 0x2e, 0x13, 0x05, 0xec, 0xd5, 0x20, 0x22, 0xfc, 0xed, 0x22, 0xf8, 
	0x16, 0x10, 0xdf, 0x01, 0xfe, 0x28, 0xd8, 0xd2, 0x0e, 0x13, 0xdf, 0xda, 
	0x02, 0x0c, 0xf3, 0x0a, 0xe2, 0x09, 0x15, 0xdb, 0x08, 0x06, 0xe6, 0x2d, 
	0x18, 0xea, 0xce, 0x28, 0xfd, 0xfe, 0xeb, 0x07, 0x26, 0x2e, 0x15, 0xe3, 
	0xe9, 0xda, 0xeb, 0xd8, 0x2a, 0xf6, 0x13, 0xfc, 0x34, 0xef, 0x16, 0x07, 
	0xf1, 0xe5, 0xcb, 0x07, 0xec, 0x30, 0xe1, 0x17, 0xf8, 0xd1, 0x31, 0x33, 
	0xea, 0x06, 0xd5, 0xdb, 0xd9, 0x01, 0xfa, 0xdc, 0xe6, 0x2a, 0xe6, 0x1c, 
	0xcc, 0xeb, 0x0e, 0x1e, 0xd4, 0x07, 0x2a, 0xd7, 0xdb, 0x34, 0xeb, 0xfa, 
	0xe5, 0xd0, 0x05, 0x25, 0xc7, 0x21, 0xf7, 0x13, 0xee, 0xde, 0xfd, 0xea, 
	0x1b, 0xda, 0xe6, 0x14, 0x19, 0x2e, 0x06, 0x14, 0x22, 0x16, 0xe3, 0xe0, 
	0x23, 0x1c, 0x0d, 0xf4, 0x2c, 0xf9, 0xdc, 0x19, 0xd5, 0xf6, 0xc9, 0xcc, 
	0x07, 0x03, 0xe7, 0xe2, 0x1f, 0x11, 0x1b, 0xf5, 0xe2, 0xf7, 0xf0, 0xe6, 
	0xe8, 0xc9, 0x0f, 0x24, 0xfd, 0x00, 0x0e, 0xda, 0xdd, 0xf2, 0x20, 0xf3, 
	0xf7, 0xf5, 0x0f, 0xe2, 0x1f, 0xd8, 0x2d, 0xda, 0xf7, 0xde, 0x33, 0xe5, 
	0x04, 0xc3, 0x2f, 0xd4, 0xda, 0xca, 0x16, 0x0e, 0x1c, 0xff, 0x02, 0xd4, 
	0x1e, 0xf3, 0xff, 0xe0, 0xd3, 0x27, 0xd3, 0x1d, 0xf4, 0xe3, 0x16, 0xda, 
	0x16, 0x02, 0x2c, 0xea, 0x0b, 0xf1, 0x1a, 0x0d, 0xfe, 0xd3, 0x20, 0x19, 
	0xfb, 0xfa, 0xdc, 0xd6, 0x15, 0x04, 0x29, 0xe7, 0x12, 0xd4, 0x28, 0xf9, 
	0xcf, 0x22, 0x21, 0xef, 0x2b, 0xe6, 0xf5, 0x24, 0xfb, 0xfb, 0xd6, 0xbb, 
	0x24, 0x04, 0x1a, 0xfc, 0x0c, 0x0b, 0x10, 0xe6, 0xf4, 0x26, 0x05, 0x00, 
	0xe7, 0x08, 0x11, 0xe6, 0x28, 0xf3, 0x0a, 0x0b, 0xeb, 0x01, 0xe0, 0xf7, 
	0xd8, 0xe8, 0xdb, 0xcf, 0x01, 0xff, 0x12, 0x2c, 0x1a, 0x27, 0xe3, 0x00, 
	0x2d, 0xf3, 0x29, 0x19, 0xfc, 0xe5, 0xf2, 0xea, 0x0a, 0x06, 0xe4, 0xd7, 
	0xee, 0xfd, 0x22, 0x1f, 0xf3, 0xea, 0xfb, 0xf8, 0x16, 0x35, 0x06, 0xd2, 
	0xe0, 0x26, 0xfb, 0xea, 0xfc, 0x0c, 0x10, 0x08, 0x29, 0x36, 0xdc, 0xdd, 
	0x05, 0xe0, 0x24, 0xef, 0x02, 0xd0, 0x27, 0x2f, 0xec, 0x0a, 0x0b, 0x21, 
	0xe9, 0xf6, 0x15, 0xf8, 0xf0, 0xe6, 0xeb, 0xf0, 0xdd, 0xf0, 0x0f, 0x03, 
	0x2a, 0x0b, 0xfa, 0x16, 0xe0, 0xf5, 0xd8, 0xd6, 0x22, 0x10, 0xd2, 0xfa, 
	0x0a, 0x0e, 0xde, 0xe0, 0xf4, 0xb4, 0x04, 0x1a, 0xe7, 0x0e, 0x14, 0xda, 
	0x24, 0x9f, 0x06, 0xfc, 0x23, 0x1a, 0x11, 0x29, 0x0b, 0xe5, 0xfa, 0xf3, 
	0xea, 0x19, 0xfa, 0x2d, 0x16, 0x0a, 0x13, 0x1d, 0x06, 0x1c, 0xd3, 0xd2, 
	0xc8, 0xe4, 0xd1, 0xf7, 0x1b, 0xe2, 0xfe, 0xdb, 0xd8, 0xfc, 0x23, 0xdf, 
	0xec, 0xf3, 0xf0, 0xd8, 0x29, 0xc6, 0xdb, 0x15, 0x31, 0xd0, 0xfe, 0xd9, 
	0xe8, 0xd1, 0xd6, 0xd6, 0xe8, 0xf6, 0x0a, 0xd3, 0xfd, 0x1f, 0xdd, 0x17, 
	0x02, 0xfa, 0x25, 0x26, 0x1e, 0x05, 0xf8, 0x0d, 0xee, 0x06, 0x03, 0x21, 
	0xd7, 0xdb, 0x0f, 0xff, 0xd8, 0xdf, 0xe2, 0xde, 0xda, 0x06, 0x14, 0xd6, 
	0xe3, 0xe0, 0x00, 0xe4, 0x2a, 0xf5, 0xec, 0xd2, 0x0b, 0xeb, 0x03, 0xbe, 
	0xf1, 0x05, 0xe7, 0x1a, 0xf8, 0xfe, 0xe7, 0x28, 0x03, 0x1c, 0xf9, 0xe7, 
	0xdc, 0x1b, 0xd5, 0x2a, 0x27, 0x10, 0x0e, 0x1b, 0x2a, 0x28, 0x09, 0xe5, 
	0x1d, 0x10, 0xc9, 0xee, 0xd9, 0x31, 0x04, 0x17, 0x2c, 0xd4, 0x32, 0x31, 
	0xd2, 0xf9, 0x34, 0xfd, 0x1a, 0xdc, 0xeb, 0xf3, 0x33, 0xf0, 0xd8, 0x1a, 
	0x00, 0xe3, 0x24, 0x0f, 0xe0, 0x26, 0x15, 0xfb, 0x35, 0x0a, 0x26, 0xdd, 
	0xe9, 0xff, 0x22, 0x27, 0x29, 0xf2, 0xe3, 0x20, 0xc5, 0x0f, 0x14, 0x01, 
	0xe2, 0xe7, 0xce, 0xfa, 0x16, 0xd1, 0x0a, 0x1d, 0x05, 0xe7, 0x04, 0x2e, 
	0x30, 0x1a, 0xf8, 0xe6, 0xd1, 0x18, 0x20, 0x1b, 0xed, 0xdb, 0xff, 0xda, 
	0xda, 0xeb, 0x2a, 0xf2, 0xf6, 0xe5, 0x33, 0x26, 0xff, 0x15, 0xd7, 0xf5, 
	0xfc, 0xf1, 0x34, 0x22, 0x24, 0xf3, 0x0e, 0x09, 0xcb, 0x0b, 0xde, 0x11, 
	0xe2, 0xe5, 0xd9, 0xed, 0xe2, 0x14, 0xe3, 0xe6, 0x0b, 0x28, 0xe6, 0xd7, 
	0xd7, 0xe3, 0xf1, 0x2c, 0x14, 0xca, 0x15, 0xec, 0xd8, 0x2a, 0x17, 0xcf, 
	0x0b, 0xdd, 0x1c, 0xcd, 0xde, 0x31, 0xed, 0x15, 0xdd, 0xe3, 0xe0, 0x37, 
	0xf6, 0x2c, 0x21, 0xd7, 0x21, 0xd1, 0xe6, 0x0f, 0xe7, 0x15, 0xe8, 0x1a, 
	0xf7, 0xed, 0x01, 0xea, 0x06, 0xe7, 0x12, 0x1c, 0xf4, 0xde, 0xe4, 0xeb, 
	0xf2, 0x16, 0x19, 0xd8, 0x20, 0xc3, 0x1f, 0xd1, 0xdd, 0xe4, 0x33, 0x1f, 
	0xc7, 0xb8, 0xca, 0xd5, 0x17, 0xf7, 0xfb, 0xfc, 0xfb, 0xd2, 0x08, 0xe1, 
	0x04, 0x26, 0x15, 0x14, 0x36, 0xbf, 0xf7, 0xe1, 0x04, 0xef, 0xd5, 0xd6, 
	0x07, 0xf2, 0xd2, 0x23, 0x32, 0xd5, 0xf7, 0x1a, 0xd4, 0xf9, 0x31, 0xe3, 
	0x1b, 0x29, 0xd9, 0x03, 0xd7, 0xf7, 0x1f, 0xe6, 0x07, 0x31, 0xf6, 0x30, 
	0x15, 0xfa, 0x2e, 0xf6, 0xfb, 0x0d, 0xff, 0x02, 0xef, 0xdd, 0x29, 0x19, 
	0x22, 0xda, 0xe6, 0x19, 0xe7, 0x29, 0x0a, 0x21, 0x26, 0xd6, 0x1a, 0x15, 
	0xce, 0xf9, 0x1b, 0x10, 0xff, 0x0a, 0xe4, 0x2a, 0xf8, 0x2a, 0xf0, 0x2c, 
	0xdc, 0x33, 0xfa, 0xeb, 0x2e, 0x1d, 0x1f, 0x33, 0xd7, 0x26, 0xed, 0x1e, 
	0x20, 0x0c, 0x29, 0x26, 0xd5, 0xe5, 0x03, 0xea, 0x20, 0x2e, 0xdd, 0x2f, 
	0x25, 0xea, 0xf3, 0x2b, 0x04, 0x2b, 0xd2, 0x22, 0x06, 0xea, 0x05, 0x09, 
	0x08, 0x0e, 0x02, 0xd2, 0xf7, 0xe7, 0xff, 0x2b, 0xdf, 0xf3, 0xd6, 0xee, 
	0x32, 0x16, 0x0a, 0x15, 0x1d, 0x04, 0xf7, 0x01, 0x2f, 0xf3, 0x03, 0x2a, 
	0x11, 0x16, 0x1b, 0x1c, 0xe8, 0x2e, 0xcd, 0xe2, 0x13, 0xde, 0xf1, 0xda, 
	0x15, 0xec, 0x0e, 0x0a, 0xe3, 0xbb, 0x1e, 0xf7, 0x21, 0x31, 0x0a, 0xf5, 
	0xde, 0x0e, 0xde, 0xe2, 0xfe, 0x0d, 0x1d, 0xd6, 0x20, 0x2e, 0xf2, 0x12, 
	0xcf, 0x02, 0x17, 0x14, 0xfa, 0x0b, 0xf9, 0xfe, 0xd6, 0xf0, 0x19, 0x13, 
	0xdb, 0x1d, 0xc7, 0x42, 0xe0, 0x20, 0x0a, 0xdd, 0x1b, 0x01, 0x2e, 0x0b, 
	0x09, 0xe1, 0xd9, 0xd5, 0x27, 0x18, 0x2a, 0x35, 0xea, 0x0c, 0x2c, 0x3f, 
	0x00, 0x2e, 0x05, 0x0b, 0x24, 0xe4, 0x21, 0x21, 0xe0, 0x2f, 0xd5, 0x20, 
	0xde, 0x1d, 0x2a, 0xec, 0xdf, 0xd0, 0x0a, 0xe2, 0xf4, 0x1b, 0x2d, 0x1c, 
	0xd5, 0xfa, 0xd6, 0x1b, 0xe4, 0xd8, 0x28, 0xda, 0x28, 0x14, 0x1e, 0x10, 
	0xda, 0xd4, 0xe7, 0x1e, 0x2f, 0x0c, 0xfb, 0x03, 0xf9, 0xfc, 0x10, 0xfb, 
	0xed, 0x00, 0xf1, 0x24, 0xee, 0xda, 0x11, 0x03, 0xe0, 0x1f, 0xde, 0x22, 
	0xf3, 0xf0, 0x2b, 0x05, 0xdc, 0x05, 0xcc, 0xe2, 0x23, 0x27, 0x05, 0x07, 
	0x33, 0x19, 0xe1, 0xdf, 0xdb, 0xec, 0xfb, 0x0d, 0xeb, 0xd3, 0x1d, 0xdc, 
	0x27, 0x0a, 0xf6, 0x04, 0x08, 0xf5, 0xeb, 0xfa, 0x0d, 0xdb, 0xe2, 0x17, 
	0x17, 0x04, 0xe5, 0x23, 0x1e, 0x09, 0x00, 0x0d, 0x1b, 0xe0, 0x11, 0x1c, 
	0xe9, 0xf6, 0x2d, 0x13, 0x23, 0x2a, 0xfd, 0x28, 0x03, 0x01, 0xfb, 0x1d, 
	0xda, 0x15, 0xf0, 0xdb, 0xe7, 0xee, 0x0a, 0xd3, 0xee, 0x0a, 0x20, 0x26, 
	0x33, 0xda, 0xcd, 0x34, 0x2d, 0x01, 0x28, 0x35, 0xf1, 0xf7, 0x15, 0xe7, 
	0x09, 0x06, 0x1a, 0x3c, 0xf2, 0x11, 0xfe, 0xd1, 0xf5, 0xfe, 0xed, 0x20, 
	0xd8, 0xfb, 0x04, 0xf1, 0xf4, 0x2f, 0x14, 0x22, 0xd7, 0xe0, 0x24, 0xfd, 
	0xfa, 0x06, 0xcf, 0xee, 0x14, 0x06, 0xf4, 0x00, 0xd8, 0x2a, 0xdf, 0x1f, 
	0xf6, 0xd2, 0xdf, 0xce, 0xdc, 0x09, 0xde, 0x22, 0xe8, 0xfb, 0xf9, 0xfa, 
	0xfb, 0xf6, 0xf7, 0x14, 0x31, 0xe0, 0x1f, 0xfc, 0x0d, 0x2d, 0xf6, 0xfb, 
	0xf3, 0x13, 0x31, 0xfb, 0x1e, 0xf0, 0xeb, 0x2a, 0x1c, 0x17, 0xee, 0x27, 
	0x19, 0x00, 0xe1, 0xfa, 0xf2, 0x00, 0x0d, 0xe6, 0xe3, 0x2a, 0x00, 0xea, 
	0xff, 0xd4, 0x14, 0xe4, 0x27, 0xf4, 0xf8, 0x12, 0xd0, 0xe5, 0xe9, 0x34, 
	0xf3, 0xd2, 0x14, 0x09, 0xf2, 0xe2, 0xf8, 0xd2, 0x33, 0x0b, 0xd5, 0x0f, 
	0xfe, 0xd2, 0xff, 0x10, 0xec, 0x26, 0x03, 0x13, 0x04, 0x0c, 0xdf, 0xe3, 
	0xcd, 0xd6, 0x1f, 0xcc, 0x01, 0x34, 0xe0, 0xe6, 0x11, 0xd9, 0xfd, 0x12, 
	0x18, 0x32, 0x29, 0xf7, 0xd5, 0x05, 0x29, 0xed, 0xee, 0xe4, 0xd8, 0x25, 
	0xd1, 0xf6, 0x11, 0xc6, 0x26, 0x29, 0xed, 0xe5, 0x2c, 0xe0, 0xfc, 0x29, 
	0xd2, 0x17, 0x13, 0x29, 0xf8, 0xfd, 0x04, 0x1e, 0xdf, 0x29, 0xe2, 0x2c, 
	0xd4, 0xd0, 0xcc, 0xfc, 0x0b, 0x0c, 0xef, 0xef, 0x05, 0x09, 0x1e, 0x1d, 
	0xe0, 0x1c, 0xed, 0x02, 0xf3, 0x19, 0x0d, 0x2d, 0xc7, 0x21, 0x1e, 0xf8, 
	0x28, 0xbd, 0xf8, 0x1d, 0xe9, 0xfb, 0x0e, 0x2d, 0xfb, 0xf0, 0xf3, 0xf8, 
	0xea, 0xfe, 0xeb, 0x26, 0xdb, 0x21, 0xfe, 0x08, 0x0e, 0x26, 0x34, 0xf9, 
	0xea, 0xe9, 0x36, 0x0b, 0x0f, 0x00, 0xe8, 0x29, 0x16, 0xf0, 0xdb, 0xe1, 
	0xff, 0xdf, 0xf2, 0x20, 0x2c, 0xe9, 0x23, 0x20, 0xd2, 0xe3, 0x1d, 0xdb, 
	0xfb, 0xe3, 0x10, 0xec, 0xf0, 0xec, 0x14, 0xe7, 0xe5, 0xe9, 0xe3, 0x0b, 
	0x19, 0x01, 0x10, 0x35, 0xd0, 0x10, 0x23, 0xfb, 0x0d, 0x07, 0xed, 0xe8, 
	0xea, 0xe9, 0xfe, 0x08, 0xfe, 0xd8, 0x21, 0x23, 0x18, 0xf7, 0xfe, 0xfb, 
	0xdc, 0xc5, 0x02, 0xfa, 0x08, 0xe0, 0x25, 0x0f, 0xe2, 0xe3, 0x16, 0x08, 
	0xd0, 0xfe, 0xc7, 0xd3, 0x07, 0x21, 0x09, 0xd8, 0xe9, 0xec, 0xce, 0x04, 
	0x25, 0xe7, 0x0e, 0x0a, 0x04, 0x1d, 0xef, 0x0b, 0x05, 0x25, 0xe1, 0xcd, 
	0xcd, 0xe9, 0xb5, 0x28, 0xfd, 0xe7, 0xda, 0xef, 0xd1, 0xe2, 0x2d, 0x12, 
	0xe2, 0x21, 0xd7, 0x03, 0xe2, 0xdd, 0xd5, 0xe0, 0xc9, 0xcc, 0x23, 0xbe, 
	0xef, 0xeb, 0xc4, 0xe0, 0xed, 0x1b, 0x07, 0xe0, 0xd7, 0xff, 0x16, 0xe5, 
	0xf5, 0xe7, 0xf1, 0xc9, 0xcd, 0xe7, 0xf6, 0x17, 0xec, 0xf1, 0x12, 0xd4, 
	0xef, 0xdf, 0xdf, 0xd0, 0x06, 0xd7, 0xec, 0xd4, 0xd0, 0x1c, 0x16, 0x14, 
	0xe2, 0x16, 0xcf, 0xf7, 0xe4, 0xf7, 0xdb, 0xf5, 0xdb, 0x27, 0x2a, 0x02, 
	0xe6, 0x1d, 0xe5, 0xe3, 0x29, 0x20, 0x1f, 0x04, 0x05, 0xf4, 0xfe, 0x26, 
	0x06, 0xd7, 0x28, 0x2a, 0xef, 0x23, 0xd7, 0x23, 0xdb, 0xfb, 0xfd, 0xc9, 
	0xd5, 0xd4, 0xfc, 0x00, 0xce, 0x29, 0xe5, 0xe8, 0x13, 0x31, 0xea, 0xd6, 
	0xd2, 0x22, 0xda, 0x1d, 0xdd, 0xfd, 0x1f, 0xf5, 0xfb, 0x02, 0x10, 0xeb, 
	0x20, 0xe6, 0xe8, 0xe0, 0xe1, 0x1d, 0x22, 0xeb, 0xf4, 0x26, 0xe5, 0x1b, 
	0x1e, 0xca, 0x2b, 0xd6, 0x28, 0x8c, 0x1d, 0xc7, 0x10, 0x12, 0x29, 0xbd, 
	0xce, 0xfc, 0x10, 0xbf, 0x05, 0x1b, 0x31, 0x0d, 0xfb, 0x16, 0xe4, 0x2b, 
	0x26, 0xd7, 0x02, 0xf4, 0xfc, 0xed, 0x1d, 0x23, 0xf8, 0x2d, 0x18, 0x02, 
	0xe5, 0x04, 0xe6, 0xd2, 0xdf, 0x0a, 0x27, 0xeb, 0x23, 0xf4, 0x05, 0xf2, 
	0xf0, 0xc2, 0xef, 0xef, 0xf8, 0x18, 0x14, 0xfb, 0xd3, 0xf9, 0xcc, 0xdc, 
	0xf0, 0xe8, 0xe8, 0x11, 0xd4, 0xf5, 0x18, 0x2d, 0xeb, 0x2e, 0x18, 0xd1, 
	0x20, 0xdb, 0xe7, 0xeb, 0xcf, 0xf6, 0xd2, 0xcf, 0x07, 0x04, 0x0a, 0xe0, 
	0xd5, 0xe1, 0xc7, 0xe2, 0xf9, 0xe7, 0x24, 0x10, 0xe3, 0x22, 0x18, 0x00, 
	0xfc, 0x27, 0x2b, 0xfb, 0x1e, 0xe3, 0x0c, 0x2b, 0x02, 0xe5, 0x12, 0x24, 
	0x01, 0x00, 0x0b, 0xd8, 0xd6, 0xdb, 0xf4, 0x19, 0x2c, 0x23, 0x2b, 0x06, 
	0x1d, 0x25, 0xef, 0x0a, 0x24, 0x00, 0xef, 0x11, 0xe9, 0xfb, 0x1f, 0xe5, 
	0xe2, 0xc2, 0xd9, 0xf4, 0x2b, 0xf6, 0x1a, 0x1f, 0x1a, 0x14, 0x0b, 0xf1, 
	0xf3, 0xff, 0x0f, 0x04, 0xcb, 0xd5, 0xf0, 0xf3, 0x07, 0xfb, 0xe1, 0xda, 
	0xe2, 0xc5, 0xf6, 0x1d, 0xce, 0x2c, 0xde, 0x01, 0x2d, 0x06, 0x20, 0x13, 
	0x30, 0xeb, 0x29, 0x2e, 0x0e, 0xb8, 0xca, 0x2c, 0xd9, 0xf2, 0xfe, 0xd6, 
	0x13, 0xf5, 0x2b, 0xe7, 0x2e, 0x04, 0x20, 0xf6, 0xf5, 0xf7, 0xfe, 0x1f, 
	0xfc, 0xcc, 0x0f, 0x0c, 0x16, 0xd7, 0xd9, 0x21, 0x0f, 0x17, 0x0e, 0xcb, 
	0xe6, 0x07, 0x0a, 0xc6, 0xd6, 0x32, 0xd3, 0x0c, 0xec, 0x12, 0x04, 0x21, 
	0xe8, 0xfa, 0xd2, 0x0f, 0xeb, 0xce, 0xe2, 0x00, 0x14, 0xd1, 0x1e, 0xe5, 
	0xf5, 0xf9, 0x1b, 0x1c, 0x13, 0x1f, 0xd9, 0x30, 0x12, 0x16, 0xeb, 0x01, 
	0xfc, 0x2e, 0xfa, 0x07, 0xfd, 0x17, 0x23, 0xcf, 0x0d, 0xde, 0xe9, 0xd2, 
	0xef, 0xd2, 0xff, 0xfb, 0xd1, 0x27, 0x0a, 0x1d, 0x32, 0x19, 0xe0, 0x2f, 
	0xff, 0xd1, 0xe1, 0x30, 0x27, 0xac, 0xd3, 0xec, 0x0c, 0xf5, 0x1d, 0xfe, 
	0xd2, 0xdb, 0xc9, 0x0c, 0x0b, 0xd1, 0xdb, 0xed, 0xdb, 0xe7, 0xe3, 0x06, 
	0x0a, 0xef, 0x31, 0xf1, 0xde, 0xf1, 0x17, 0x29, 0xf7, 0xff, 0xca, 0xc4, 
	0x04, 0x1f, 0xe5, 0x04, 0x1d, 0x13, 0x0e, 0xd5, 0x20, 0x27, 0xd0, 0xff, 
	0x02, 0x24, 0x2b, 0xc6, 0xe3, 0x06, 0x09, 0x29, 0x29, 0x06, 0x1f, 0xc4, 
	0xda, 0xee, 0xcd, 0xc0, 0x2b, 0xdf, 0x09, 0xe7, 0x1e, 0x09, 0x0f, 0xe3, 
	0xf6, 0xf4, 0xdf, 0x13, 0x1d, 0xd5, 0x12, 0x00, 0xf1, 0x06, 0xf8, 0xce, 
	0xea, 0xfa, 0xf7, 0x31, 0x06, 0x06, 0x03, 0x2a, 0x05, 0xf2, 0xdc, 0xfb, 
	0x02, 0xf1, 0xf0, 0xe8, 0xfe, 0xfb, 0xee, 0xef, 0xe3, 0xe2, 0x12, 0xff, 
	0xce, 0x28, 0x1b, 0xef, 0xff, 0xeb, 0xd8, 0xf7, 0x06, 0x07, 0x1c, 0xf8, 
	0xe1, 0x01, 0xe1, 0xe1, 0xdd, 0xe8, 0x2b, 0x19, 0x0f, 0xe2, 0x21, 0xba, 
	0x09, 0xc9, 0xf0, 0x09, 0x13, 0x0a, 0x16, 0xe4, 0xec, 0x1b, 0xf3, 0x02, 
	0xd7, 0xe9, 0xf5, 0x2a, 0xf6, 0xca, 0xe0, 0x07, 0xf3, 0x0e, 0xd5, 0xb4, 
	0x1b, 0x9f, 0xff, 0x24, 0x2b, 0x0c, 0x13, 0x0d, 0x09, 0x1d, 0x0b, 0xec, 
	0x02, 0xf1, 0xf0, 0x19, 0xed, 0xdb, 0x13, 0xfa, 0xe4, 0xe6, 0xef, 0xd9, 
	0xd8, 0xe7, 0xd3, 0xe8, 0xd8, 0x08, 0x06, 0xef, 0xe5, 0xe5, 0xdf, 0x1e, 
	0x20, 0x0d, 0xe1, 0xe1, 0xd1, 0xb7, 0xf2, 0xcf, 0x08, 0x19, 0xed, 0xc1, 
	0xf0, 0x09, 0xe7, 0xff, 0x25, 0xf1, 0xf2, 0x01, 0xeb, 0xf5, 0x00, 0xd0, 
	0x1b, 0xec, 0x26, 0xf7, 0x20, 0xeb, 0x0a, 0x22, 0xc3, 0x1c, 0x0b, 0xd6, 
	0xca, 0xee, 0xca, 0x30, 0xf9, 0x11, 0x18, 0x2f, 0xcc, 0xda, 0x13, 0xf0, 
	0x0f, 0x25, 0x18, 0x1c, 0xf8, 0xd1, 0x05, 0xf2, 0xf1, 0xd1, 0x0f, 0xe8, 
	0x1a, 0x2c, 0x01, 0xec, 0xfc, 0x0a, 0x18, 0xe0, 0x11, 0xe3, 0x29, 0x01, 
	0xf8, 0xdb, 0x07, 0xf5, 0x03, 0x81, 0xea, 0x1e, 0xd2, 0x0d, 0xd7, 0xfa, 
	0xc3, 0x28, 0xcc, 0x27, 0xea, 0x32, 0x2b, 0x0b, 0xcd, 0x24, 0x21, 0x19, 
	0xe6, 0xfa, 0xfb, 0x09, 0xd1, 0xce, 0x0f, 0x1c, 0x0e, 0xd8, 0x25, 0x25, 
	0xd6, 0xd9, 0xdf, 0xef, 0x2b, 0x0a, 0xe7, 0x16, 0x1a, 0xd1, 0x07, 0x27, 
	0x24, 0x0f, 0x11, 0xd6, 0xe4, 0xd0, 0xf3, 0xd6, 0xd1, 0x01, 0x24, 0xd0, 
	0x22, 0xf8, 0x04, 0xd1, 0x29, 0xe6, 0x2f, 0x2f, 0x06, 0xfb, 0x26, 0x2f, 
	0x26, 0xd1, 0xcc, 0x1b, 0x20, 0xeb, 0x25, 0x02, 0xd4, 0xeb, 0x04, 0xdd, 
	0xde, 0xb4, 0xf7, 0x10, 0xf3, 0x0c, 0x14, 0x0d, 0x2d, 0xf4, 0x0b, 0x1a, 
	0xf8, 0xfd, 0x14, 0xcf, 0xdb, 0xf4, 0x10, 0x1a, 0x10, 0xe9, 0xd7, 0xce, 
	0xe7, 0x0e, 0xe2, 0xf9, 0xd9, 0x20, 0x0d, 0xce, 0x0c, 0xef, 0x0a, 0xf8, 
	0x25, 0xd0, 0x0b, 0xe3, 0xd9, 0xeb, 0x17, 0x30, 0x10, 0x03, 0xc7, 0xfe, 
	0x06, 0xe9, 0xec, 0xce, 0xd3, 0xe5, 0xe2, 0x23, 0xcf, 0xe4, 0x1a, 0xe5, 
	0xd8, 0xfa, 0x06, 0xfc, 0xdb, 0xd4, 0x0c, 0x28, 0xe1, 0x14, 0x13, 0xe1, 
	0xfe, 0xda, 0x01, 0x0f, 0xe8, 0x1b, 0x0b, 0x19, 0xf9, 0xd1, 0x00, 0xe2, 
	0x10, 0x29, 0x0a, 0x28, 0x23, 0xe3, 0xe3, 0xe1, 0x04, 0xd4, 0x1a, 0xb9, 
	0xd9, 0xad, 0x1d, 0xf0, 0x10, 0xd4, 0x18, 0xde, 0x0a, 0xf2, 0x1d, 0x12, 
	0xe5, 0x22, 0x24, 0x14, 0xd0, 0xea, 0x18, 0xee, 0xcb, 0x25, 0xfd, 0x1f, 
	0x22, 0xa3, 0xc1, 0xfe, 0xde, 0xdf, 0x13, 0x26, 0x16, 0xf8, 0x23, 0xf8, 
	0x05, 0x14, 0xec, 0xd9, 0xdf, 0xc0, 0x0c, 0xd2, 0xcb, 0x05, 0xc8, 0x1f, 
	0xeb, 0xd7, 0xca, 0x00, 0x2d, 0xd6, 0x2a, 0x2e, 0x1d, 0x0e, 0xe6, 0x0d, 
	0xef, 0xdf, 0xe4, 0x18, 0xf9, 0xf9, 0xdb, 0x25, 0xef, 0xea, 0x1c, 0xd7, 
	0xfc, 0x0b, 0xfc, 0x18, 0xdc, 0xf0, 0xfb, 0x2a, 0xca, 0x24, 0xe6, 0x02, 
	0xe9, 0x0e, 0xcb, 0xbf, 0xf8, 0xf1, 0x2b, 0x05, 0xde, 0x2f, 0x2c, 0xf9, 
	0x28, 0x04, 0xa6, 0xdf, 0xe2, 0xd2, 0x2b, 0x29, 0x00, 0xec, 0xdd, 0xdd, 
	0x03, 0x1c, 0xe9, 0x32, 0x1f, 0xfa, 0x2b, 0xd4, 0x0b, 0x1b, 0x13, 0x39, 
	0xe1, 0xd7, 0xf0, 0x1a, 0x00, 0x2c, 0xfa, 0xee, 0xfa, 0xed, 0xeb, 0x13, 
	0x1d, 0xff, 0xdf, 0x19, 0x1f, 0xd7, 0x27, 0x16, 0xfa, 0x1c, 0x27, 0x3c, 
	0x02, 0xdb, 0xf6, 0xf3, 0x0e, 0x29, 0x2e, 0x2a, 0x31, 0xd9, 0xfa, 0xd0, 
	0x0c, 0xf2, 0xf7, 0xfd, 0x27, 0x24, 0xcd, 0x09, 0x1b, 0x15, 0xf9, 0x29, 
	0xcc, 0x12, 0xe0, 0x24, 0x18, 0xe8, 0x0e, 0xfd, 0xd2, 0x26, 0x34, 0x32, 
	0x11, 0x0b, 0xff, 0x18, 0x07, 0xf9, 0xf3, 0x00, 0xd6, 0x27, 0xfd, 0x24, 
	0xe1, 0xe4, 0xdc, 0x15, 0xea, 0x0f, 0x30, 0xea, 0x21, 0xd5, 0xff, 0x14, 
	0x07, 0xf0, 0x0c, 0x05, 0x18, 0xf8, 0x11, 0xfc, 0xce, 0x09, 0xdc, 0x08, 
	0xf2, 0xf5, 0xc9, 0xd7, 0x14, 0xd4, 0xed, 0x36, 0x0e, 0x04, 0xdd, 0x28, 
	0x04, 0xcc, 0xef, 0xcb, 0xf6, 0xf0, 0x2a, 0xf3, 0x0a, 0xda, 0xfd, 0xd6, 
	0x1b, 0x0f, 0xd3, 0x2f, 0x07, 0xe1, 0x24, 0x12, 0xfc, 0xdc, 0x1f, 0x04, 
	0x2e, 0x32, 0xf3, 0xfc, 0x19, 0xc7, 0x18, 0xd0, 0xdd, 0x32, 0x25, 0xe4, 
	0x25, 0x44, 0x16, 0xd5, 0x1a, 0xda, 0xee, 0xd4, 0xfa, 0xe5, 0x25, 0x2f, 
	0xf1, 0xe9, 0x0a, 0xe3, 0xe1, 0xe5, 0xe2, 0x05, 0xcc, 0x1c, 0x01, 0xc6, 
	0x2d, 0x02, 0xfc, 0x00, 0x1b, 0x26, 0x32, 0xf9, 0x1e, 0x30, 0x1f, 0xf8, 
	0x2b, 0xf7, 0xd5, 0x29, 0x2a, 0x23, 0x08, 0x12, 0xf9, 0xec, 0xc8, 0x02, 
	0xc8, 0x0f, 0xde, 0x06, 0xec, 0x14, 0x22, 0x11, 0xd3, 0x01, 0xdb, 0x21, 
	0xd2, 0xe9, 0x10, 0x20, 0x03, 0xb9, 0x09, 0xd8, 0xc6, 0x2a, 0x25, 0xcb, 
	0xee, 0xfd, 0xc7, 0xfe, 0xfe, 0x13, 0x1a, 0x18, 0xd0, 0x28, 0x0d, 0xfc, 
	0x20, 0x04, 0x22, 0xf4, 0xe6, 0xc4, 0x06, 0xd4, 0xc5, 0x01, 0x25, 0x0b, 
	0xcf, 0xc9, 0x20, 0x0f, 0x21, 0x21, 0x05, 0x2d, 0xfd, 0x36, 0x05, 0x27, 
	0x13, 0xdc, 0xe6, 0x14, 0xfb, 0xd2, 0x2f, 0x34, 0x15, 0xd3, 0x12, 0x01, 
	0x24, 0xf0, 0xfe, 0x03, 0xd5, 0x03, 0x29, 0xff, 0x05, 0x28, 0x1d, 0xef, 
	0xf1, 0x16, 0xf0, 0xd4, 0x1c, 0x04, 0x2a, 0x16, 0xec, 0xdd, 0x1a, 0x08, 
	0xcc, 0xd3, 0x26, 0xdd, 0xfc, 0x12, 0x00, 0xd3, 0xe3, 0xe3, 0x27, 0x0d, 
	0x02, 0xf9, 0x0a, 0xce, 0xef, 0xe9, 0x1b, 0xe8, 0x10, 0xf3, 0xec, 0xde, 
	0x1f, 0x15, 0xed, 0xd2, 0x2c, 0x04, 0x26, 0xf3, 0xe2, 0x21, 0xf0, 0xe0, 
	0x2a, 0x17, 0xe6, 0x02, 0x03, 0xc0, 0x0c, 0xf5, 0xfa, 0x18, 0x2c, 0x04, 
	0xf3, 0xf3, 0x1c, 0xed, 0x05, 0x02, 0x15, 0xef, 0xf4, 0x0e, 0x22, 0x35, 
	0x11, 0xea, 0x11, 0xf2, 0xe6, 0xb5, 0x2d, 0x06, 0x1c, 0xf0, 0xcc, 0xed, 
	0xc7, 0x1e, 0x25, 0xc9, 0xe6, 0xda, 0xfe, 0x18, 0xf3, 0xe4, 0x27, 0xd1, 
	0xed, 0xfa, 0xe1, 0x2b, 0x0d, 0xa6, 0xf8, 0xd9, 0xf0, 0xf7, 0x06, 0xf2, 
	0xed, 0xef, 0x23, 0xdc, 0xeb, 0xe9, 0xe1, 0x0d, 0xfd, 0xd6, 0xdb, 0x2a, 
	0x36, 0xfd, 0x28, 0x07, 0xf1, 0x08, 0x12, 0x2e, 0xe4, 0xeb, 0xe2, 0xc3, 
	0xf8, 0x04, 0xc8, 0x14, 0xef, 0xd1, 0x0e, 0xe1, 0xef, 0x1c, 0x0c, 0x31, 
	0xe7, 0xe3, 0xe6, 0xc5, 0xd3, 0x16, 0x34, 0x05, 0x19, 0xf2, 0x0f, 0x04, 
	0x0c, 0xf6, 0x01, 0xf1, 0x37, 0x28, 0xd9, 0xf6, 0xd2, 0x05, 0xe4, 0x25, 
	0x32, 0xd1, 0x08, 0x23, 0xf8, 0xc9, 0xf3, 0x12, 0xd5, 0xf4, 0x0b, 0xd3, 
	0x27, 0x0a, 0x21, 0x0e, 0x0f, 0x36, 0xdc, 0xd8, 0xeb, 0x2b, 0xdc, 0x12, 
	0x13, 0x0b, 0x28, 0x04, 0xff, 0xd5, 0x1b, 0x22, 0x36, 0xe1, 0xed, 0xe6, 
	0x2e, 0xf0, 0xfe, 0xd2, 0xff, 0xfb, 0x23, 0xec, 0x12, 0xd9, 0xd4, 0xeb, 
	0xe5, 0xf2, 0xee, 0xe0, 0x0e, 0x0d, 0xf6, 0x11, 0x1e, 0x13, 0x2b, 0x22, 
	0x11, 0x0b, 0x02, 0xeb, 0xe4, 0x23, 0x1c, 0xfe, 0xf5, 0xfd, 0x1c, 0xee, 
	0x1a, 0xe1, 0x33, 0x0d, 0xe7, 0xcd, 0x26, 0x23, 0xfb, 0xea, 0xd2, 0x05, 
	0xf1, 0x0f, 0xc9, 0x32, 0xe6, 0xf4, 0x04, 0x13, 0xef, 0xf6, 0x24, 0x1e, 
	0xea, 0xdc, 0x22, 0x29, 0x32, 0xac, 0xfa, 0x31, 0xfc, 0xe2, 0xd7, 0x1c, 
	0xd0, 0x19, 0x04, 0x31, 0x10, 0xe3, 0x2d, 0xf3, 0xd0, 0x1e, 0xd4, 0xdb, 
	0xfb, 0xf1, 0xeb, 0xf2, 0xfa, 0xe4, 0x30, 0xda, 0xd7, 0xee, 0xe9, 0xe2, 
	0xde, 0x06, 0xe9, 0xd4, 0xf2, 0x30, 0x33, 0x2c, 0xf1, 0x1e, 0x26, 0xdc, 
	0xff, 0xe4, 0xd5, 0x30, 0x13, 0xd5, 0x36, 0x09, 0xda, 0x1f, 0x23, 0x31, 
	0xd5, 0x2e, 0xf2, 0x0a, 0x17, 0xe1, 0x34, 0xfb, 0xf3, 0x33, 0x1e, 0x28, 
	0xd9, 0x20, 0xfe, 0xd7, 0xdb, 0x24, 0x2e, 0x02, 0x10, 0x00, 0xf2, 0xc1, 
	0xf3, 0xfc, 0x02, 0xd6, 0x31, 0xfb, 0x25, 0x08, 0xf2, 0x2d, 0x1d, 0x28, 
	0x27, 0x02, 0x19, 0xf0, 0x01, 0xfd, 0xea, 0xf8, 0x08, 0xfa, 0xd4, 0x06, 
	0xed, 0x0c, 0xf2, 0x01, 0x0b, 0xe1, 0x1e, 0xfd, 0x02, 0xe9, 0x33, 0xfd, 
	0x14, 0xec, 0x06, 0xe4, 0x0d, 0xee, 0xe5, 0x29, 0x09, 0xda, 0x15, 0xd8, 
	0xd8, 0x05, 0xef, 0xc4, 0x2e, 0xf8, 0x08, 0xd1, 0x26, 0xe4, 0xe5, 0x1e, 
	0xd0, 0x2a, 0x14, 0x19, 0x27, 0xe1, 0xcc, 0xe3, 0xf7, 0xd7, 0x12, 0x12, 
	0xd4, 0xf6, 0xeb, 0x21, 0x20, 0x02, 0x16, 0x12, 0x24, 0x31, 0x19, 0x0d, 
	0xd2, 0x01, 0x21, 0xdc, 0x1a, 0xf2, 0xcd, 0x01, 0xe6, 0xf1, 0xe7, 0x02, 
	0x22, 0xe3, 0x04, 0xf2, 0xfc, 0xe4, 0xe3, 0x19, 0xfd, 0xe3, 0xd9, 0x2d, 
	0x1d, 0x19, 0x2c, 0x06, 0xdf, 0xdf, 0x2d, 0x17, 0xfe, 0x35, 0x0e, 0x12, 
	0xe6, 0x11, 0x28, 0x1b, 0x1e, 0x07, 0xda, 0x1c, 0x2c, 0x0c, 0x16, 0x30, 
	0x1f, 0x29, 0x0a, 0x10, 0xea, 0xb0, 0xf9, 0xfa, 0x07, 0x0f, 0x16, 0xd8, 
	0xec, 0xfe, 0xd6, 0x03, 0x02, 0x13, 0xee, 0xf0, 0x11, 0x03, 0xe2, 0x21, 
	0xf9, 0xdd, 0xd0, 0x0a, 0x11, 0xd2, 0xe0, 0x0d, 0xfb, 0x0a, 0x27, 0x2d, 
	0x12, 0x15, 0xf9, 0xf8, 0xd5, 0xcf, 0xdb, 0x1d, 0xf8, 0x28, 0x12, 0xec, 
	0x10, 0xff, 0x23, 0xcf, 0xee, 0xd5, 0x37, 0x1c, 0x1d, 0xd3, 0xd7, 0x0e, 
	0x23, 0xfc, 0xff, 0x23, 0xe7, 0x01, 0xf3, 0x16, 0xcf, 0x00, 0x2e, 0xf7, 
	0xfa, 0x18, 0x03, 0x14, 0x03, 0x07, 0xe4, 0x0a, 0xe5, 0xee, 0x23, 0xd9, 
	0x0c, 0x04, 0x04, 0xcf, 0x00, 0xcf, 0xf2, 0xed, 0x07, 0x28, 0xe9, 0xdc, 
	0x15, 0xe1, 0x31, 0x1c, 0xd4, 0x84, 0xe6, 0x08, 0xeb, 0xda, 0x23, 0xd3, 
	0xef, 0xf5, 0x03, 0xc7, 0x04, 0xf3, 0xd6, 0x03, 0xec, 0x10, 0xf1, 0xdd, 
	0x1b, 0x21, 0x27, 0x12, 0x05, 0xd2, 0xd8, 0x02, 0xfd, 0xfd, 0x14, 0xe2, 
	0x20, 0xc6, 0xbb, 0xf8, 0xeb, 0x1c, 0x0a, 0xec, 0x19, 0x01, 0xe1, 0x1e, 
	0xd1, 0x17, 0x0d, 0xe1, 0x32, 0x09, 0x36, 0x17, 0xcd, 0x10, 0x2e, 0xc6, 
	0x2c, 0x14, 0xcd, 0x17, 0xe7, 0x0d, 0x11, 0x12, 0xe3, 0x0d, 0xdc, 0x2b, 
	0xe4, 0xda, 0xfb, 0xd4, 0x28, 0xdc, 0xf3, 0xe3, 0xee, 0x27, 0x0e, 0xee, 
	0x2d, 0xdb, 0x1f, 0x18, 0x0c, 0xef, 0x13, 0x04, 0xd8, 0xfc, 0xf6, 0xf1, 
	0xe0, 0x1c, 0xdd, 0x08, 0x13, 0xc4, 0x1a, 0x1a, 0x11, 0xdc, 0x1b, 0x24, 
	0xf3, 0xe9, 0x04, 0x1d, 0xf1, 0x1b, 0xed, 0x2f, 0x0b, 0x29, 0xcf, 0xe0, 
	0xe9, 0xe4, 0xe0, 0xe9, 0xed, 0xa5, 0xcf, 0x22, 0xef, 0x0c, 0xdd, 0xe4, 
	0x29, 0xed, 0x14, 0x21, 0x0d, 0x11, 0x00, 0x20, 0xfd, 0xf3, 0x27, 0x2a, 
	0x15, 0x24, 0xda, 0xe4, 0x0a, 0x01, 0xe9, 0xe6, 0xf2, 0x0f, 0xe9, 0xd5, 
	0xf1, 0xfe, 0x31, 0xe2, 0x1b, 0xd9, 0xd2, 0xe5, 0x23, 0x1d, 0xcf, 0xf8, 
	0x00, 0x26, 0xde, 0xe1, 0xfc, 0xfb, 0x02, 0x2d, 0xf0, 0xee, 0x12, 0xdb, 
	0xc7, 0xff, 0xfe, 0xe0, 0x2e, 0x1f, 0x12, 0xd0, 0x14, 0xdc, 0x16, 0xf8, 
	0xe9, 0x1f, 0x2c, 0xd7, 0x1c, 0xac, 0x02, 0xdf, 0x29, 0x27, 0xea, 0xd0, 
	0x14, 0xff, 0xe7, 0xe0, 0xf9, 0x2c, 0xfb, 0x13, 0x25, 0xd5, 0x2d, 0x09, 
	0x27, 0xde, 0x2c, 0x05, 0x2b, 0xed, 0x1d, 0x0e, 0x12, 0xef, 0x1c, 0xc7, 
	0x06, 0xf1, 0x06, 0x15, 0x16, 0x2c, 0x0a, 0x16, 0x04, 0x0e, 0xe3, 0xd3, 
	0x2b, 0xfc, 0xd0, 0xc8, 0xfa, 0xde, 0x1e, 0xf2, 0x25, 0x04, 0xf5, 0xeb, 
	0xe3, 0xb1, 0xdc, 0xf8, 0xf9, 0x30, 0x0a, 0xd3, 0x24, 0xd6, 0x00, 0xed, 
	0x01, 0x31, 0x29, 0xdd, 0xed, 0x01, 0xef, 0x1e, 0x2a, 0x0b, 0xd4, 0xdd, 
	0xe3, 0xcd, 0xf3, 0xd4, 0xe1, 0x22, 0x17, 0x30, 0x0b, 0x13, 0xd5, 0xef, 
	0xec, 0x22, 0x02, 0x00, 0x34, 0xfc, 0xd5, 0xee, 0xfa, 0x2d, 0x02, 0x05, 
	0xfc, 0xff, 0x27, 0x26, 0xe9, 0xe7, 0xf6, 0x0a, 0xf2, 0xf4, 0x29, 0x31, 
	0x29, 0x22, 0x26, 0xfc, 0x1b, 0xd5, 0x18, 0x33, 0xf3, 0xcd, 0x27, 0xee, 
	0xd9, 0xe4, 0x21, 0x05, 0x30, 0xec, 0xfd, 0x2d, 0xf1, 0x28, 0xdd, 0xd5, 
	0xf7, 0xdc, 0xf8, 0xf8, 0x04, 0x02, 0xe2, 0xd0, 0xe5, 0xe6, 0x2a, 0xfe, 
	0x31, 0x0d, 0xcb, 0x1b, 0xd3, 0x0e, 0xe7, 0x13, 0xec, 0x23, 0x0c, 0xf6, 
	0xf2, 0xdb, 0xed, 0x26, 0x2c, 0x13, 0x2d, 0xd8, 0xe8, 0x13, 0x2e, 0xfc, 
	0xe5, 0xd8, 0x31, 0x2f, 0x1e, 0xe3, 0x06, 0x21, 0xe1, 0x21, 0x12, 0x0a, 
	0xec, 0x14, 0x02, 0x0e, 0x25, 0xab, 0xd4, 0xde, 0x2a, 0x01, 0xe4, 0x29, 
	0xf3, 0xef, 0xc4, 0xee, 0x09, 0x14, 0x2d, 0xf0, 0x08, 0x2d, 0x11, 0x25, 
	0x17, 0x21, 0x07, 0x11, 0xe4, 0x2d, 0x32, 0x0e, 0x18, 0xef, 0x25, 0xc7, 
	0x11, 0xe0, 0x07, 0xf5, 0x1c, 0xe0, 0xff, 0x1c, 0x13, 0xcf, 0xd2, 0xf2, 
	0xce, 0xf6, 0x08, 0xbb, 0x09, 0xe6, 0x08, 0xf7, 0xe8, 0x0e, 0xea, 0x12, 
	0x1f, 0x1b, 0x29, 0x2f, 0xd5, 0x0d, 0x28, 0xd2, 0xd7, 0xd9, 0x1d, 0xfb, 
	0x1b, 0x06, 0x04, 0xc9, 0x04, 0x08, 0xf3, 0x24, 0x2f, 0xf0, 0x23, 0xc9, 
	0x03, 0x29, 0xc4, 0x1a, 0xf1, 0x07, 0x1e, 0xd4, 0x03, 0xdf, 0x23, 0xd3, 
	0xdf, 0xd5, 0x22, 0x1b, 0x01, 0xe8, 0x04, 0x17, 0xea, 0x00, 0xd6, 0xde, 
	0xf3, 0xf6, 0xe1, 0xcb, 0xe2, 0x27, 0xd1, 0x04, 0x2a, 0x20, 0x01, 0xd9, 
	0xe2, 0xe3, 0x2c, 0x18, 0xd5, 0xd7, 0x04, 0x0a, 0x0d, 0xdc, 0xff, 0xf3, 
	0x12, 0x0d, 0xd1, 0xfa, 0x0a, 0x2d, 0x0b, 0xec, 0xed, 0xe5, 0x1c, 0x11, 
	0x0f, 0xf3, 0x32, 0x19, 0x35, 0xc6, 0xea, 0x21, 0x22, 0x19, 0xf0, 0xfd, 
	0xd5, 0x22, 0xed, 0xe2, 0x1a, 0xfb, 0x00, 0xe1, 0xf0, 0xff, 0x27, 0x2c, 
	0xf0, 0x0b, 0xf9, 0x20, 0xf5, 0x1e, 0x12, 0x1f, 0xf6, 0xd7, 0xcc, 0xce, 
	0x02, 0xc2, 0xbc, 0xe8, 0xd5, 0xdd, 0x19, 0x02, 0xf3, 0xd0, 0xe4, 0xdb, 
	0x31, 0x22, 0x18, 0xd3, 0xdd, 0x24, 0x14, 0x26, 0xfc, 0x14, 0xf4, 0xc5, 
	0x0b, 0xec, 0xee, 0x17, 0xe3, 0x0c, 0x1c, 0x22, 0x12, 0x34, 0x32, 0xe5, 
	0xfc, 0xd2, 0xfd, 0x11, 0x15, 0x10, 0x05, 0xca, 0xce, 0xd1, 0x18, 0x0e, 
	0xcc, 0x20, 0xed, 0xe0, 0xf4, 0x2c, 0x04, 0x12, 0x28, 0x2e, 0xff, 0xd0, 
	0xe4, 0x18, 0x17, 0xfb, 0xfd, 0xd5, 0x25, 0x1f, 0xc3, 0xda, 0xca, 0xe5, 
	0xd3, 0xd2, 0x04, 0x03, 0xe2, 0xf3, 0xf4, 0x35, 0xf2, 0x11, 0x29, 0xd2, 
	0x04, 0xf1, 0x0f, 0xd1, 0x0d, 0xff, 0xec, 0xed, 0xf3, 0xee, 0xd2, 0xcd, 
	0xf0, 0xd9, 0xfe, 0xfd, 0xe6, 0xdc, 0xe8, 0xe5, 0x28, 0xe5, 0xe3, 0x31, 
	0x0f, 0xda, 0x29, 0x1a, 0xd7, 0xe9, 0x13, 0xd6, 0xd8, 0xff, 0xea, 0xce, 
	0xd6, 0xe1, 0xcd, 0xc8, 0xfa, 0x13, 0x2c, 0x32, 0x01, 0xf8, 0xd2, 0x0e, 
	0xe0, 0xcd, 0x13, 0xe1, 0xd8, 0xd3, 0x0d, 0xd1, 0xf5, 0xf0, 0x16, 0xf3, 
	0x2d, 0x00, 0xca, 0x17, 0x20, 0x31, 0xe3, 0xcf, 0xd4, 0x21, 0xd7, 0x0c, 
	0xe7, 0x2a, 0xe3, 0x23, 0xde, 0xa3, 0x12, 0xcd, 0xc6, 0x1a, 0xe9, 0x1c, 
	0xdf, 0xd5, 0x24, 0xdf, 0xfa, 0x0e, 0xf8, 0xef, 0x02, 0x0b, 0x17, 0x25, 
	0xef, 0xf6, 0xce, 0xd8, 0x1b, 0xf0, 0x2a, 0x0c, 0xea, 0x14, 0x00, 0xc7, 
	0x01, 0x0d, 0x11, 0xec, 0xf3, 0xda, 0x10, 0x14, 0x21, 0xd0, 0x27, 0x02, 
	0xf7, 0xcb, 0xeb, 0xe3, 0xfc, 0xa0, 0xfa, 0xc7, 0xbb, 0x14, 0xfd, 0xdd, 
	0x2a, 0xf8, 0x1c, 0x04, 0xf5, 0xd6, 0x01, 0x00, 0x1a, 0xee, 0xd4, 0x10, 
	0xf5, 0x09, 0x00, 0x02, 0xff, 0xe6, 0xf6, 0xff, 0xd3, 0xf6, 0xec, 0x0b, 
	0xcf, 0x1c, 0xfe, 0xfb, 0xd8, 0xcf, 0xfa, 0xf1, 0x01, 0x2a, 0x1b, 0x06, 
	0xf5, 0xfc, 0x2d, 0xf7, 0xe4, 0xba, 0xe8, 0xf3, 0xbc, 0x34, 0x16, 0xea, 
	0xda, 0xca, 0xbd, 0xde, 0xda, 0x2e, 0x0c, 0xee, 0xfc, 0x13, 0x2f, 0x04, 
	0x25, 0xf7, 0x30, 0x2d, 0xe7, 0x0e, 0xce, 0x1b, 0x2b, 0xf6, 0xfe, 0xb3, 
	0x0e, 0x03, 0xe2, 0x17, 0xdf, 0x0e, 0xfb, 0xdc, 0xed, 0xf2, 0x19, 0x2f, 
	0x1a, 0x0f, 0x16, 0xcb, 0x0b, 0x1d, 0xfe, 0xe0, 0x02, 0x2e, 0xd2, 0xf6, 
	0x26, 0xd1, 0xdf, 0x21, 0xdd, 0xd8, 0x2f, 0x23, 0xeb, 0x16, 0x05, 0x08, 
	0x02, 0xd5, 0x19, 0xee, 0xe9, 0xe8, 0x15, 0x0b, 0xdd, 0xfa, 0xe7, 0xdb, 
	0xe3, 0xfc, 0xea, 0xea, 0xde, 0xd8, 0xe5, 0xf9, 0xd1, 0x22, 0x0e, 0x27, 
	0xec, 0xd5, 0x1d, 0x1f, 0xd7, 0x06, 0x15, 0x1a, 0xe7, 0x01, 0x10, 0x0b, 
	0x0d, 0x28, 0xcc, 0xf5, 0xd4, 0x33, 0xda, 0x18, 0xea, 0xee, 0x03, 0x00, 
	0xda, 0xe2, 0x20, 0xee, 0xfc, 0x00, 0xe5, 0xc6, 0x09, 0xd6, 0xd9, 0xd4, 
	0xe6, 0x0d, 0x06, 0x0e, 0x27, 0x0d, 0x15, 0x2a, 0x0c, 0x2c, 0xd7, 0x31, 
	0xdb, 0xe3, 0x13, 0xda, 0x07, 0x19, 0x2d, 0x22, 0x31, 0xf8, 0xfb, 0x0a, 
	0xd6, 0x15, 0x1e, 0xfe, 0xf2, 0x30, 0x15, 0xf3, 0xfd, 0x11, 0xeb, 0x15, 
	0x09, 0x20, 0x23, 0xde, 0xe8, 0xb7, 0x14, 0x08, 0x04, 0x00, 0xd8, 0xc9, 
	0xda, 0xf2, 0xef, 0x1e, 0x1b, 0xde, 0x22, 0xe2, 0xea, 0xd9, 0x31, 0x05, 
	0xff, 0x1d, 0x11, 0x2b, 0x2f, 0xc2, 0x08, 0xf1, 0xec, 0x24, 0x1c, 0x21, 
	0x0b, 0x06, 0x15, 0xf3, 0xd5, 0x00, 0xe2, 0x33, 0x11, 0x31, 0x33, 0x08, 
	0x1e, 0xcf, 0xe9, 0x01, 0x2a, 0xe4, 0xf2, 0xdd, 0x03, 0xfd, 0x25, 0x18, 
	0x38, 0xed, 0x1e, 0x11, 0xe0, 0xef, 0x2f, 0x02, 0x2b, 0x12, 0xd4, 0x03, 
	0xd3, 0xe5, 0x32, 0x1a, 0x1a, 0xfa, 0xe4, 0xcc, 0x0a, 0x06, 0xe8, 0x08, 
	0x0f, 0x00, 0xd5, 0x0d, 0x21, 0x30, 0x25, 0x27, 0x32, 0xcf, 0x2b, 0x16, 
	0xdf, 0x03, 0xe8, 0xd4, 0xcc, 0xb2, 0xd0, 0x00, 0x02, 0xdb, 0x23, 0xe3, 
	0xed, 0x07, 0x14, 0xd9, 0x13, 0xce, 0xdc, 0x27, 0xf0, 0xe8, 0xdc, 0x28, 
	0x09, 0x17, 0x2e, 0xdd, 0xf0, 0xe6, 0xdf, 0xd3, 0xe1, 0xdf, 0xc1, 0xef, 
	0x28, 0x07, 0x26, 0x2b, 0xd3, 0x02, 0x0a, 0x2d, 0x04, 0x0c, 0xcd, 0xfe, 
	0xfa, 0xea, 0x05, 0xec, 0xe0, 0xd3, 0x11, 0xe4, 0xdf, 0xfa, 0x14, 0xd0, 
	0x03, 0xed, 0xfc, 0xd8, 0xce, 0xff, 0xff, 0xff, 0x04, 0x00, 0x00, 0x00, 
	0x24, 0x00, 0x00, 0x00, 0x76, 0xff, 0xff, 0xff, 0x78, 0x00, 0x00, 0x00, 
	0x63, 0x02, 0x00, 0x00, 0x5e, 0xfb, 0xff, 0xff, 0x6d, 0x01, 0x00, 0x00, 
	0x2d, 0x00, 0x00, 0x00, 0x68, 0xfe, 0xff, 0xff, 0xb3, 0x00, 0x00, 0x00, 
	0xdd, 0x00, 0x00, 0x00, 0x00, 0x00, 0x06, 0x00, 0x08, 0x00, 0x04, 0x00, 
	0x06, 0x00, 0x00, 0x00, 0x04, 0x00, 0x00, 0x00, 0x08, 0x00, 0x00, 0x00, 
	0xff, 0xff, 0xff, 0xff, 0x58, 0x02, 0x00, 0x00, 0x08, 0xee, 0xff, 0xff, 
	0x0c, 0xee, 0xff, 0xff, 0x0f, 0x00, 0x00, 0x00, 0x4d, 0x4c, 0x49, 0x52, 
	0x20, 0x43, 0x6f, 0x6e, 0x76, 0x65, 0x72, 0x74, 0x65, 0x64, 0x2e, 0x00, 
	0x01, 0x00, 0x00, 0x00, 0x14, 0x00, 0x00, 0x00, 0x00, 0x00, 0x0e, 0x00, 
	0x18, 0x00, 0x14, 0x00, 0x10, 0x00, 0x0c, 0x00, 0x08, 0x00, 0x04, 0x00, 
	0x0e, 0x00, 0x00, 0x00, 0x14, 0x00, 0x00, 0x00, 0x1c, 0x00, 0x00, 0x00, 
	0xa4, 0x02, 0x00, 0x00, 0xa8, 0x02, 0x00, 0x00, 0xac, 0x02, 0x00, 0x00, 
	0x04, 0x00, 0x00, 0x00, 0x6d, 0x61, 0x69, 0x6e, 0x00, 0x00, 0x00, 0x00, 
	0x0a, 0x00, 0x00, 0x00, 0x6c, 0x02, 0x00, 0x00, 0x0c, 0x02, 0x00, 0x00, 
	0xa8, 0x01, 0x00, 0x00, 0x60, 0x01, 0x00, 0x00, 0x1c, 0x01, 0x00, 0x00, 
	0xd4, 0x00, 0x00, 0x00, 0x90, 0x00, 0x00, 0x00, 0x68, 0x00, 0x00, 0x00, 
	0x24, 0x00, 0x00, 0x00, 0x04, 0x00, 0x00, 0x00, 0xc6, 0xfd, 0xff, 0xff, 
	0x08, 0x00, 0x00, 0x00, 0x0c, 0x00, 0x00, 0x00, 0x01, 0x00, 0x00, 0x00, 
	0x13, 0x00, 0x00, 0x00, 0x01, 0x00, 0x00, 0x00, 0x12, 0x00, 0x00, 0x00, 
	0x42, 0xfe, 0xff, 0xff, 0x14, 0x00, 0x00, 0x00, 0x00, 0x00, 0x00, 0x08, 
	0x10, 0x00, 0x00, 0x00, 0x14, 0x00, 0x00, 0x00, 0x04, 0x00, 0x00, 0x00, 
	0xc0, 0xee, 0xff, 0xff, 0x01, 0x00, 0x00, 0x00, 0x12, 0x00, 0x00, 0x00, 
	0x03, 0x00, 0x00, 0x00, 0x11, 0x00, 0x00, 0x00, 0x03, 0x00, 0x00, 0x00, 
	0x02, 0x00, 0x00, 0x00, 0x00, 0x00, 0x0a, 0x00, 0x10, 0x00, 0x0c, 0x00, 
	0x08, 0x00, 0x04, 0x00, 0x0a, 0x00, 0x00, 0x00, 0x0c, 0x00, 0x00, 0x00, 
	0x10, 0x00, 0x00, 0x00, 0x03, 0x00, 0x00, 0x00, 0x01, 0x00, 0x00, 0x00, 
	0x11, 0x00, 0x00, 0x00, 0x02, 0x00, 0x00, 0x00, 0x10, 0x00, 0x00, 0x00, 
	0x01, 0x00, 0x00, 0x00, 0xa6, 0xfe, 0xff, 0xff, 0x14, 0x00, 0x00, 0x00, 
	0x00, 0x00, 0x00, 0x05, 0x24, 0x00, 0x00, 0x00, 0x28, 0x00, 0x00, 0x00, 
	0x02, 0x00, 0x00, 0x00, 0xf6, 0xfe, 0xff, 0xff, 0x02, 0x00, 0x00, 0x00, 
	0x02, 0x00, 0x00, 0x00, 0x02, 0x00, 0x00, 0x00, 0x02, 0x00, 0x00, 0x00, 
	0x00, 0x00, 0x00, 0x01, 0x01, 0x00, 0x00, 0x00, 0x10, 0x00, 0x00, 0x00, 
	0x01, 0x00, 0x00, 0x00, 0x0f, 0x00, 0x00, 0x00, 0xe6, 0xfe, 0xff, 0xff, 
	0x14, 0x00, 0x00, 0x00, 0x00, 0x00, 0x00, 0x01, 0x20, 0x00, 0x00, 0x00, 
	0x24, 0x00, 0x00, 0x00, 0x01, 0x00, 0x00, 0x00, 0xd8, 0xfe, 0xff, 0xff, 
	0x00, 0x00, 0x00, 0x01, 0x01, 0x00, 0x00, 0x00, 0x01, 0x00, 0x00, 0x00, 
	0x00, 0x00, 0x00, 0x01, 0x01, 0x00, 0x00, 0x00, 0x0f, 0x00, 0x00, 0x00, 
	0x03, 0x00, 0x00, 0x00, 0x0e, 0x00, 0x00, 0x00, 0x05, 0x00, 0x00, 0x00, 
	0x04, 0x00, 0x00, 0x00, 0x2a, 0xff, 0xff, 0xff, 0x14, 0x00, 0x00, 0x00, 
	0x00, 0x00, 0x00, 0x05, 0x24, 0x00, 0x00, 0x00, 0x28, 0x00, 0x00, 0x00, 
	0x02, 0x00, 0x00, 0x00, 0x7a, 0xff, 0xff, 0xff, 0x02, 0x00, 0x00, 0x00, 
	0x02, 0x00, 0x00, 0x00, 0x02, 0x00, 0x00, 0x00, 0x02, 0x00, 0x00, 0x00, 
	0x00, 0x00, 0x00, 0x01, 0x01, 0x00, 0x00, 0x00, 0x0e, 0x00, 0x00, 0x00, 
	0x01, 0x00, 0x00, 0x00, 0x0d, 0x00, 0x00, 0x00, 0x6a, 0xff, 0xff, 0xff, 
	0x14, 0x00, 0x00, 0x00, 0x00, 0x00, 0x00, 0x01, 0x20, 0x00, 0x00, 0x00, 
	0x24, 0x00, 0x00, 0x00, 0x01, 0x00, 0x00, 0x00, 0x5c, 0xff, 0xff, 0xff, 
	0x00, 0x00, 0x00, 0x01, 0x01, 0x00, 0x00, 0x00, 0x01, 0x00, 0x00, 0x00, 
	0x00, 0x00, 0x00, 0x01, 0x01, 0x00, 0x00, 0x00, 0x0d, 0x00, 0x00, 0x00, 
	0x03, 0x00, 0x00, 0x00, 0x0c, 0x00, 0x00, 0x00, 0x07, 0x00, 0x00, 0x00, 
	0x06, 0x00, 0x00, 0x00, 0xae, 0xff, 0xff, 0xff, 0x24, 0x00, 0x00, 0x00, 
	0x00, 0x00, 0x00, 0x05, 0x34, 0x00, 0x00, 0x00, 0x38, 0x00, 0x00, 0x00, 
	0x02, 0x00, 0x00, 0x00, 0x00, 0x00, 0x0e, 0x00, 0x18, 0x00, 0x17, 0x00, 
	0x10, 0x00, 0x0c, 0x00, 0x08, 0x00, 0x04, 0x00, 0x0e, 0x00, 0x00, 0x00, 
	0x02, 0x00, 0x00, 0x00, 0x02, 0x00, 0x00, 0x00, 0x02, 0x00, 0x00, 0x00, 
	0x02, 0x00, 0x00, 0x00, 0x00, 0x00, 0x00, 0x01, 0x01, 0x00, 0x00, 0x00, 
	0x0c, 0x00, 0x00, 0x00, 0x01, 0x00, 0x00, 0x00, 0x0b, 0x00, 0x00, 0x00, 
	0x00, 0x00, 0x0e, 0x00, 0x18, 0x00, 0x14, 0x00, 0x10, 0x00, 0x0c, 0x00, 
	0x0b, 0x00, 0x04, 0x00, 0x0e, 0x00, 0x00, 0x00, 0x20, 0x00, 0x00, 0x00, 
	0x00, 0x00, 0x00, 0x01, 0x2c, 0x00, 0x00, 0x00, 0x30, 0x00, 0x00, 0x00, 
	0x01, 0x00, 0x00, 0x00, 0x0c, 0x00, 0x14, 0x00, 0x13, 0x00, 0x0c, 0x00, 
	0x08, 0x00, 0x07, 0x00, 0x0c, 0x00, 0x00, 0x00, 0x00, 0x00, 0x00, 0x01, 
	0x01, 0x00, 0x00, 0x00, 0x01, 0x00, 0x00, 0x00, 0x00, 0x00, 0x00, 0x01, 
	0x01, 0x00, 0x00, 0x00, 0x0b, 0x00, 0x00, 0x00, 0x03, 0x00, 0x00, 0x00, 
	0x0a, 0x00, 0x00, 0x00, 0x09, 0x00, 0x00, 0x00, 0x08, 0x00, 0x00, 0x00, 
	0x00, 0x00, 0x0a, 0x00, 0x0c, 0x00, 0x00, 0x00, 0x08, 0x00, 0x04, 0x00, 
	0x0a, 0x00, 0x00, 0x00, 0x08, 0x00, 0x00, 0x00, 0x0c, 0x00, 0x00, 0x00, 
	0x01, 0x00, 0x00, 0x00, 0x0a, 0x00, 0x00, 0x00, 0x01, 0x00, 0x00, 0x00, 
	0x00, 0x00, 0x00, 0x00, 0x01, 0x00, 0x00, 0x00, 0x13, 0x00, 0x00, 0x00, 
	0x01, 0x00, 0x00, 0x00, 0x00, 0x00, 0x00, 0x00, 0x14, 0x00, 0x00, 0x00, 
	0x4c, 0x0f, 0x00, 0x00, 0xe0, 0x0e, 0x00, 0x00, 0x50, 0x0e, 0x00, 0x00, 
	0xe4, 0x0d, 0x00, 0x00, 0x50, 0x0c, 0x00, 0x00, 0xc4, 0x0a, 0x00, 0x00, 
	0x90, 0x09, 0x00, 0x00, 0x64, 0x08, 0x00, 0x00, 0x90, 0x07, 0x00, 0x00, 
	0xc4, 0x06, 0x00, 0x00, 0x40, 0x06, 0x00, 0x00, 0x4c, 0x05, 0x00, 0x00, 
	0xb0, 0x04, 0x00, 0x00, 0xb4, 0x03, 0x00, 0x00, 0x18, 0x03, 0x00, 0x00, 
	0x1c, 0x02, 0x00, 0x00, 0x80, 0x01, 0x00, 0x00, 0xfc, 0x00, 0x00, 0x00, 
	0x80, 0x00, 0x00, 0x00, 0x04, 0x00, 0x00, 0x00, 0x1a, 0xf1, 0xff, 0xff, 
	0x00, 0x00, 0x00, 0x01, 0x18, 0x00, 0x00, 0x00, 0x20, 0x00, 0x00, 0x00, 
	0x3c, 0x00, 0x00, 0x00, 0x14, 0x00, 0x00, 0x00, 0x00, 0x00, 0x00, 0x03, 
	0x50, 0x00, 0x00, 0x00, 0x02, 0x00, 0x00, 0x00, 0xff, 0xff, 0xff, 0xff, 
	0x09, 0x00, 0x00, 0x00, 0xfc, 0xf0, 0xff, 0xff, 0x08, 0x00, 0x00, 0x00, 
	0x10, 0x00, 0x00, 0x00, 0x01, 0x00, 0x00, 0x00, 0xc3, 0x00, 0x00, 0x00, 
	0x00, 0x00, 0x00, 0x00, 0x01, 0x00, 0x00, 0x00, 0x4f, 0x97, 0xa4, 0x3d, 
	0x19, 0x00, 0x00, 0x00, 0x53, 0x74, 0x61, 0x74, 0x65, 0x66, 0x75, 0x6c, 
	0x50, 0x61, 0x72, 0x74, 0x69, 0x74, 0x69, 0x6f, 0x6e, 0x65, 0x64, 0x43, 
	0x61, 0x6c, 0x6c, 0x3a, 0x30, 0x00, 0x00, 0x00, 0x02, 0x00, 0x00, 0x00, 
	0x01, 0x00, 0x00, 0x00, 0x09, 0x00, 0x00, 0x00, 0x92, 0xf1, 0xff, 0xff, 
	0x00, 0x00, 0x00, 0x01, 0x18, 0x00, 0x00, 0x00, 0x20, 0x00, 0x00, 0x00, 
	0x3c, 0x00, 0x00, 0x00, 0x13, 0x00, 0x00, 0x00, 0x00, 0x00, 0x00, 0x09, 
	0x50, 0x00, 0x00, 0x00, 0x02, 0x00, 0x00, 0x00, 0xff, 0xff, 0xff, 0xff, 
	0x09, 0x00, 0x00, 0x00, 0x74, 0xf1, 0xff, 0xff, 0x08, 0x00, 0x00, 0x00, 
	0x10, 0x00, 0x00, 0x00, 0x01, 0x00, 0x00, 0x00, 0x43, 0x00, 0x00, 0x00, 
	0x00, 0x00, 0x00, 0x00, 0x01, 0x00, 0x00, 0x00, 0x4f, 0x97, 0xa4, 0x3d, 
	0x1a, 0x00, 0x00, 0x00, 0x53, 0x74, 0x61, 0x74, 0x65, 0x66, 0x75, 0x6c, 
	0x50, 0x61, 0x72, 0x74, 0x69, 0x74, 0x69, 0x6f, 0x6e, 0x65, 0x64, 0x43, 
	0x61, 0x6c, 0x6c, 0x3a, 0x30, 0x31, 0x00, 0x00, 0x02, 0x00, 0x00, 0x00, 
	0x01, 0x00, 0x00, 0x00, 0x09, 0x00, 0x00, 0x00, 0x0a, 0xf2, 0xff, 0xff, 
	0x00, 0x00, 0x00, 0x01, 0x18, 0x00, 0x00, 0x00, 0x20, 0x00, 0x00, 0x00, 
	0x40, 0x00, 0x00, 0x00, 0x12, 0x00, 0x00, 0x00, 0x00, 0x00, 0x00, 0x09, 
	0x58, 0x00, 0x00, 0x00, 0x02, 0x00, 0x00, 0x00, 0xff, 0xff, 0xff, 0xff, 
	0x58, 0x02, 0x00, 0x00, 0xec, 0xf1, 0xff, 0xff, 0x08, 0x00, 0x00, 0x00, 
	0x14, 0x00, 0x00, 0x00, 0x01, 0x00, 0x00, 0x00, 0x80, 0xff, 0xff, 0xff, 
	0xff, 0xff, 0xff, 0xff, 0x00, 0x00, 0x00, 0x00, 0x01, 0x00, 0x00, 0x00, 
	0x6d, 0xa0, 0xad, 0x3d, 0x1e, 0x00, 0x00, 0x00, 0x73, 0x65, 0x71, 0x75, 
	0x65, 0x6e, 0x74, 0x69, 0x61, 0x6c, 0x5f, 0x33, 0x2f, 0x66, 0x6c, 0x61, 
	0x74, 0x74, 0x65, 0x6e, 0x5f, 0x33, 0x2f, 0x52, 0x65, 0x73, 0x68, 0x61, 
	0x70, 0x65, 0x00, 0x00, 0x02, 0x00, 0x00, 0x00, 0x01, 0x00, 0x00, 0x00, 
	0x58, 0x02, 0x00, 0x00, 0x8a, 0xf2, 0xff, 0xff, 0x00, 0x00, 0x00, 0x01, 
	0x18, 0x00, 0x00, 0x00, 0x28, 0x00, 0x00, 0x00, 0x48, 0x00, 0x00, 0x00, 
	0x11, 0x00, 0x00, 0x00, 0x00, 0x00, 0x00, 0x09, 0x68, 0x00, 0x00, 0x00, 
	0x04, 0x00, 0x00, 0x00, 0xff, 0xff, 0xff, 0xff, 0x05, 0x00, 0x00, 0x00, 
	0x05, 0x00, 0x00, 0x00, 0x18, 0x00, 0x00, 0x00, 0x74, 0xf2, 0xff, 0xff, 
	0x08, 0x00, 0x00, 0x00, 0x14, 0x00, 0x00, 0x00, 0x01, 0x00, 0x00, 0x00, 
	0x80, 0xff, 0xff, 0xff, 0xff, 0xff, 0xff, 0xff, 0x00, 0x00, 0x00, 0x00, 
	0x01, 0x00, 0x00, 0x00, 0x6d, 0xa0, 0xad, 0x3d, 0x25, 0x00, 0x00, 0x00, 
	0x73, 0x65, 0x71, 0x75, 0x65, 0x6e, 0x74, 0x69, 0x61, 0x6c, 0x5f, 0x33, 
	0x2f, 0x6d, 0x61, 0x78, 0x5f, 0x70, 0x6f, 0x6f, 0x6c, 0x69, 0x6e, 0x67, 
	0x32, 0x64, 0x5f, 0x31, 0x31, 0x2f, 0x4d, 0x61, 0x78, 0x50, 0x6f, 0x6f, 
	0x6c, 0x00, 0x00, 0x00, 0x04, 0x00, 0x00, 0x00, 0x01, 0x00, 0x00, 0x00, 
	0x05, 0x00, 0x00, 0x00, 0x05, 0x00, 0x00, 0x00, 0x18, 0x00, 0x00, 0x00, 
	0x22, 0xf3, 0xff, 0xff, 0x00, 0x00, 0x00, 0x01, 0x18, 0x00, 0x00, 0x00, 
	0x28, 0x00, 0x00, 0x00, 0x48, 0x00, 0x00, 0x00, 0x10, 0x00, 0x00, 0x00, 
	0x00, 0x00, 0x00, 0x09, 0xc8, 0x00, 0x00, 0x00, 0x04, 0x00, 0x00, 0x00, 
	0xff, 0xff, 0xff, 0xff, 0x0a, 0x00, 0x00, 0x00, 0x0a, 0x00, 0x00, 0x00, 
	0x18, 0x00, 0x00, 0x00, 0x0c, 0xf3, 0xff, 0xff, 0x08, 0x00, 0x00, 0x00, 
	0x14, 0x00, 0x00, 0x00, 0x01, 0x00, 0x00, 0x00, 0x80, 0xff, 0xff, 0xff, 
	0xff, 0xff, 0xff, 0xff, 0x00, 0x00, 0x00, 0x00, 0x01, 0x00, 0x00, 0x00, 
	0x6d, 0xa0, 0xad, 0x3d, 0x86, 0x00, 0x00, 0x00, 0x73, 0x65, 0x71, 0x75, 
	0x65, 0x6e, 0x74, 0x69, 0x61, 0x6c, 0x5f, 0x33, 0x2f, 0x63, 0x6f, 0x6e, 
	0x76, 0x32, 0x64, 0x5f, 0x31, 0x31, 0x2f, 0x52, 0x65, 0x6c, 0x75, 0x3b, 
	0x73, 0x65, 0x71, 0x75, 0x65, 0x6e, 0x74, 0x69, 0x61, 0x6c, 0x5f, 0x33, 
	0x2f, 0x63, 0x6f, 0x6e, 0x76, 0x32, 0x64, 0x5f, 0x31, 0x31, 0x2f, 0x42, 
	0x69, 0x61, 0x73, 0x41, 0x64, 0x64, 0x3b, 0x73, 0x65, 0x71, 0x75, 0x65, 
	0x6e, 0x74, 0x69, 0x61, 0x6c, 0x5f, 0x33, 0x2f, 0x63, 0x6f, 0x6e, 0x76, 
	0x32, 0x64, 0x5f, 0x31, 0x31, 0x2f, 0x43, 0x6f, 0x6e, 0x76, 0x32, 0x44, 
	0x3b, 0x73, 0x65, 0x71, 0x75, 0x65, 0x6e, 0x74, 0x69, 0x61, 0x6c, 0x5f, 
	0x33, 0x2f, 0x63, 0x6f, 0x6e, 0x76, 0x32, 0x64, 0x5f, 0x31, 0x31, 0x2f, 
	0x42, 0x69, 0x61, 0x73, 0x41, 0x64, 0x64, 0x2f, 0x52, 0x65, 0x61, 0x64, 
	0x56, 0x61, 0x72, 0x69, 0x61, 0x62, 0x6c, 0x65, 0x4f, 0x70, 0x00, 0x00, 
	0x04, 0x00, 0x00, 0x00, 0x01, 0x00, 0x00, 0x00, 0x0a, 0x00, 0x00, 0x00, 
	0x0a, 0x00, 0x00, 0x00, 0x18, 0x00, 0x00, 0x00, 0x1a, 0xf4, 0xff, 0xff, 
	0x00, 0x00, 0x00, 0x01, 0x18, 0x00, 0x00, 0x00, 0x28, 0x00, 0x00, 0x00, 
	0x48, 0x00, 0x00, 0x00, 0x0f, 0x00, 0x00, 0x00, 0x00, 0x00, 0x00, 0x09, 
	0x68, 0x00, 0x00, 0x00, 0x04, 0x00, 0x00, 0x00, 0xff, 0xff, 0xff, 0xff, 
	0x0c, 0x00, 0x00, 0x00, 0x0c, 0x00, 0x00, 0x00, 0x10, 0x00, 0x00, 0x00, 
	0x04, 0xf4, 0xff, 0xff, 0x08, 0x00, 0x00, 0x00, 0x14, 0x00, 0x00, 0x00, 
	0x01, 0x00, 0x00, 0x00, 0x80, 0xff, 0xff, 0xff, 0xff, 0xff, 0xff, 0xff, 
	0x00, 0x00, 0x00, 0x00, 0x01, 0x00, 0x00, 0x00, 0x46, 0xe1, 0xaf, 0x3e, 
	0x25, 0x00, 0x00, 0x00, 0x73, 0x65, 0x71, 0x75, 0x65, 0x6e, 0x74, 0x69, 
	0x61, 0x6c, 0x5f, 0x33, 0x2f, 0x6d, 0x61, 0x78, 0x5f, 0x70, 0x6f, 0x6f, 
	0x6c, 0x69, 0x6e, 0x67, 0x32, 0x64, 0x5f, 0x31, 0x30, 0x2f, 0x4d, 0x61, 
	0x78, 0x50, 0x6f, 0x6f, 0x6c, 0x00, 0x00, 0x00, 0x04, 0x00, 0x00, 0x00, 
	0x01, 0x00, 0x00, 0x00, 0x0c, 0x00, 0x00, 0x00, 0x0c, 0x00, 0x00, 0x00, 
	0x10, 0x00, 0x00, 0x00, 0xb2, 0xf4, 0xff, 0xff, 0x00, 0x00, 0x00, 0x01, 
	0x18, 0x00, 0x00, 0x00, 0x28, 0x00, 0x00, 0x00, 0x48, 0x00, 0x00, 0x00, 
	0x0e, 0x00, 0x00, 0x00, 0x00, 0x00, 0x00, 0x09, 0xc8, 0x00, 0x00, 0x00, 
	0x04, 0x00, 0x00, 0x00, 0xff, 0xff, 0xff, 0xff, 0x18, 0x00, 0x00, 0x00, 
	0x18, 0x00, 0x00, 0x00, 0x10, 0x00, 0x00, 0x00, 0x9c, 0xf4, 0xff, 0xff, 
	0x08, 0x00, 0x00, 0x00, 0x14, 0x00, 0x00, 0x00, 0x01, 0x00, 0x00, 0x00, 
	0x80, 0xff, 0xff, 0xff, 0xff, 0xff, 0xff, 0xff, 0x00, 0x00, 0x00, 0x00, 
	0x01, 0x00, 0x00, 0x00, 0x46, 0xe1, 0xaf, 0x3e, 0x86, 0x00, 0x00, 0x00, 
	0x73, 0x65, 0x71, 0x75, 0x65, 0x6e, 0x74, 0x69, 0x61, 0x6c, 0x5f, 0x33, 
	0x2f, 0x63, 0x6f, 0x6e, 0x76, 0x32, 0x64, 0x5f, 0x31, 0x30, 0x2f, 0x52, 
	0x65, 0x6c, 0x75, 0x3b, 0x73, 0x65, 0x71, 0x75, 0x65, 0x6e, 0x74, 0x69, 
	0x61, 0x6c, 0x5f, 0x33, 0x2f, 0x63, 0x6f, 0x6e, 0x76, 0x32, 0x64, 0x5f, 
	0x31, 0x30, 0x2f, 0x42, 0x69, 0x61, 0x73, 0x41, 0x64, 0x64, 0x3b, 0x73, 
	0x65, 0x71, 0x75, 0x65, 0x6e, 0x74, 0x69, 0x61, 0x6c, 0x5f, 0x33, 0x2f, 
	0x63, 0x6f, 0x6e, 0x76, 0x32, 0x64, 0x5f, 0x31, 0x30, 0x2f, 0x43, 0x6f, 
	0x6e, 0x76, 0x32, 0x44, 0x3b, 0x73, 0x65, 0x71, 0x75, 0x65, 0x6e, 0x74, 
	0x69, 0x61, 0x6c, 0x5f, 0x33, 0x2f, 0x63, 0x6f, 0x6e, 0x76, 0x32, 0x64, 
	0x5f, 0x31, 0x30, 0x2f, 0x42, 0x69, 0x61, 0x73, 0x41, 0x64, 0x64, 0x2f, 
	0x52, 0x65, 0x61, 0x64, 0x56, 0x61, 0x72, 0x69, 0x61, 0x62, 0x6c, 0x65, 
	0x4f, 0x70, 0x00, 0x00, 0x04, 0x00, 0x00, 0x00, 0x01, 0x00, 0x00, 0x00, 
	0x18, 0x00, 0x00, 0x00, 0x18, 0x00, 0x00, 0x00, 0x10, 0x00, 0x00, 0x00, 
	0xaa, 0xf5, 0xff, 0xff, 0x00, 0x00, 0x00, 0x01, 0x18, 0x00, 0x00, 0x00, 
	0x28, 0x00, 0x00, 0x00, 0x48, 0x00, 0x00, 0x00, 0x0d, 0x00, 0x00, 0x00, 
	0x00, 0x00, 0x00, 0x09, 0x68, 0x00, 0x00, 0x00, 0x04, 0x00, 0x00, 0x00, 
	0xff, 0xff, 0xff, 0xff, 0x1a, 0x00, 0x00, 0x00, 0x1a, 0x00, 0x00, 0x00, 
	0x08, 0x00, 0x00, 0x00, 0x94, 0xf5, 0xff, 0xff, 0x08, 0x00, 0x00, 0x00, 
	0x14, 0x00, 0x00, 0x00, 0x01, 0x00, 0x00, 0x00, 0x80, 0xff, 0xff, 0xff, 
	0xff, 0xff, 0xff, 0xff, 0x00, 0x00, 0x00, 0x00, 0x01, 0x00, 0x00, 0x00, 
	0x4a, 0x97, 0x33, 0x3f, 0x24, 0x00, 0x00, 0x00, 0x73, 0x65, 0x71, 0x75, 
	0x65, 0x6e, 0x74, 0x69, 0x61, 0x6c, 0x5f, 0x33, 0x2f, 0x6d, 0x61, 0x78, 
	0x5f, 0x70, 0x6f, 0x6f, 0x6c, 0x69, 0x6e, 0x67, 0x32, 0x64, 0x5f, 0x39, 
	0x2f, 0x4d, 0x61, 0x78, 0x50, 0x6f, 0x6f, 0x6c, 0x00, 0x00, 0x00, 0x00, 
	0x04, 0x00, 0x00, 0x00, 0x01, 0x00, 0x00, 0x00, 0x1a, 0x00, 0x00, 0x00, 
	0x1a, 0x00, 0x00, 0x00, 0x08, 0x00, 0x00, 0x00, 0x42, 0xf6, 0xff, 0xff, 
	0x00, 0x00, 0x00, 0x01, 0x18, 0x00, 0x00, 0x00, 0x28, 0x00, 0x00, 0x00, 
	0x44, 0x00, 0x00, 0x00, 0x0c, 0x00, 0x00, 0x00, 0x00, 0x00, 0x00, 0x09, 
	0xc0, 0x00, 0x00, 0x00, 0x04, 0x00, 0x00, 0x00, 0xff, 0xff, 0xff, 0xff, 
	0x34, 0x00, 0x00, 0x00, 0x34, 0x00, 0x00, 0x00, 0x08, 0x00, 0x00, 0x00, 
	0x2c, 0xf6, 0xff, 0xff, 0x08, 0x00, 0x00, 0x00, 0x10, 0x00, 0x00, 0x00, 
	0x01, 0x00, 0x00, 0x00, 0x80, 0xff, 0xff, 0xff, 0xff, 0xff, 0xff, 0xff, 
	0x01, 0x00, 0x00, 0x00, 0x4a, 0x97, 0x33, 0x3f, 0x82, 0x00, 0x00, 0x00, 
	0x73, 0x65, 0x71, 0x75, 0x65, 0x6e, 0x74, 0x69, 0x61, 0x6c, 0x5f, 0x33, 
	0x2f, 0x63, 0x6f, 0x6e, 0x76, 0x32, 0x64, 0x5f, 0x39, 0x2f, 0x52, 0x65, 
	0x6c, 0x75, 0x3b, 0x73, 0x65, 0x71, 0x75, 0x65, 0x6e, 0x74, 0x69, 0x61, 
	0x6c, 0x5f, 0x33, 0x2f, 0x63, 0x6f, 0x6e, 0x76, 0x32, 0x64, 0x5f, 0x39, 
	0x2f, 0x42, 0x69, 0x61, 0x73, 0x41, 0x64, 0x64, 0x3b, 0x73, 0x65, 0x71, 
	0x75, 0x65, 0x6e, 0x74, 0x69, 0x61, 0x6c, 0x5f, 0x33, 0x2f, 0x63, 0x6f, 
	0x6e, 0x76, 0x32, 0x64, 0x5f, 0x39, 0x2f, 0x43, 0x6f, 0x6e, 0x76, 0x32, 
	0x44, 0x3b, 0x73, 0x65, 0x71, 0x75, 0x65, 0x6e, 0x74, 0x69, 0x61, 0x6c, 
	0x5f, 0x33, 0x2f, 0x63, 0x6f, 0x6e, 0x76, 0x32, 0x64, 0x5f, 0x39, 0x2f, 
	0x42, 0x69, 0x61, 0x73, 0x41, 0x64, 0x64, 0x2f, 0x52, 0x65, 0x61, 0x64, 
	0x56, 0x61, 0x72, 0x69, 0x61, 0x62, 0x6c, 0x65, 0x4f, 0x70, 0x00, 0x00, 
	0x04, 0x00, 0x00, 0x00, 0x01, 0x00, 0x00, 0x00, 0x34, 0x00, 0x00, 0x00, 
	0x34, 0x00, 0x00, 0x00, 0x08, 0x00, 0x00, 0x00, 0x32, 0xf7, 0xff, 0xff, 
	0x00, 0x00, 0x00, 0x01, 0x18, 0x00, 0x00, 0x00, 0x28, 0x00, 0x00, 0x00, 
	0x48, 0x00, 0x00, 0x00, 0x0b, 0x00, 0x00, 0x00, 0x00, 0x00, 0x00, 0x09, 
	0x50, 0x00, 0x00, 0x00, 0x04, 0x00, 0x00, 0x00, 0xff, 0xff, 0xff, 0xff, 
	0x36, 0x00, 0x00, 0x00, 0x36, 0x00, 0x00, 0x00, 0x01, 0x00, 0x00, 0x00, 
	0x1c, 0xf7, 0xff, 0xff, 0x08, 0x00, 0x00, 0x00, 0x14, 0x00, 0x00, 0x00, 
	0x01, 0x00, 0x00, 0x00, 0x80, 0xff, 0xff, 0xff, 0xff, 0xff, 0xff, 0xff, 
	0x00, 0x00, 0x00, 0x00, 0x01, 0x00, 0x00, 0x00, 0x00, 0x00, 0x80, 0x3f, 
	0x0c, 0x00, 0x00, 0x00, 0x74, 0x66, 0x6c, 0x2e, 0x71, 0x75, 0x61, 0x6e, 
	0x74, 0x69, 0x7a, 0x65, 0x00, 0x00, 0x00, 0x00, 0x04, 0x00, 0x00, 0x00, 
	0x01, 0x00, 0x00, 0x00, 0x36, 0x00, 0x00, 0x00, 0x36, 0x00, 0x00, 0x00, 
	0x01, 0x00, 0x00, 0x00, 0x1a, 0xf8, 0xff, 0xff, 0x00, 0x00, 0x00, 0x01, 
	0x14, 0x00, 0x00, 0x00, 0x84, 0x00, 0x00, 0x00, 0x0a, 0x00, 0x00, 0x00, 
	0x00, 0x00, 0x00, 0x09, 0x9c, 0x00, 0x00, 0x00, 0x84, 0xf7, 0xff, 0xff, 
	0x08, 0x00, 0x00, 0x00, 0x48, 0x00, 0x00, 0x00, 0x08, 0x00, 0x00, 0x00, 
	0x00, 0x00, 0x00, 0x00, 0x00, 0x00, 0x00, 0x00, 0x00, 0x00, 0x00, 0x00, 
	0x00, 0x00, 0x00, 0x00, 0x00, 0x00, 0x00, 0x00, 0x00, 0x00, 0x00, 0x00, 
	0x00, 0x00, 0x00, 0x00, 0x00, 0x00, 0x00, 0x00, 0x00, 0x00, 0x00, 0x00, 
	0x00, 0x00, 0x00, 0x00, 0x00, 0x00, 0x00, 0x00, 0x00, 0x00, 0x00, 0x00, 
	0x00, 0x00, 0x00, 0x00, 0x00, 0x00, 0x00, 0x00, 0x00, 0x00, 0x00, 0x00, 
	0x00, 0x00, 0x00, 0x00, 0x08, 0x00, 0x00, 0x00, 0xb3, 0x69, 0xe6, 0x3a, 
	0x41, 0xaa, 0xd8, 0x3a, 0x56, 0x12, 0xd5, 0x3a, 0x15, 0x15, 0xd4, 0x3a, 
	0x00, 0x21, 0xcd, 0x3a, 0x12, 0x99, 0xca, 0x3a, 0x2f, 0x4c, 0xc4, 0x3a, 
	0x61, 0x21, 0xc6, 0x3a, 0x1c, 0x00, 0x00, 0x00, 0x73, 0x65, 0x71, 0x75, 
	0x65, 0x6e, 0x74, 0x69, 0x61, 0x6c, 0x5f, 0x33, 0x2f, 0x63, 0x6f, 0x6e, 
	0x76, 0x32, 0x64, 0x5f, 0x39, 0x2f, 0x43, 0x6f, 0x6e, 0x76, 0x32, 0x44, 
	0x00, 0x00, 0x00, 0x00, 0x04, 0x00, 0x00, 0x00, 0x08, 0x00, 0x00, 0x00, 
	0x03, 0x00, 0x00, 0x00, 0x03, 0x00, 0x00, 0x00, 0x01, 0x00, 0x00, 0x00, 
	0xe2, 0xf8, 0xff, 0xff, 0x00, 0x00, 0x00, 0x01, 0x14, 0x00, 0x00, 0x00, 
	0x88, 0x00, 0x00, 0x00, 0x09, 0x00, 0x00, 0x00, 0x00, 0x00, 0x00, 0x02, 
	0xb0, 0x00, 0x00, 0x00, 0x4c, 0xf8, 0xff, 0xff, 0x08, 0x00, 0x00, 0x00, 
	0x4c, 0x00, 0x00, 0x00, 0x08, 0x00, 0x00, 0x00, 0x00, 0x00, 0x00, 0x00, 
	0x00, 0x00, 0x00, 0x00, 0x00, 0x00, 0x00, 0x00, 0x00, 0x00, 0x00, 0x00, 
	0x00, 0x00, 0x00, 0x00, 0x00, 0x00, 0x00, 0x00, 0x00, 0x00, 0x00, 0x00, 
	0x00, 0x00, 0x00, 0x00, 0x00, 0x00, 0x00, 0x00, 0x00, 0x00, 0x00, 0x00, 
	0x00, 0x00, 0x00, 0x00, 0x00, 0x00, 0x00, 0x00, 0x00, 0x00, 0x00, 0x00, 
	0x00, 0x00, 0x00, 0x00, 0x00, 0x00, 0x00, 0x00, 0x00, 0x00, 0x00, 0x00, 
	0x00, 0x00, 0x00, 0x00, 0x08, 0x00, 0x00, 0x00, 0xb3, 0x69, 0xe6, 0x3a, 
	0x41, 0xaa, 0xd8, 0x3a, 0x56, 0x12, 0xd5, 0x3a, 0x15, 0x15, 0xd4, 0x3a, 
	0x00, 0x21, 0xcd, 0x3a, 0x12, 0x99, 0xca, 0x3a, 0x2f, 0x4c, 0xc4, 0x3a, 
	0x61, 0x21, 0xc6, 0x3a, 0x2c, 0x00, 0x00, 0x00, 0x73, 0x65, 0x71, 0x75, 
	0x65, 0x6e, 0x74, 0x69, 0x61, 0x6c, 0x5f, 0x33, 0x2f, 0x63, 0x6f, 0x6e, 
	0x76, 0x32, 0x64, 0x5f, 0x39, 0x2f, 0x42, 0x69, 0x61, 0x73, 0x41, 0x64, 
	0x64, 0x2f, 0x52, 0x65, 0x61, 0x64, 0x56, 0x61, 0x72, 0x69, 0x61, 0x62, 
	0x6c, 0x65, 0x4f, 0x70, 0x00, 0x00, 0x00, 0x00, 0x01, 0x00, 0x00, 0x00, 
	0x08, 0x00, 0x00, 0x00, 0xb2, 0xf9, 0xff, 0xff, 0x00, 0x00, 0x00, 0x01, 
	0x14, 0x00, 0x00, 0x00, 0xe4, 0x00, 0x00, 0x00, 0x08, 0x00, 0x00, 0x00, 
	0x00, 0x00, 0x00, 0x09, 0xfc, 0x00, 0x00, 0x00, 0x1c, 0xf9, 0xff, 0xff, 
	0x08, 0x00, 0x00, 0x00, 0x88, 0x00, 0x00, 0x00, 0x10, 0x00, 0x00, 0x00, 
	0x00, 0x00, 0x00, 0x00, 0x00, 0x00, 0x00, 0x00, 0x00, 0x00, 0x00, 0x00, 
	0x00, 0x00, 0x00, 0x00, 0x00, 0x00, 0x00, 0x00, 0x00, 0x00, 0x00, 0x00, 
	0x00, 0x00, 0x00, 0x00, 0x00, 0x00, 0x00, 0x00, 0x00, 0x00, 0x00, 0x00, 
	0x00, 0x00, 0x00, 0x00, 0x00, 0x00, 0x00, 0x00, 0x00, 0x00, 0x00, 0x00, 
	0x00, 0x00, 0x00, 0x00, 0x00, 0x00, 0x00, 0x00, 0x00, 0x00, 0x00, 0x00, 
	0x00, 0x00, 0x00, 0x00, 0x00, 0x00, 0x00, 0x00, 0x00, 0x00, 0x00, 0x00, 
	0x00, 0x00, 0x00, 0x00, 0x00, 0x00, 0x00, 0x00, 0x00, 0x00, 0x00, 0x00, 
	0x00, 0x00, 0x00, 0x00, 0x00, 0x00, 0x00, 0x00, 0x00, 0x00, 0x00, 0x00, 
	0x00, 0x00, 0x00, 0x00, 0x00, 0x00, 0x00, 0x00, 0x00, 0x00, 0x00, 0x00, 
	0x00, 0x00, 0x00, 0x00, 0x00, 0x00, 0x00, 0x00, 0x00, 0x00, 0x00, 0x00, 
	0x00, 0x00, 0x00, 0x00, 0x00, 0x00, 0x00, 0x00, 0x10, 0x00, 0x00, 0x00, 
	0xaa, 0xc3, 0xd4, 0x3a, 0xca, 0x4b, 0x99, 0x3a, 0x7e, 0x40, 0xa1, 0x3a, 
	0x1b, 0x45, 0xc2, 0x3a, 0x45, 0xd6, 0xa1, 0x3a, 0x38, 0xd3, 0xa4, 0x3a, 
	0x62, 0xce, 0xbc, 0x3a, 0xde, 0x2e, 0xa0, 0x3a, 0x9f, 0xcd, 0xb3, 0x3a, 
	0xd7, 0x69, 0xc6, 0x3a, 0x76, 0x62, 0x96, 0x3a, 0x87, 0x34, 0x9f, 0x3a, 
	0x01, 0x18, 0x9f, 0x3a, 0x7c, 0x8c, 0x99, 0x3a, 0x4c, 0x6d, 0x96, 0x3a, 
	0x95, 0x23, 0x95, 0x3a, 0x1d, 0x00, 0x00, 0x00, 0x73, 0x65, 0x71, 0x75, 
	0x65, 0x6e, 0x74, 0x69, 0x61, 0x6c, 0x5f, 0x33, 0x2f, 0x63, 0x6f, 0x6e, 
	0x76, 0x32, 0x64, 0x5f, 0x31, 0x30, 0x2f, 0x43, 0x6f, 0x6e, 0x76, 0x32, 
	0x44, 0x00, 0x00, 0x00, 0x04, 0x00, 0x00, 0x00, 0x10, 0x00, 0x00, 0x00, 
	0x03, 0x00, 0x00, 0x00, 0x03, 0x00, 0x00, 0x00, 0x08, 0x00, 0x00, 0x00, 
	0xda, 0xfa, 0xff, 0xff, 0x00, 0x00, 0x00, 0x01, 0x14, 0x00, 0x00, 0x00, 
	0xe8, 0x00, 0x00, 0x00, 0x07, 0x00, 0x00, 0x00, 0x00, 0x00, 0x00, 0x02, 
	0x10, 0x01, 0x00, 0x00, 0x44, 0xfa, 0xff, 0xff, 0x08, 0x00, 0x00, 0x00, 
	0x8c, 0x00, 0x00, 0x00, 0x10, 0x00, 0x00, 0x00, 0x00, 0x00, 0x00, 0x00, 
	0x00, 0x00, 0x00, 0x00, 0x00, 0x00, 0x00, 0x00, 0x00, 0x00, 0x00, 0x00, 
	0x00, 0x00, 0x00, 0x00, 0x00, 0x00, 0x00, 0x00, 0x00, 0x00, 0x00, 0x00, 
	0x00, 0x00, 0x00, 0x00, 0x00, 0x00, 0x00, 0x00, 0x00, 0x00, 0x00, 0x00, 
	0x00, 0x00, 0x00, 0x00, 0x00, 0x00, 0x00, 0x00, 0x00, 0x00, 0x00, 0x00, 
	0x00, 0x00, 0x00, 0x00, 0x00, 0x00, 0x00, 0x00, 0x00, 0x00, 0x00, 0x00, 
	0x00, 0x00, 0x00, 0x00, 0x00, 0x00, 0x00, 0x00, 0x00, 0x00, 0x00, 0x00, 
	0x00, 0x00, 0x00, 0x00, 0x00, 0x00, 0x00, 0x00, 0x00, 0x00, 0x00, 0x00, 
	0x00, 0x00, 0x00, 0x00, 0x00, 0x00, 0x00, 0x00, 0x00, 0x00, 0x00, 0x00, 
	0x00, 0x00, 0x00, 0x00, 0x00, 0x00, 0x00, 0x00, 0x00, 0x00, 0x00, 0x00, 
	0x00, 0x00, 0x00, 0x00, 0x00, 0x00, 0x00, 0x00, 0x00, 0x00, 0x00, 0x00, 
	0x00, 0x00, 0x00, 0x00, 0x00, 0x00, 0x00, 0x00, 0x10, 0x00, 0x00, 0x00, 
	0x8d, 0x42, 0x95, 0x3a, 0x2d, 0x15, 0x57, 0x3a, 0xc8, 0x3e, 0x62, 0x3a, 
	0x21, 0x49, 0x88, 0x3a, 0xed, 0x10, 0x63, 0x3a, 0x31, 0x42, 0x67, 0x3a, 
	0xe3, 0x73, 0x84, 0x3a, 0xde, 0xbe, 0x60, 0x3a, 0x11, 0x46, 0x7c, 0x3a, 
	0x43, 0x31, 0x8b, 0x3a, 0x70, 0xff, 0x52, 0x3a, 0xa1, 0x5f, 0x5f, 0x3a, 
	0x9c, 0x37, 0x5f, 0x3a, 0xf2, 0x6f, 0x57, 0x3a, 0xa4, 0x0e, 0x53, 0x3a, 
	0x09, 0x40, 0x51, 0x3a, 0x2d, 0x00, 0x00, 0x00, 0x73, 0x65, 0x71, 0x75, 
	0x65, 0x6e, 0x74, 0x69, 0x61, 0x6c, 0x5f, 0x33, 0x2f, 0x63, 0x6f, 0x6e, 
	0x76, 0x32, 0x64, 0x5f, 0x31, 0x30, 0x2f, 0x42, 0x69, 0x61, 0x73, 0x41, 
	0x64, 0x64, 0x2f, 0x52, 0x65, 0x61, 0x64, 0x56, 0x61, 0x72, 0x69, 0x61, 
	0x62, 0x6c, 0x65, 0x4f, 0x70, 0x00, 0x00, 0x00, 0x01, 0x00, 0x00, 0x00, 
	0x10, 0x00, 0x00, 0x00, 0x0a, 0xfc, 0xff, 0xff, 0x00, 0x00, 0x00, 0x01, 
	0x14, 0x00, 0x00, 0x00, 0x44, 0x01, 0x00, 0x00, 0x06, 0x00, 0x00, 0x00, 
	0x00, 0x00, 0x00, 0x09, 0x5c, 0x01, 0x00, 0x00, 0x74, 0xfb, 0xff, 0xff, 
	0x08, 0x00, 0x00, 0x00, 0xc8, 0x00, 0x00, 0x00, 0x18, 0x00, 0x00, 0x00, 
	0x00, 0x00, 0x00, 0x00, 0x00, 0x00, 0x00, 0x00, 0x00, 0x00, 0x00, 0x00, 
	0x00, 0x00, 0x00, 0x00, 0x00, 0x00, 0x00, 0x00, 0x00, 0x00, 0x00, 0x00, 
	0x00, 0x00, 0x00, 0x00, 0x00, 0x00, 0x00, 0x00, 0x00, 0x00, 0x00, 0x00, 
	0x00, 0x00, 0x00, 0x00, 0x00, 0x00, 0x00, 0x00, 0x00, 0x00, 0x00, 0x00, 
	0x00, 0x00, 0x00, 0x00, 0x00, 0x00, 0x00, 0x00, 0x00, 0x00, 0x00, 0x00, 
	0x00, 0x00, 0x00, 0x00, 0x00, 0x00, 0x00, 0x00, 0x00, 0x00, 0x00, 0x00, 
	0x00, 0x00, 0x00, 0x00, 0x00, 0x00, 0x00, 0x00, 0x00, 0x00, 0x00, 0x00, 
	0x00, 0x00, 0x00, 0x00, 0x00, 0x00, 0x00, 0x00, 0x00, 0x00, 0x00, 0x00, 
	0x00, 0x00, 0x00, 0x00, 0x00, 0x00, 0x00, 0x00, 0x00, 0x00, 0x00, 0x00, 
	0x00, 0x00, 0x00, 0x00, 0x00, 0x00, 0x00, 0x00, 0x00, 0x00, 0x00, 0x00, 
	0x00, 0x00, 0x00, 0x00, 0x00, 0x00, 0x00, 0x00, 0x00, 0x00, 0x00, 0x00, 
	0x00, 0x00, 0x00, 0x00, 0x00, 0x00, 0x00, 0x00, 0x00, 0x00, 0x00, 0x00, 
	0x00, 0x00, 0x00, 0x00, 0x00, 0x00, 0x00, 0x00, 0x00, 0x00, 0x00, 0x00, 
	0x00, 0x00, 0x00, 0x00, 0x00, 0x00, 0x00, 0x00, 0x00, 0x00, 0x00, 0x00, 
	0x00, 0x00, 0x00, 0x00, 0x00, 0x00, 0x00, 0x00, 0x00, 0x00, 0x00, 0x00, 
	0x00, 0x00, 0x00, 0x00, 0x00, 0x00, 0x00, 0x00, 0x00, 0x00, 0x00, 0x00, 
	0x18, 0x00, 0x00, 0x00, 0xc1, 0x77, 0x72, 0x3a, 0xfd, 0x0c, 0x8f, 0x3a, 
	0x79, 0xb6, 0x84, 0x3a, 0x4e, 0xcb, 0x74, 0x3a, 0x10, 0x9c, 0x97, 0x3a, 
	0x26, 0xab, 0x85, 0x3a, 0xea, 0x46, 0x85, 0x3a, 0x0b, 0xa2, 0x7c, 0x3a, 
	0x51, 0x44, 0x9d, 0x3a, 0x5d, 0x48, 0x82, 0x3a, 0xed, 0xc1, 0x97, 0x3a, 
	0x0b, 0xe9, 0x7a, 0x3a, 0x87, 0x2e, 0x7b, 0x3a, 0x49, 0xf8, 0x96, 0x3a, 
	0x71, 0x77, 0x78, 0x3a, 0x7a, 0xd7, 0x83, 0x3a, 0x62, 0x61, 0x85, 0x3a, 
	0x32, 0xb9, 0x86, 0x3a, 0x6f, 0x79, 0x75, 0x3a, 0x8f, 0x61, 0x9f, 0x3a, 
	0x7b, 0xc4, 0x94, 0x3a, 0xf8, 0x5a, 0x9b, 0x3a, 0xa0, 0xd5, 0x85, 0x3a, 
	0x0d, 0x64, 0x83, 0x3a, 0x1d, 0x00, 0x00, 0x00, 0x73, 0x65, 0x71, 0x75, 
	0x65, 0x6e, 0x74, 0x69, 0x61, 0x6c, 0x5f, 0x33, 0x2f, 0x63, 0x6f, 0x6e, 
	0x76, 0x32, 0x64, 0x5f, 0x31, 0x31, 0x2f, 0x43, 0x6f, 0x6e, 0x76, 0x32, 
	0x44, 0x00, 0x00, 0x00, 0x04, 0x00, 0x00, 0x00, 0x18, 0x00, 0x00, 0x00, 
	0x03, 0x00, 0x00, 0x00, 0x03, 0x00, 0x00, 0x00, 0x10, 0x00, 0x00, 0x00, 
	0x92, 0xfd, 0xff, 0xff, 0x00, 0x00, 0x00, 0x01, 0x14, 0x00, 0x00, 0x00, 
	0x48, 0x01, 0x00, 0x00, 0x05, 0x00, 0x00, 0x00, 0x00, 0x00, 0x00, 0x02, 
	0x70, 0x01, 0x00, 0x00, 0xfc, 0xfc, 0xff, 0xff, 0x08, 0x00, 0x00, 0x00, 
	0xcc, 0x00, 0x00, 0x00, 0x18, 0x00, 0x00, 0x00, 0x00, 0x00, 0x00, 0x00, 
	0x00, 0x00, 0x00, 0x00, 0x00, 0x00, 0x00, 0x00, 0x00, 0x00, 0x00, 0x00, 
	0x00, 0x00, 0x00, 0x00, 0x00, 0x00, 0x00, 0x00, 0x00, 0x00, 0x00, 0x00, 
	0x00, 0x00, 0x00, 0x00, 0x00, 0x00, 0x00, 0x00, 0x00, 0x00, 0x00, 0x00, 
	0x00, 0x00, 0x00, 0x00, 0x00, 0x00, 0x00, 0x00, 0x00, 0x00, 0x00, 0x00, 
	0x00, 0x00, 0x00, 0x00, 0x00, 0x00, 0x00, 0x00, 0x00, 0x00, 0x00, 0x00, 
	0x00, 0x00, 0x00, 0x00, 0x00, 0x00, 0x00, 0x00, 0x00, 0x00, 0x00, 0x00, 
	0x00, 0x00, 0x00, 0x00, 0x00, 0x00, 0x00, 0x00, 0x00, 0x00, 0x00, 0x00, 
	0x00, 0x00, 0x00, 0x00, 0x00, 0x00, 0x00, 0x00, 0x00, 0x00, 0x00, 0x00, 
	0x00, 0x00, 0x00, 0x00, 0x00, 0x00, 0x00, 0x00, 0x00, 0x00, 0x00, 0x00, 
	0x00, 0x00, 0x00, 0x00, 0x00, 0x00, 0x00, 0x00, 0x00, 0x00, 0x00, 0x00, 
	0x00, 0x00, 0x00, 0x00, 0x00, 0x00, 0x00, 0x00, 0x00, 0x00, 0x00, 0x00, 
	0x00, 0x00, 0x00, 0x00, 0x00, 0x00, 0x00, 0x00, 0x00, 0x00, 0x00, 0x00, 
	0x00, 0x00, 0x00, 0x00, 0x00, 0x00, 0x00, 0x00, 0x00, 0x00, 0x00, 0x00, 
	0x00, 0x00, 0x00, 0x00, 0x00, 0x00, 0x00, 0x00, 0x00, 0x00, 0x00, 0x00, 
	0x00, 0x00, 0x00, 0x00, 0x00, 0x00, 0x00, 0x00, 0x00, 0x00, 0x00, 0x00, 
	0x00, 0x00, 0x00, 0x00, 0x00, 0x00, 0x00, 0x00, 0x00, 0x00, 0x00, 0x00, 
	0x18, 0x00, 0x00, 0x00, 0x3a, 0x95, 0xa6, 0x39, 0x85, 0x8f, 0xc4, 0x39, 
	0x0b, 0x5b, 0xb6, 0x39, 0x64, 0x2e, 0xa8, 0x39, 0x31, 0x52, 0xd0, 0x39, 
	0x3e, 0xab, 0xb7, 0x39, 0x83, 0x21, 0xb7, 0x39, 0x15, 0x91, 0xad, 0x39, 
	0x2f, 0x18, 0xd8, 0x39, 0x3a, 0x04, 0xb3, 0x39, 0x38, 0x86, 0xd0, 0x39, 
	0x1a, 0x62, 0xac, 0x39, 0xd7, 0x91, 0xac, 0x39, 0x27, 0x71, 0xcf, 0x39, 
	0x4b, 0xb4, 0xaa, 0x39, 0xa2, 0x28, 0xb5, 0x39, 0xe2, 0x45, 0xb7, 0x39, 
	0x4e, 0x1e, 0xb9, 0x39, 0x06, 0xa6, 0xa8, 0x39, 0xe2, 0xff, 0xda, 0x39, 
	0x73, 0x6a, 0xcc, 0x39, 0xca, 0x77, 0xd5, 0x39, 0x9b, 0xe5, 0xb7, 0x39, 
	0x07, 0x8a, 0xb4, 0x39, 0x2d, 0x00, 0x00, 0x00, 0x73, 0x65, 0x71, 0x75, 
	0x65, 0x6e, 0x74, 0x69, 0x61, 0x6c, 0x5f, 0x33, 0x2f, 0x63, 0x6f, 0x6e, 
	0x76, 0x32, 0x64, 0x5f, 0x31, 0x31, 0x2f, 0x42, 0x69, 0x61, 0x73, 0x41, 
	0x64, 0x64, 0x2f, 0x52, 0x65, 0x61, 0x64, 0x56, 0x61, 0x72, 0x69, 0x61, 
	0x62, 0x6c, 0x65, 0x4f, 0x70, 0x00, 0x00, 0x00, 0x01, 0x00, 0x00, 0x00, 
	0x18, 0x00, 0x00, 0x00, 0x22, 0xff, 0xff, 0xff, 0x00, 0x00, 0x00, 0x01, 
	0x14, 0x00, 0x00, 0x00, 0x30, 0x00, 0x00, 0x00, 0x04, 0x00, 0x00, 0x00, 
	0x00, 0x00, 0x00, 0x09, 0x44, 0x00, 0x00, 0x00, 0x8c, 0xfe, 0xff, 0xff, 
	0x08, 0x00, 0x00, 0x00, 0x10, 0x00, 0x00, 0x00, 0x01, 0x00, 0x00, 0x00, 
	0x00, 0x00, 0x00, 0x00, 0x00, 0x00, 0x00, 0x00, 0x01, 0x00, 0x00, 0x00, 
	0x33, 0x74, 0xdd, 0x3a, 0x1b, 0x00, 0x00, 0x00, 0x73, 0x65, 0x71, 0x75, 
	0x65, 0x6e, 0x74, 0x69, 0x61, 0x6c, 0x5f, 0x33, 0x2f, 0x64, 0x65, 0x6e, 
	0x73, 0x65, 0x5f, 0x33, 0x2f, 0x4d, 0x61, 0x74, 0x4d, 0x75, 0x6c, 0x00, 
	0x02, 0x00, 0x00, 0x00, 0x09, 0x00, 0x00, 0x00, 0x58, 0x02, 0x00, 0x00, 
	0x8a, 0xff, 0xff, 0xff, 0x00, 0x00, 0x00, 0x01, 0x14, 0x00, 0x00, 0x00, 
	0x30, 0x00, 0x00, 0x00, 0x03, 0x00, 0x00, 0x00, 0x00, 0x00, 0x00, 0x02, 
	0x54, 0x00, 0x00, 0x00, 0xf4, 0xfe, 0xff, 0xff, 0x08, 0x00, 0x00, 0x00, 
	0x10, 0x00, 0x00, 0x00, 0x01, 0x00, 0x00, 0x00, 0x00, 0x00, 0x00, 0x00, 
	0x00, 0x00, 0x00, 0x00, 0x01, 0x00, 0x00, 0x00, 0x4d, 0x32, 0x16, 0x39, 
	0x2b, 0x00, 0x00, 0x00, 0x73, 0x65, 0x71, 0x75, 0x65, 0x6e, 0x74, 0x69, 
	0x61, 0x6c, 0x5f, 0x33, 0x2f, 0x64, 0x65, 0x6e, 0x73, 0x65, 0x5f, 0x33, 
	0x2f, 0x42, 0x69, 0x61, 0x73, 0x41, 0x64, 0x64, 0x2f, 0x52, 0x65, 0x61, 
	0x64, 0x56, 0x61, 0x72, 0x69, 0x61, 0x62, 0x6c, 0x65, 0x4f, 0x70, 0x00, 
	0x01, 0x00, 0x00, 0x00, 0x09, 0x00, 0x00, 0x00, 0x00, 0x00, 0x16, 0x00, 
	0x1c, 0x00, 0x18, 0x00, 0x17, 0x00, 0x10, 0x00, 0x0c, 0x00, 0x08, 0x00, 
	0x00, 0x00, 0x00, 0x00, 0x00, 0x00, 0x07, 0x00, 0x16, 0x00, 0x00, 0x00, 
	0x00, 0x00, 0x00, 0x01, 0x18, 0x00, 0x00, 0x00, 0x18, 0x00, 0x00, 0x00, 
	0x02, 0x00, 0x00, 0x00, 0x00, 0x00, 0x00, 0x02, 0x30, 0x00, 0x00, 0x00, 
	0x04, 0x00, 0x04, 0x00, 0x04, 0x00, 0x00, 0x00, 0x1c, 0x00, 0x00, 0x00, 
	0x73, 0x65, 0x71, 0x75, 0x65, 0x6e, 0x74, 0x69, 0x61, 0x6c, 0x5f, 0x33, 
	0x2f, 0x66, 0x6c, 0x61, 0x74, 0x74, 0x65, 0x6e, 0x5f, 0x33, 0x2f, 0x43, 
	0x6f, 0x6e, 0x73, 0x74, 0x00, 0x00, 0x00, 0x00, 0x01, 0x00, 0x00, 0x00, 
	0x02, 0x00, 0x00, 0x00, 0x00, 0x00, 0x16, 0x00, 0x20, 0x00, 0x1c, 0x00, 
	0x1b, 0x00, 0x14, 0x00, 0x10, 0x00, 0x0c, 0x00, 0x00, 0x00, 0x00, 0x00, 
	0x08, 0x00, 0x07, 0x00, 0x16, 0x00, 0x00, 0x00, 0x00, 0x00, 0x00, 0x01, 
	0x18, 0x00, 0x00, 0x00, 0x34, 0x00, 0x00, 0x00, 0x54, 0x00, 0x00, 0x00, 
	0x01, 0x00, 0x00, 0x00, 0x00, 0x00, 0x00, 0x03, 0x70, 0x00, 0x00, 0x00, 
	0x04, 0x00, 0x00, 0x00, 0xff, 0xff, 0xff, 0xff, 0x36, 0x00, 0x00, 0x00, 
	0x36, 0x00, 0x00, 0x00, 0x01, 0x00, 0x00, 0x00, 0x0c, 0x00, 0x0c, 0x00, 
	0x00, 0x00, 0x00, 0x00, 0x08, 0x00, 0x04, 0x00, 0x0c, 0x00, 0x00, 0x00, 
	0x08, 0x00, 0x00, 0x00, 0x14, 0x00, 0x00, 0x00, 0x01, 0x00, 0x00, 0x00, 
	0x00, 0x00, 0x00, 0x00, 0x00, 0x00, 0x00, 0x00, 0x00, 0x00, 0x00, 0x00, 
	0x01, 0x00, 0x00, 0x00, 0x00, 0x00, 0x80, 0x3f, 0x20, 0x00, 0x00, 0x00, 
	0x73, 0x65, 0x72, 0x76, 0x69, 0x6e, 0x67, 0x5f, 0x64, 0x65, 0x66, 0x61, 
	0x75, 0x6c, 0x74, 0x5f, 0x63, 0x6f, 0x6e, 0x76, 0x32, 0x64, 0x5f, 0x39, 
	0x5f, 0x69, 0x6e, 0x70, 0x75, 0x74, 0x3a, 0x30, 0x00, 0x00, 0x00, 0x00, 
	0x04, 0x00, 0x00, 0x00, 0x01, 0x00, 0x00, 0x00, 0x36, 0x00, 0x00, 0x00, 
	0x36, 0x00, 0x00, 0x00, 0x01, 0x00, 0x00, 0x00, 0x05, 0x00, 0x00, 0x00, 
	0x68, 0x00, 0x00, 0x00, 0x48, 0x00, 0x00, 0x00, 0x28, 0x00, 0x00, 0x00, 
	0x18, 0x00, 0x00, 0x00, 0x04, 0x00, 0x00, 0x00, 0xd4, 0xff, 0xff, 0xff, 
	0x09, 0x00, 0x00, 0x00, 0x04, 0x00, 0x00, 0x00, 0x00, 0x00, 0x00, 0x09, 
	0xc8, 0xff, 0xff, 0xff, 0x16, 0x00, 0x00, 0x00, 0x00, 0x00, 0x00, 0x16, 
	0xf0, 0xff, 0xff, 0xff, 0x11, 0x00, 0x00, 0x00, 0x02, 0x00, 0x00, 0x00, 
	0x00, 0x00, 0x00, 0x11, 0x0c, 0x00, 0x10, 0x00, 0x0f, 0x00, 0x00, 0x00, 
	0x08, 0x00, 0x04, 0x00, 0x0c, 0x00, 0x00, 0x00, 0x03, 0x00, 0x00, 0x00, 
	0x03, 0x00, 0x00, 0x00, 0x00, 0x00, 0x00, 0x03, 0x0c, 0x00, 0x0c, 0x00, 
	0x0b, 0x00, 0x00, 0x00, 0x00, 0x00, 0x04, 0x00, 0x0c, 0x00, 0x00, 0x00, 
	0x72, 0x00, 0x00, 0x00, 0x00, 0x00, 0x00, 0x72
};
const int uno_len = 15920;
