
#ifdef __has_attribute
#define HAVE_ATTRIBUTE(x) __has_attribute(x)
#else
#define HAVE_ATTRIBUTE(x) 0
#endif
#if HAVE_ATTRIBUTE(aligned) || (defined(__GNUC__) && !defined(__clang__))
#define DATA_ALIGN_ATTRIBUTE __attribute__((aligned(4)))
#else
#define DATA_ALIGN_ATTRIBUTE
#endif

const unsigned char ventottopes[] DATA_ALIGN_ATTRIBUTE = {
	0x1c, 0x00, 0x00, 0x00, 0x54, 0x46, 0x4c, 0x33, 0x14, 0x00, 0x20, 0x00, 
	0x1c, 0x00, 0x18, 0x00, 0x14, 0x00, 0x10, 0x00, 0x0c, 0x00, 0x00, 0x00, 
	0x08, 0x00, 0x04, 0x00, 0x14, 0x00, 0x00, 0x00, 0x1c, 0x00, 0x00, 0x00, 
	0x88, 0x00, 0x00, 0x00, 0xe0, 0x00, 0x00, 0x00, 0xf4, 0x59, 0x00, 0x00, 
	0x04, 0x5a, 0x00, 0x00, 0x88, 0x62, 0x00, 0x00, 0x03, 0x00, 0x00, 0x00, 
	0x01, 0x00, 0x00, 0x00, 0x04, 0x00, 0x00, 0x00, 0x82, 0xa5, 0xff, 0xff, 
	0x0c, 0x00, 0x00, 0x00, 0x1c, 0x00, 0x00, 0x00, 0x38, 0x00, 0x00, 0x00, 
	0x0f, 0x00, 0x00, 0x00, 0x73, 0x65, 0x72, 0x76, 0x69, 0x6e, 0x67, 0x5f, 
	0x64, 0x65, 0x66, 0x61, 0x75, 0x6c, 0x74, 0x00, 0x01, 0x00, 0x00, 0x00, 
	0x04, 0x00, 0x00, 0x00, 0x94, 0xff, 0xff, 0xff, 0x0d, 0x00, 0x00, 0x00, 
	0x04, 0x00, 0x00, 0x00, 0x07, 0x00, 0x00, 0x00, 0x64, 0x65, 0x6e, 0x73, 
	0x65, 0x5f, 0x34, 0x00, 0x01, 0x00, 0x00, 0x00, 0x04, 0x00, 0x00, 0x00, 
	0xca, 0xa6, 0xff, 0xff, 0x04, 0x00, 0x00, 0x00, 0x0e, 0x00, 0x00, 0x00, 
	0x63, 0x6f, 0x6e, 0x76, 0x32, 0x64, 0x5f, 0x38, 0x5f, 0x69, 0x6e, 0x70, 
	0x75, 0x74, 0x00, 0x00, 0x02, 0x00, 0x00, 0x00, 0x34, 0x00, 0x00, 0x00, 
	0x04, 0x00, 0x00, 0x00, 0xdc, 0xff, 0xff, 0xff, 0x10, 0x00, 0x00, 0x00, 
	0x04, 0x00, 0x00, 0x00, 0x13, 0x00, 0x00, 0x00, 0x43, 0x4f, 0x4e, 0x56, 
	0x45, 0x52, 0x53, 0x49, 0x4f, 0x4e, 0x5f, 0x4d, 0x45, 0x54, 0x41, 0x44, 
	0x41, 0x54, 0x41, 0x00, 0x08, 0x00, 0x0c, 0x00, 0x08, 0x00, 0x04, 0x00, 
	0x08, 0x00, 0x00, 0x00, 0x0f, 0x00, 0x00, 0x00, 0x04, 0x00, 0x00, 0x00, 
	0x13, 0x00, 0x00, 0x00, 0x6d, 0x69, 0x6e, 0x5f, 0x72, 0x75, 0x6e, 0x74, 
	0x69, 0x6d, 0x65, 0x5f, 0x76, 0x65, 0x72, 0x73, 0x69, 0x6f, 0x6e, 0x00, 
	0x11, 0x00, 0x00, 0x00, 0x10, 0x59, 0x00, 0x00, 0x08, 0x59, 0x00, 0x00, 
	0xb8, 0x58, 0x00, 0x00, 0x60, 0x58, 0x00, 0x00, 0x10, 0x56, 0x00, 0x00, 
	0x00, 0x32, 0x00, 0x00, 0xe0, 0x31, 0x00, 0x00, 0xc8, 0x31, 0x00, 0x00, 
	0xb8, 0x00, 0x00, 0x00, 0xb0, 0x00, 0x00, 0x00, 0xa8, 0x00, 0x00, 0x00, 
	0xa0, 0x00, 0x00, 0x00, 0x98, 0x00, 0x00, 0x00, 0x90, 0x00, 0x00, 0x00, 
	0x88, 0x00, 0x00, 0x00, 0x68, 0x00, 0x00, 0x00, 0x04, 0x00, 0x00, 0x00, 
	0x8a, 0xa7, 0xff, 0xff, 0x04, 0x00, 0x00, 0x00, 0x54, 0x00, 0x00, 0x00, 
	0x0c, 0x00, 0x00, 0x00, 0x08, 0x00, 0x0e, 0x00, 0x08, 0x00, 0x04, 0x00, 
	0x08, 0x00, 0x00, 0x00, 0x10, 0x00, 0x00, 0x00, 0x24, 0x00, 0x00, 0x00, 
	0x00, 0x00, 0x06, 0x00, 0x08, 0x00, 0x04, 0x00, 0x06, 0x00, 0x00, 0x00, 
	0x04, 0x00, 0x00, 0x00, 0x00, 0x00, 0x00, 0x00, 0x00, 0x00, 0x0a, 0x00, 
	0x10, 0x00, 0x0c, 0x00, 0x08, 0x00, 0x04, 0x00, 0x0a, 0x00, 0x00, 0x00, 
	0x02, 0x00, 0x00, 0x00, 0x02, 0x00, 0x00, 0x00, 0x04, 0x00, 0x00, 0x00, 
	0x06, 0x00, 0x00, 0x00, 0x32, 0x2e, 0x31, 0x32, 0x2e, 0x30, 0x00, 0x00, 
	0xea, 0xa7, 0xff, 0xff, 0x04, 0x00, 0x00, 0x00, 0x10, 0x00, 0x00, 0x00, 
	0x31, 0x2e, 0x35, 0x2e, 0x30, 0x00, 0x00, 0x00, 0x00, 0x00, 0x00, 0x00, 
	0x00, 0x00, 0x00, 0x00, 0x54, 0x9f, 0xff, 0xff, 0x58, 0x9f, 0xff, 0xff, 
	0x5c, 0x9f, 0xff, 0xff, 0x60, 0x9f, 0xff, 0xff, 0x64, 0x9f, 0xff, 0xff, 
	0x68, 0x9f, 0xff, 0xff, 0x1e, 0xa8, 0xff, 0xff, 0x04, 0x00, 0x00, 0x00, 
	0x00, 0x31, 0x00, 0x00, 0xaa, 0x95, 0x39, 0xbd, 0xe0, 0x76, 0xd6, 0xbd, 
	0x10, 0x03, 0xa3, 0x3d, 0xab, 0xfc, 0x24, 0xbb, 0x22, 0xbb, 0x3e, 0x3d, 
	0xb9, 0xb4, 0x48, 0x39, 0x22, 0xd9, 0x30, 0xbd, 0x84, 0xf0, 0x4e, 0xbe, 
	0x53, 0x09, 0xc3, 0x3c, 0x57, 0xcd, 0x37, 0x3d, 0x6f, 0x2e, 0x8b, 0xbb, 
	0x8c, 0xd9, 0x0f, 0x3d, 0x7f, 0xff, 0x37, 0xbd, 0x3e, 0x82, 0xd9, 0xbc, 
	0xff, 0x6b, 0x88, 0xbd, 0x0c, 0xfd, 0xee, 0x39, 0xa9, 0x5b, 0x79, 0xbd, 
	0xd4, 0x1b, 0x0e, 0x3d, 0xaa, 0xbe, 0xef, 0x3d, 0x60, 0x3f, 0xba, 0xbb, 
	0xf4, 0x10, 0xa9, 0x3d, 0x2d, 0x81, 0xdb, 0x3d, 0x4a, 0x1f, 0x38, 0xbd, 
	0x09, 0xb5, 0xbd, 0xbd, 0x7a, 0xb2, 0x7e, 0x3b, 0x6b, 0xdd, 0x00, 0x3e, 
	0x90, 0x63, 0x31, 0xbd, 0xaf, 0x59, 0x07, 0xbc, 0xa7, 0xfe, 0x3e, 0x3d, 
	0x07, 0x7a, 0x44, 0x3c, 0xc1, 0xac, 0x68, 0xbd, 0x5e, 0x7d, 0x02, 0x3d, 
	0x73, 0x55, 0x68, 0xbd, 0x7e, 0x24, 0xbe, 0x3d, 0x7e, 0x11, 0xb9, 0x3d, 
	0xe9, 0x11, 0xab, 0xbb, 0x57, 0x86, 0x85, 0x3d, 0xdb, 0x75, 0xd4, 0x3d, 
	0x49, 0x78, 0xa5, 0xbc, 0x3b, 0xaf, 0x4f, 0xbd, 0x3e, 0x00, 0x4a, 0xbc, 
	0x2e, 0x1c, 0x8e, 0x3c, 0xa2, 0x73, 0xcf, 0xbd, 0xf8, 0x23, 0xe3, 0xbb, 
	0x22, 0x63, 0x1e, 0xbd, 0x33, 0x7e, 0xe2, 0xbc, 0x2c, 0x28, 0xc6, 0xbd, 
	0x0c, 0xd7, 0xab, 0x3b, 0x73, 0x81, 0x60, 0xbd, 0x37, 0xca, 0x80, 0x3d, 
	0x64, 0xe8, 0x83, 0x3d, 0xc5, 0x12, 0x8c, 0xbd, 0x59, 0x87, 0x5f, 0x3d, 
	0x84, 0xaa, 0x1d, 0x3e, 0xa7, 0x98, 0x32, 0x3d, 0xc1, 0xf4, 0x98, 0xbc, 
	0x3d, 0x5a, 0xe2, 0xbb, 0x56, 0xe2, 0x86, 0xbb, 0x26, 0xe3, 0x55, 0xbd, 
	0x17, 0x8f, 0xbb, 0x3c, 0xfc, 0x0f, 0x62, 0xbd, 0x58, 0xa5, 0xa8, 0xbd, 
	0x7b, 0xc4, 0xd8, 0xbd, 0xda, 0xb6, 0x84, 0x3c, 0xba, 0x00, 0x61, 0xbd, 
	0xc8, 0x95, 0x04, 0x3d, 0x22, 0x36, 0x6f, 0x3d, 0x3b, 0xff, 0x9c, 0xbd, 
	0x61, 0xb3, 0x3d, 0xbc, 0x04, 0x71, 0xca, 0x3d, 0x05, 0x5b, 0x0d, 0xbb, 
	0xe4, 0x0f, 0x03, 0xbd, 0x32, 0xa4, 0x41, 0x3c, 0xc7, 0x3e, 0xd9, 0x39, 
	0xf3, 0x24, 0x68, 0xbd, 0x4b, 0x39, 0xb2, 0x3b, 0xff, 0xf7, 0x09, 0xbd, 
	0xdd, 0x63, 0x8d, 0xbd, 0xe7, 0x70, 0x0e, 0xbe, 0xca, 0xb8, 0xd6, 0x3c, 
	0x0a, 0xfa, 0xd2, 0xbd, 0x17, 0xad, 0x7d, 0x3d, 0xcd, 0xff, 0xbe, 0x3d, 
	0xfe, 0x0f, 0xf5, 0x3c, 0x81, 0x0c, 0x5c, 0x3a, 0xf9, 0x7b, 0xa1, 0x3d, 
	0x01, 0x02, 0xa3, 0xbc, 0xc9, 0x64, 0x9c, 0xbd, 0x3e, 0x4a, 0x47, 0x39, 
	0x43, 0x54, 0x78, 0x3d, 0xf0, 0x4f, 0x0e, 0xbd, 0x45, 0x82, 0x9b, 0xbc, 
	0x3a, 0xe0, 0x0c, 0xbd, 0x58, 0xca, 0x0c, 0xbd, 0x96, 0xa0, 0xb7, 0xbd, 
	0x6c, 0xdb, 0x6a, 0xbc, 0xea, 0xed, 0x02, 0xbe, 0x02, 0x6c, 0xaf, 0x3c, 
	0xa3, 0x0f, 0x62, 0x3d, 0x26, 0x5c, 0x99, 0x3c, 0xc4, 0x71, 0x81, 0xbb, 
	0x70, 0x56, 0xdc, 0x3d, 0xe5, 0x6d, 0x57, 0xbd, 0xaa, 0xa8, 0x03, 0xbe, 
	0x95, 0x45, 0xba, 0xbc, 0xd4, 0x60, 0xd2, 0x3c, 0xb6, 0xa1, 0xb1, 0xbd, 
	0xfc, 0x8c, 0x26, 0xbe, 0xe2, 0xb1, 0x22, 0xbc, 0x4c, 0xf4, 0xa4, 0xbc, 
	0x95, 0x10, 0x89, 0xbd, 0x71, 0x48, 0x30, 0xbd, 0x84, 0xfa, 0x8b, 0xbd, 
	0x68, 0x6a, 0x1d, 0xbe, 0xe9, 0x48, 0xb4, 0xbb, 0x94, 0x36, 0xcd, 0x3c, 
	0xf3, 0xc8, 0x41, 0x3d, 0xba, 0x7e, 0x21, 0x3d, 0xbd, 0x45, 0x09, 0xbd, 
	0xe2, 0x9d, 0xf4, 0xbd, 0x77, 0xdf, 0xe8, 0x3b, 0x3c, 0x5f, 0xa4, 0x3d, 
	0xa9, 0x83, 0xc6, 0xbd, 0x61, 0x79, 0x7b, 0x3d, 0xef, 0x4f, 0xcc, 0xbc, 
	0x5c, 0xb5, 0xa3, 0xbc, 0x6f, 0x0d, 0xcf, 0xbd, 0xa8, 0x5b, 0x0f, 0x3d, 
	0x9b, 0x39, 0x7a, 0x3b, 0xc9, 0x91, 0x91, 0x3c, 0x49, 0xf6, 0x56, 0x3d, 
	0xf5, 0x80, 0x59, 0xbd, 0xfb, 0x63, 0xbd, 0x3c, 0x52, 0x41, 0x89, 0xbb, 
	0x7a, 0x3a, 0xa0, 0xbd, 0x57, 0x59, 0xfb, 0xbd, 0x42, 0x41, 0xe2, 0xb9, 
	0x62, 0xc1, 0x86, 0x3d, 0xed, 0x01, 0x60, 0xbc, 0x9f, 0x7d, 0xda, 0x3d, 
	0xbd, 0x03, 0x62, 0xbd, 0x0c, 0x92, 0x7a, 0xbc, 0xbb, 0xfc, 0x92, 0xbd, 
	0x51, 0x72, 0x7c, 0x3c, 0x0d, 0x03, 0x3c, 0xbc, 0x15, 0x04, 0x1e, 0x3a, 
	0x2b, 0xd7, 0x20, 0x3c, 0x61, 0xa8, 0xb6, 0xbd, 0x3b, 0x2e, 0x84, 0x3c, 
	0x46, 0xea, 0x3f, 0xbd, 0x0a, 0x51, 0xaa, 0x3c, 0x02, 0xb0, 0x17, 0x3d, 
	0x41, 0x8c, 0xc3, 0xbd, 0x29, 0x56, 0x3d, 0xbd, 0x05, 0xa2, 0x93, 0xbd, 
	0x99, 0xe3, 0xc5, 0x3d, 0x35, 0x96, 0x0c, 0xbd, 0xa5, 0xb4, 0x40, 0x3d, 
	0x12, 0x28, 0x02, 0xbe, 0x06, 0x88, 0x85, 0x3d, 0xef, 0x91, 0xf3, 0x3c, 
	0xb4, 0xd1, 0x67, 0xbd, 0xfa, 0x80, 0xab, 0x3c, 0xb9, 0x65, 0xe4, 0x3d, 
	0x65, 0x79, 0x11, 0x3d, 0x51, 0x02, 0x8d, 0xbd, 0x72, 0xbd, 0x41, 0x3d, 
	0x67, 0xff, 0x45, 0xbc, 0x72, 0xab, 0x81, 0xbd, 0x1d, 0x13, 0xb6, 0x3c, 
	0x68, 0xc4, 0xa0, 0xbd, 0x56, 0x25, 0xb5, 0x3c, 0xe8, 0x01, 0xd6, 0x3c, 
	0x55, 0xa3, 0x9e, 0xbb, 0xc3, 0xb9, 0x06, 0xbe, 0xa6, 0x19, 0x84, 0x3d, 
	0x6b, 0x32, 0xe1, 0xbb, 0x73, 0xc5, 0x81, 0x3d, 0xfa, 0xea, 0xac, 0x3d, 
	0x26, 0x06, 0x6a, 0xbb, 0x70, 0xbd, 0xab, 0xbd, 0x85, 0x18, 0x6d, 0xbd, 
	0xfd, 0x7b, 0xd4, 0x3c, 0xc2, 0xf0, 0x28, 0xbd, 0xb4, 0x75, 0x5c, 0xbc, 
	0x62, 0xa6, 0x77, 0xbd, 0x0c, 0x28, 0x9b, 0xbd, 0x13, 0x26, 0x4e, 0x3a, 
	0x0c, 0x13, 0x4f, 0xbd, 0xcc, 0x47, 0x89, 0x3d, 0xbe, 0xe5, 0xb8, 0xbd, 
	0x4f, 0xff, 0x41, 0x3d, 0x23, 0x40, 0x61, 0x3d, 0xd0, 0x7c, 0x29, 0x3d, 
	0x9f, 0x07, 0x93, 0x3d, 0x35, 0x13, 0xfc, 0xbc, 0xe6, 0x81, 0x3c, 0xbd, 
	0x62, 0x23, 0x6b, 0x3d, 0xed, 0x6b, 0x42, 0xbd, 0xda, 0x15, 0x54, 0xbc, 
	0x5b, 0x72, 0xa7, 0x3a, 0x09, 0x05, 0xe4, 0xbc, 0x4c, 0x1a, 0x6d, 0xbd, 
	0x24, 0xd2, 0x78, 0xbc, 0x14, 0x7b, 0x85, 0xbd, 0x10, 0xe4, 0x1a, 0x3c, 
	0xe1, 0x29, 0xa9, 0xbd, 0xd7, 0xa4, 0xc9, 0xbc, 0xd6, 0xd6, 0x5a, 0xbb, 
	0x76, 0xf4, 0xfc, 0x3c, 0x42, 0x25, 0x92, 0x3d, 0xee, 0xee, 0x35, 0x3b, 
	0x15, 0xcd, 0x46, 0x3c, 0xcf, 0x9c, 0xc5, 0x3d, 0xf7, 0x66, 0x38, 0xbd, 
	0xd3, 0x84, 0x0c, 0xbe, 0x7b, 0x12, 0x8b, 0x3d, 0x79, 0x39, 0x67, 0x3d, 
	0x1f, 0x6d, 0xc9, 0x3b, 0xe8, 0x1b, 0x97, 0xbd, 0x01, 0x13, 0x3a, 0xbd, 
	0x25, 0xa2, 0x8e, 0x3c, 0xa3, 0x40, 0x34, 0xbd, 0xfb, 0xda, 0x4c, 0xbc, 
	0x5b, 0x32, 0x60, 0xbc, 0x70, 0xba, 0xe7, 0xbd, 0xc5, 0x66, 0x2c, 0xbd, 
	0x28, 0xa6, 0xe2, 0xbc, 0xd5, 0x7a, 0x7b, 0x3a, 0xee, 0x2b, 0x3c, 0x3d, 
	0x13, 0x57, 0xaf, 0xbc, 0x52, 0xc8, 0xc4, 0xbd, 0xa6, 0x88, 0xe0, 0x3c, 
	0xf1, 0xdf, 0x13, 0xbd, 0x21, 0x64, 0xce, 0xbd, 0x3c, 0x09, 0x51, 0xbc, 
	0x76, 0xe8, 0x41, 0xbd, 0xa6, 0xd3, 0xa6, 0x3d, 0xb0, 0x21, 0x2f, 0xbd, 
	0x9f, 0x97, 0x2a, 0xbc, 0xd8, 0xa0, 0x28, 0x3d, 0xde, 0x22, 0xc9, 0xbb, 
	0xda, 0xb5, 0x9b, 0xbd, 0x20, 0x97, 0xb1, 0xbd, 0xe6, 0xe4, 0x54, 0xbd, 
	0xdb, 0x7d, 0xf0, 0xbd, 0xe8, 0x39, 0x02, 0xbe, 0xb3, 0x67, 0x8a, 0xbc, 
	0xe2, 0x0f, 0x15, 0xbd, 0x67, 0x31, 0xa6, 0x3c, 0x87, 0x20, 0x26, 0xbe, 
	0x3d, 0xc2, 0x5b, 0x3c, 0x05, 0x6b, 0x0a, 0xbd, 0xb6, 0x07, 0x74, 0xbd, 
	0x77, 0xe9, 0xd4, 0xbc, 0x18, 0xe7, 0xad, 0xb9, 0x67, 0xcc, 0x3e, 0x3c, 
	0xa2, 0x0d, 0x93, 0x3c, 0x03, 0x03, 0x9d, 0xba, 0x84, 0xd9, 0x02, 0xbe, 
	0xe6, 0x3e, 0x60, 0x3d, 0x70, 0x69, 0x23, 0xbe, 0x71, 0x27, 0x49, 0x3d, 
	0x70, 0x08, 0x5b, 0x3d, 0x76, 0x95, 0x52, 0x3c, 0x4f, 0x38, 0x6e, 0xbc, 
	0x95, 0x32, 0xc5, 0xbd, 0xe6, 0x44, 0x09, 0xbb, 0x11, 0x72, 0x65, 0xbd, 
	0xa9, 0xbf, 0x8d, 0x3d, 0x90, 0x2a, 0xa3, 0xbc, 0x36, 0xc5, 0xb0, 0xbc, 
	0xda, 0x75, 0x56, 0x3d, 0x38, 0x8d, 0x51, 0x3d, 0xae, 0x9e, 0xf3, 0x3c, 
	0x38, 0xc2, 0x72, 0xbd, 0x17, 0xab, 0xf5, 0x3c, 0x10, 0xf3, 0x75, 0xbd, 
	0x01, 0x42, 0x64, 0xbd, 0x23, 0xde, 0x38, 0xbd, 0xdf, 0x34, 0x39, 0x3d, 
	0x38, 0x06, 0x9d, 0x3d, 0x8c, 0x63, 0x16, 0xbd, 0xc8, 0x98, 0x05, 0xbd, 
	0x91, 0x37, 0xb9, 0xbd, 0xda, 0x6e, 0xa1, 0x3d, 0xca, 0xdf, 0x05, 0xbe, 
	0x1a, 0x7f, 0xa4, 0xbb, 0xd4, 0x2f, 0x03, 0x3c, 0xa9, 0x99, 0x73, 0x3d, 
	0x53, 0x33, 0xb5, 0x3d, 0xf2, 0x76, 0xfd, 0xbd, 0xad, 0x0a, 0xed, 0xbd, 
	0xb3, 0x95, 0xc9, 0xbd, 0x6f, 0x60, 0xaf, 0x3c, 0x80, 0xe2, 0x4e, 0x3d, 
	0xbe, 0xcd, 0xee, 0x3d, 0xeb, 0x4a, 0x2e, 0xbc, 0x5d, 0xd6, 0xd0, 0x3b, 
	0xd9, 0x1e, 0x1e, 0xbd, 0xe0, 0xbe, 0x8d, 0xbc, 0xf3, 0xe6, 0x09, 0x3e, 
	0xdf, 0x1a, 0x7c, 0x3d, 0x25, 0xa3, 0xc9, 0x3c, 0x67, 0x12, 0xbe, 0x3c, 
	0xcf, 0x80, 0x79, 0x3d, 0xff, 0x2e, 0x96, 0x3d, 0x7e, 0xb5, 0x12, 0xbd, 
	0x2a, 0xe1, 0x60, 0xbd, 0x4a, 0x07, 0x8d, 0x3c, 0xf1, 0x27, 0x71, 0xbd, 
	0xf2, 0x84, 0x62, 0xbd, 0x3e, 0x2d, 0xb7, 0xbd, 0x7f, 0x1c, 0x88, 0xbd, 
	0xc9, 0x72, 0x69, 0xbe, 0x05, 0x95, 0xa0, 0xbd, 0x1f, 0x8b, 0x68, 0xbd, 
	0x6b, 0xf3, 0x26, 0x3d, 0x0b, 0x96, 0xbe, 0xbc, 0xd3, 0xd1, 0xb5, 0xbb, 
	0x72, 0x03, 0x81, 0xbc, 0x9e, 0x9a, 0x15, 0xbc, 0x27, 0x6b, 0x8a, 0x3d, 
	0x15, 0xf3, 0xa0, 0xbd, 0xcf, 0x80, 0xd5, 0xbd, 0xdb, 0x76, 0x38, 0xbd, 
	0xce, 0xd6, 0x5b, 0xbd, 0x47, 0xd7, 0x3e, 0xbd, 0xcc, 0x5e, 0xf3, 0x3d, 
	0x15, 0x7c, 0x85, 0xbc, 0x30, 0xaa, 0x83, 0x3d, 0x7d, 0x6c, 0x00, 0xbd, 
	0x9e, 0xc8, 0x98, 0xbc, 0xf5, 0xa7, 0x88, 0xbc, 0x37, 0x77, 0x20, 0xbd, 
	0xb9, 0x6c, 0xd5, 0xbd, 0x58, 0x50, 0x21, 0xbe, 0x44, 0x8d, 0x82, 0xbd, 
	0xe4, 0x4b, 0xaa, 0xbd, 0x2b, 0x78, 0x55, 0xbd, 0x13, 0x3a, 0x85, 0xbc, 
	0x92, 0xe9, 0x4c, 0x3d, 0x7e, 0x20, 0xa9, 0x3c, 0xbb, 0xa5, 0x93, 0xbd, 
	0xa5, 0x84, 0xc3, 0xbc, 0x38, 0x60, 0x3d, 0x3c, 0x96, 0x7e, 0x10, 0xbe, 
	0xb2, 0xb3, 0x67, 0xbd, 0xb8, 0x30, 0xc8, 0x3b, 0x7a, 0xb1, 0xd3, 0x3c, 
	0xf5, 0xc3, 0x65, 0xbc, 0x6a, 0x43, 0x36, 0xbc, 0xbe, 0x06, 0x74, 0x3d, 
	0xec, 0x18, 0x4f, 0xbc, 0x6a, 0x84, 0x66, 0xbd, 0xec, 0x00, 0xf7, 0xbb, 
	0xa6, 0x2b, 0xd5, 0x3c, 0x0d, 0x5c, 0x59, 0xbd, 0xb1, 0x17, 0x07, 0xbd, 
	0xfd, 0x8a, 0x9c, 0x3b, 0xd2, 0xea, 0x7f, 0xbd, 0x75, 0x6e, 0xdf, 0x3b, 
	0x64, 0xd8, 0x20, 0xbe, 0x16, 0x83, 0x72, 0xbd, 0xed, 0x25, 0xde, 0xbd, 
	0xd0, 0xcf, 0x9e, 0x3d, 0x80, 0xa8, 0xb6, 0x3c, 0x50, 0x83, 0xc9, 0x3a, 
	0xf4, 0x39, 0xaf, 0x3d, 0x1a, 0xef, 0xab, 0x3c, 0x6e, 0xa5, 0x6b, 0xbd, 
	0x2d, 0x32, 0x6e, 0xbd, 0xa8, 0x96, 0x9f, 0x3d, 0xbd, 0xea, 0x42, 0xbd, 
	0xb1, 0xdf, 0xd9, 0xbc, 0x70, 0x9d, 0xfd, 0x3c, 0xf8, 0x44, 0xe6, 0xbd, 
	0x1c, 0x91, 0xb9, 0xbc, 0x4a, 0x73, 0xa6, 0xbd, 0x9f, 0x7b, 0xc6, 0x3c, 
	0xe1, 0xe6, 0x8e, 0xbd, 0x42, 0xe8, 0xde, 0x3c, 0x90, 0xec, 0xa9, 0x3c, 
	0x7f, 0xc0, 0x6e, 0x3d, 0x70, 0x7e, 0x65, 0x3c, 0x3e, 0x7c, 0x6a, 0x3c, 
	0xed, 0x69, 0x4d, 0xbd, 0x4b, 0xf6, 0xce, 0xbd, 0x78, 0xfa, 0x08, 0xbc, 
	0xd7, 0xe4, 0x40, 0x3c, 0x80, 0x78, 0xd3, 0xbd, 0x54, 0x60, 0x34, 0xbe, 
	0x43, 0x45, 0xe2, 0xbc, 0xb7, 0x4a, 0x77, 0x3d, 0x88, 0xea, 0xf6, 0xbd, 
	0xa8, 0x21, 0x0e, 0xbd, 0x1e, 0x63, 0xa6, 0xbd, 0xc9, 0x18, 0x4a, 0x3d, 
	0x93, 0x9e, 0x4e, 0x3d, 0x17, 0x36, 0x34, 0xbc, 0x65, 0x3c, 0xbe, 0x3d, 
	0x6b, 0x82, 0x00, 0x3d, 0x46, 0x72, 0xe4, 0xbc, 0x28, 0x71, 0x20, 0xbd, 
	0x1a, 0xd6, 0x4d, 0xbd, 0x4b, 0x90, 0xb9, 0xbc, 0xeb, 0x6e, 0xa6, 0xbb, 
	0x07, 0xa8, 0x2e, 0x3c, 0x31, 0xc0, 0xa4, 0x3d, 0xeb, 0xc0, 0x87, 0x3d, 
	0x58, 0xd1, 0x9d, 0x3d, 0x26, 0x4b, 0xed, 0xbb, 0xae, 0x81, 0x84, 0xbd, 
	0x6e, 0xfb, 0x1c, 0x3d, 0xc6, 0xaf, 0x89, 0x3d, 0xa1, 0x90, 0x81, 0x3d, 
	0x7e, 0x65, 0x11, 0x3c, 0x04, 0x47, 0xe6, 0xb9, 0x62, 0xf8, 0x2f, 0xbc, 
	0x70, 0x4a, 0x33, 0xbd, 0xf6, 0x94, 0x53, 0xbd, 0x2d, 0xff, 0xdf, 0xbc, 
	0xca, 0xb6, 0x19, 0xbd, 0xad, 0xbe, 0x21, 0xbd, 0xff, 0x10, 0xbf, 0xbc, 
	0x94, 0xb7, 0x50, 0xbc, 0x3e, 0x28, 0xa0, 0xbd, 0x23, 0x72, 0xb2, 0x3c, 
	0xbb, 0x92, 0x59, 0xbd, 0x61, 0x16, 0xb8, 0xbd, 0xe7, 0x3e, 0xff, 0x3c, 
	0x33, 0xe9, 0xfc, 0x3b, 0xb8, 0xd8, 0xf2, 0xbd, 0x95, 0xda, 0xa0, 0xbc, 
	0xfa, 0x00, 0x45, 0x3d, 0xd0, 0xc5, 0x62, 0xbd, 0xfe, 0x6c, 0x23, 0xbd, 
	0xd3, 0x66, 0x0b, 0xbe, 0xe7, 0x52, 0x9f, 0x3c, 0x1b, 0x89, 0x80, 0xbd, 
	0xa2, 0xef, 0x19, 0x3e, 0xfa, 0xd8, 0x1e, 0xbd, 0xcf, 0x03, 0x65, 0x3d, 
	0x9e, 0x94, 0x10, 0x3d, 0xbd, 0x61, 0xa5, 0xbd, 0xc0, 0x9a, 0x88, 0xbb, 
	0xae, 0x69, 0x35, 0xba, 0x25, 0x6b, 0x34, 0xbe, 0xb6, 0x37, 0x08, 0xbe, 
	0xd2, 0xa7, 0xd6, 0xbc, 0x9a, 0x3e, 0x75, 0xbd, 0x41, 0x43, 0x06, 0x3d, 
	0x89, 0x9e, 0x0b, 0x3b, 0x60, 0xad, 0x75, 0x3d, 0x03, 0x7c, 0x36, 0x3d, 
	0x83, 0x41, 0x8f, 0xbd, 0x2e, 0x5e, 0xe5, 0xbc, 0xa5, 0x04, 0x90, 0xbd, 
	0x28, 0x55, 0x0d, 0xbe, 0x47, 0xaf, 0x61, 0xbd, 0xb4, 0xb4, 0xa9, 0x3b, 
	0xc2, 0x87, 0x09, 0xbd, 0xb5, 0x36, 0x3a, 0x3b, 0xd6, 0x21, 0x7b, 0xbc, 
	0xfc, 0x40, 0x13, 0xbd, 0x34, 0xd4, 0xa5, 0x3d, 0x62, 0xc8, 0x1c, 0xbc, 
	0xf4, 0xb1, 0x66, 0xbc, 0x9c, 0x78, 0x2b, 0xbc, 0x26, 0xfd, 0x2d, 0x3c, 
	0x7a, 0xa3, 0xa0, 0xbd, 0x9f, 0x73, 0x19, 0xbd, 0xd0, 0xec, 0x0b, 0xbe, 
	0xfc, 0xb3, 0xb5, 0xbc, 0xf7, 0xbe, 0xf5, 0xbd, 0xa3, 0xea, 0xfe, 0xbd, 
	0x2f, 0x71, 0xa6, 0xbd, 0xe4, 0xec, 0x82, 0x3d, 0x02, 0x73, 0x59, 0x3c, 
	0x6f, 0x6f, 0x81, 0xbc, 0x3f, 0xee, 0x3a, 0xbd, 0xb9, 0xfd, 0x41, 0x3d, 
	0x26, 0x84, 0x4f, 0xbc, 0x5e, 0xd5, 0xb3, 0xbd, 0x0a, 0xf7, 0xa9, 0x3c, 
	0xea, 0x71, 0x6a, 0xbc, 0x8c, 0xca, 0x24, 0xbd, 0x1b, 0xb5, 0xa2, 0xbd, 
	0xaa, 0x64, 0xc0, 0x3b, 0xea, 0xac, 0x15, 0x3e, 0x19, 0xb9, 0xe3, 0xbc, 
	0x93, 0x5c, 0x9a, 0xbd, 0xa8, 0x2c, 0x0a, 0xbe, 0x6e, 0x08, 0x93, 0x3d, 
	0xe0, 0x96, 0xb7, 0x3d, 0x5f, 0x9f, 0x2f, 0xbd, 0xd6, 0xb6, 0xfc, 0xbb, 
	0xc7, 0x2f, 0x86, 0x3a, 0x54, 0x60, 0x23, 0x3d, 0x3c, 0x79, 0x8a, 0xbd, 
	0x5c, 0x39, 0x40, 0x3d, 0x33, 0xc9, 0x89, 0xbd, 0xdc, 0xff, 0x9e, 0xbc, 
	0xe9, 0x94, 0xda, 0xbd, 0x55, 0xbd, 0xbd, 0xbd, 0x1e, 0x92, 0xc7, 0x3b, 
	0xbc, 0x48, 0x2e, 0xbe, 0x37, 0x7f, 0xd2, 0xbc, 0x38, 0x50, 0x44, 0xbd, 
	0x03, 0x63, 0x91, 0xbc, 0xa1, 0xa8, 0xba, 0x3d, 0xed, 0xea, 0x05, 0x3d, 
	0xbd, 0x0c, 0xb9, 0xbd, 0x89, 0x30, 0x9c, 0x3d, 0x86, 0x72, 0x19, 0x3c, 
	0xb7, 0x8e, 0x0b, 0xbd, 0x5f, 0xfa, 0x09, 0x3d, 0x8b, 0xe4, 0x17, 0xbb, 
	0x98, 0x3f, 0xf7, 0xbd, 0xe3, 0x92, 0x8e, 0x3d, 0xa5, 0x64, 0xed, 0x3c, 
	0x01, 0x0b, 0x1d, 0x3d, 0xf1, 0xc2, 0xd0, 0xbc, 0xcb, 0xc0, 0x49, 0xbd, 
	0x27, 0x0a, 0xae, 0xbc, 0xed, 0x22, 0xfa, 0x3d, 0x93, 0x15, 0x9b, 0x3d, 
	0xf6, 0xc0, 0x85, 0xbc, 0x1d, 0x0e, 0x20, 0xbd, 0xe9, 0xf5, 0x67, 0xbd, 
	0x06, 0x7c, 0x0b, 0xbd, 0x97, 0x8d, 0x51, 0xbd, 0x63, 0x9d, 0x30, 0xbe, 
	0x6f, 0xb3, 0xef, 0x3d, 0x54, 0x40, 0xaa, 0xbd, 0x02, 0xe8, 0x20, 0xbc, 
	0x77, 0x28, 0x03, 0xbd, 0xb3, 0xce, 0x5e, 0xbb, 0x8e, 0xe9, 0xd2, 0xbd, 
	0x30, 0xa4, 0xe0, 0x3c, 0x78, 0xe8, 0x95, 0x3c, 0x2c, 0x07, 0x90, 0xbd, 
	0xaa, 0xf6, 0x2b, 0xbd, 0x55, 0xc0, 0x08, 0xbd, 0x02, 0x45, 0x32, 0xbe, 
	0xb5, 0x8a, 0x9d, 0xbd, 0xcf, 0x79, 0x77, 0x3d, 0xdb, 0x94, 0x83, 0xbb, 
	0x4c, 0xe9, 0x75, 0xbd, 0xdf, 0x5e, 0x82, 0x3d, 0x00, 0x2e, 0xa7, 0x3d, 
	0x08, 0x31, 0x00, 0xbe, 0x8e, 0x10, 0xe8, 0x3c, 0x5f, 0xc3, 0xbd, 0xbc, 
	0x67, 0x60, 0x81, 0xbc, 0x54, 0x49, 0x74, 0x3d, 0xc6, 0xca, 0x30, 0x3c, 
	0x42, 0x6d, 0xd3, 0x3c, 0xab, 0x6a, 0xa3, 0xbb, 0x1b, 0x84, 0xb5, 0xbd, 
	0x33, 0x01, 0x98, 0xbd, 0xbb, 0x39, 0x56, 0x3d, 0xa8, 0x6a, 0x15, 0xbd, 
	0x95, 0x3a, 0x65, 0xbd, 0x6b, 0x4c, 0xb5, 0x3c, 0x55, 0x95, 0x45, 0x3d, 
	0x6c, 0xee, 0x07, 0x3d, 0x7c, 0x9a, 0x8e, 0xbd, 0x70, 0x9a, 0xe4, 0xbc, 
	0x11, 0x1c, 0x98, 0xbd, 0xa2, 0xf3, 0x58, 0xbe, 0x27, 0x44, 0x91, 0xbb, 
	0x5a, 0x16, 0x03, 0xbd, 0x72, 0x20, 0xba, 0xbd, 0xf2, 0xe0, 0x81, 0x3d, 
	0x5c, 0x7a, 0xff, 0x3c, 0x47, 0xbf, 0xb7, 0xbd, 0x1a, 0xe0, 0xa9, 0x3d, 
	0x4b, 0xa8, 0xff, 0x3b, 0xaf, 0x22, 0xdc, 0x3c, 0xa3, 0xdc, 0x31, 0x3c, 
	0x6a, 0xfe, 0xc3, 0x3d, 0xaa, 0x0d, 0x0b, 0xbd, 0xe5, 0xc5, 0xb8, 0xbc, 
	0x21, 0xe4, 0xe5, 0xbd, 0xf3, 0xc5, 0x68, 0x3d, 0x2a, 0x4d, 0x7a, 0xbd, 
	0x10, 0x08, 0xf0, 0xbd, 0x93, 0x50, 0xc0, 0x3d, 0xd8, 0x7a, 0xe8, 0xbd, 
	0xe3, 0x3a, 0x9b, 0x3c, 0x6c, 0xf5, 0x80, 0x3d, 0x3a, 0x61, 0xf2, 0xbd, 
	0xb0, 0xd7, 0x52, 0x3d, 0x47, 0x82, 0x10, 0xbe, 0x2f, 0xe1, 0xdb, 0xbc, 
	0xcb, 0xe7, 0x00, 0xbd, 0x2b, 0xc8, 0xb1, 0x3d, 0x7f, 0x79, 0x91, 0xbd, 
	0xcb, 0x95, 0xf5, 0xbd, 0x5b, 0x30, 0x53, 0xbd, 0xd1, 0xa4, 0x14, 0x3c, 
	0xa7, 0x9f, 0x76, 0xbd, 0xaf, 0xcf, 0xc3, 0xbd, 0x5b, 0x10, 0x3f, 0x3d, 
	0xa9, 0x4f, 0x96, 0xbd, 0x79, 0x79, 0x9e, 0x3d, 0x23, 0x27, 0x42, 0xbd, 
	0x7f, 0xe7, 0x34, 0xbd, 0xbf, 0x24, 0xce, 0x3c, 0x0f, 0x57, 0xf7, 0xbc, 
	0x26, 0xa1, 0xa6, 0x3b, 0x6c, 0x66, 0x15, 0xbd, 0x85, 0xe9, 0x7c, 0x3d, 
	0xf7, 0xca, 0xb1, 0xbd, 0x02, 0x98, 0x2a, 0xbe, 0xfc, 0x38, 0xa9, 0xbd, 
	0x2f, 0xa8, 0x43, 0x3d, 0x8d, 0xac, 0xa3, 0xbd, 0xff, 0x20, 0x33, 0x3d, 
	0x14, 0x8c, 0x8c, 0x3b, 0x2d, 0xc3, 0x94, 0xbd, 0xd0, 0xe9, 0xe5, 0x3d, 
	0xee, 0x48, 0x4b, 0xbd, 0xb4, 0x8d, 0x69, 0xbd, 0x60, 0x55, 0xf4, 0x3c, 
	0x19, 0x95, 0x82, 0xbd, 0x28, 0xd2, 0x5f, 0xbd, 0x27, 0x99, 0xce, 0x39, 
	0x7f, 0x9f, 0x1e, 0x3c, 0x7f, 0x33, 0xc4, 0xbd, 0xa3, 0xa1, 0xfb, 0xbd, 
	0x37, 0xa4, 0xed, 0xbd, 0xf2, 0xb1, 0x49, 0xbb, 0x3d, 0xdc, 0x3e, 0xbe, 
	0x31, 0xf6, 0x4b, 0xbd, 0x37, 0xdb, 0x42, 0x3e, 0x52, 0x90, 0x27, 0xbc, 
	0xfe, 0x36, 0x34, 0x3d, 0x6a, 0x34, 0x1a, 0x3c, 0x33, 0x42, 0xfb, 0xbd, 
	0xc1, 0x96, 0xea, 0xbc, 0xce, 0x92, 0xd8, 0xbd, 0xba, 0xd9, 0x7f, 0xbb, 
	0xf1, 0xd0, 0xc7, 0xbd, 0x02, 0x1f, 0x42, 0x3e, 0x23, 0x8a, 0xe2, 0xbd, 
	0xfc, 0xa1, 0xdb, 0xbc, 0xdc, 0x3c, 0x87, 0xbc, 0xd9, 0xee, 0x8b, 0x3c, 
	0x2c, 0x79, 0xe7, 0xbd, 0x4e, 0xd6, 0x3f, 0x3d, 0x7d, 0xa5, 0xda, 0x3d, 
	0xa2, 0x40, 0xd8, 0xbd, 0xfe, 0xb7, 0x87, 0x3c, 0x34, 0x15, 0x52, 0x3b, 
	0x25, 0x41, 0xc5, 0xbd, 0x3c, 0xea, 0x91, 0xbc, 0xbf, 0x64, 0x6e, 0x3d, 
	0x9c, 0x84, 0x2a, 0xbc, 0x84, 0x3e, 0x78, 0xbd, 0xb0, 0x0a, 0x91, 0x3e, 
	0xd4, 0x8a, 0x0b, 0x3e, 0xa8, 0xb2, 0xd7, 0xbd, 0x00, 0xf1, 0xa9, 0xbd, 
	0x70, 0x54, 0x85, 0xbc, 0xc8, 0x4d, 0x34, 0xbe, 0xd1, 0x01, 0xa5, 0x3d, 
	0x1a, 0x8d, 0x84, 0xbd, 0x4a, 0x79, 0xb9, 0xbd, 0x64, 0x32, 0x30, 0x3b, 
	0x83, 0x68, 0x0e, 0x3c, 0xd1, 0xfc, 0xcf, 0x3d, 0x74, 0x19, 0xcf, 0x3d, 
	0x71, 0x46, 0xf4, 0x3c, 0xd0, 0x5a, 0x86, 0xbd, 0x9b, 0xc4, 0x0d, 0xbe, 
	0x20, 0x48, 0xed, 0x3d, 0x85, 0xd0, 0xb2, 0x3b, 0xc3, 0xec, 0x8d, 0xbe, 
	0xb8, 0x13, 0x5c, 0xbe, 0x31, 0xb7, 0x19, 0x3c, 0x24, 0x0a, 0x53, 0xbd, 
	0x02, 0x65, 0xc3, 0xbd, 0x29, 0x9d, 0x6b, 0xbe, 0xb2, 0x5a, 0x77, 0xbe, 
	0x49, 0xa2, 0x00, 0x3d, 0x6e, 0x47, 0x8c, 0x3a, 0x34, 0xd5, 0xd3, 0xbb, 
	0x35, 0x6e, 0xbf, 0xbc, 0xf8, 0xaf, 0xae, 0x3d, 0xf7, 0x4f, 0x6b, 0xbe, 
	0x9f, 0x55, 0x60, 0x3d, 0xe7, 0xab, 0x8c, 0xbd, 0xc6, 0x14, 0xf4, 0x3b, 
	0x7d, 0x94, 0x37, 0xbe, 0x67, 0xbb, 0x57, 0xbe, 0xb4, 0x8c, 0x02, 0xbd, 
	0xc1, 0x67, 0x5a, 0xbe, 0xad, 0x7d, 0xe0, 0xbd, 0x78, 0x2a, 0x10, 0x3d, 
	0xf3, 0x2f, 0xec, 0xbd, 0x89, 0x30, 0x9a, 0x3d, 0x17, 0xa1, 0xad, 0x3c, 
	0x18, 0xd2, 0x72, 0x3d, 0x6d, 0xb3, 0xe0, 0xbd, 0x1c, 0x48, 0x39, 0xbd, 
	0xfd, 0x4e, 0x56, 0xbe, 0xf2, 0xe5, 0xbb, 0xbd, 0x22, 0x85, 0x6d, 0xbd, 
	0xe3, 0x21, 0x71, 0xbc, 0x96, 0xff, 0x7d, 0xbd, 0x88, 0xc4, 0xf7, 0xbd, 
	0x29, 0xca, 0x27, 0x3d, 0x72, 0xf5, 0xa5, 0xbe, 0xcf, 0x4c, 0xc9, 0xbd, 
	0x36, 0x66, 0x3d, 0x3d, 0x98, 0xe5, 0x4d, 0xbe, 0xab, 0xec, 0x19, 0x3d, 
	0xb6, 0x68, 0xff, 0x3a, 0x17, 0xda, 0x16, 0x3d, 0x42, 0xb8, 0x76, 0xbd, 
	0x94, 0xd6, 0x3a, 0xbd, 0x61, 0x3f, 0x3a, 0xbe, 0x70, 0xee, 0xe6, 0xbb, 
	0x5f, 0x8a, 0x41, 0xbd, 0x53, 0x58, 0xdb, 0xbd, 0x67, 0x53, 0x8c, 0xbd, 
	0xca, 0x5f, 0x1e, 0xbd, 0x78, 0x7b, 0x63, 0xbd, 0x64, 0x2f, 0xb6, 0xbe, 
	0x28, 0xd6, 0x5b, 0xbd, 0xdb, 0xc4, 0x94, 0x3c, 0xfc, 0x96, 0x7e, 0xbd, 
	0xbe, 0x9a, 0xce, 0x3d, 0xf5, 0x71, 0x6e, 0x3d, 0xc0, 0xdf, 0x3d, 0x3d, 
	0x80, 0xe5, 0xab, 0x3b, 0xa5, 0xed, 0x6d, 0xbd, 0x78, 0xb1, 0x07, 0xbe, 
	0x61, 0x08, 0x42, 0xbd, 0x4e, 0xed, 0x94, 0xbc, 0xe6, 0x29, 0x03, 0xbe, 
	0x45, 0xab, 0x24, 0xbe, 0x1b, 0x22, 0xe1, 0xbd, 0x75, 0x5b, 0x15, 0xbe, 
	0x71, 0xec, 0x78, 0xbe, 0x9f, 0x4b, 0x35, 0xbd, 0x1e, 0xeb, 0x7f, 0x39, 
	0x3c, 0x28, 0x8f, 0xbd, 0xd7, 0x45, 0x70, 0x3d, 0x76, 0xa7, 0x74, 0xbc, 
	0xbf, 0x3e, 0xc5, 0x3c, 0x4e, 0x61, 0x9f, 0x3c, 0x80, 0xcd, 0xbc, 0xbd, 
	0x54, 0xd0, 0x90, 0xbe, 0x04, 0xf8, 0x99, 0xbd, 0xc1, 0x95, 0x24, 0xbd, 
	0x40, 0x10, 0x04, 0xbe, 0x0b, 0xb9, 0x44, 0xbe, 0x01, 0xe7, 0xc9, 0xbd, 
	0xe6, 0x6a, 0x87, 0xbc, 0x34, 0x79, 0x61, 0xbe, 0x3d, 0x7f, 0xa7, 0x3c, 
	0x2a, 0x8b, 0xcc, 0xbc, 0xb7, 0x2d, 0xf8, 0xbd, 0x63, 0x98, 0x70, 0x3d, 
	0x28, 0xc1, 0x1d, 0x3c, 0x78, 0x6b, 0x5e, 0x3d, 0x2d, 0x02, 0xde, 0xbb, 
	0x7b, 0x3a, 0x07, 0xbd, 0x1c, 0x36, 0x26, 0xbe, 0x4d, 0x22, 0x34, 0xbe, 
	0x67, 0x8f, 0xac, 0xbd, 0x1c, 0x9d, 0x35, 0xbe, 0x74, 0xbe, 0x97, 0xbe, 
	0xf8, 0x3b, 0xe6, 0xbd, 0xc4, 0x44, 0xb4, 0xbd, 0x55, 0x74, 0x66, 0xbe, 
	0xf0, 0x90, 0x9e, 0x3d, 0x3f, 0xe4, 0xd8, 0xbd, 0xde, 0x11, 0xb6, 0xbd, 
	0x92, 0x7a, 0x31, 0x3c, 0x7c, 0x5b, 0x07, 0xbd, 0xcf, 0x00, 0x71, 0xbc, 
	0x5a, 0xdc, 0xa9, 0xbc, 0x78, 0x72, 0xe6, 0xbb, 0x13, 0x13, 0x25, 0xbc, 
	0xbd, 0x4e, 0x2d, 0x3d, 0x2c, 0xee, 0x71, 0xbc, 0xe0, 0x9f, 0x36, 0x3c, 
	0x80, 0xcf, 0x25, 0x3e, 0x34, 0x9f, 0x37, 0xbb, 0x11, 0x4e, 0xd0, 0xbd, 
	0x45, 0x5d, 0x9d, 0x3c, 0x83, 0xa0, 0x45, 0xbd, 0x76, 0xba, 0x2f, 0xbc, 
	0xb3, 0xcd, 0xac, 0xbd, 0xcf, 0xd5, 0x40, 0x3b, 0x94, 0xa8, 0xed, 0xbc, 
	0xbb, 0x92, 0x11, 0x3d, 0xe0, 0x54, 0xf4, 0xbb, 0x7a, 0x8b, 0x32, 0x3c, 
	0x61, 0x31, 0x9c, 0xbc, 0x6e, 0x35, 0xb4, 0xbc, 0x9c, 0xc3, 0x71, 0xbd, 
	0x24, 0x91, 0x2b, 0x3d, 0xf6, 0x4b, 0xcb, 0x3c, 0x78, 0x3c, 0x22, 0xbd, 
	0x28, 0xd5, 0xc2, 0x3c, 0xd2, 0x11, 0xa3, 0x3c, 0xfc, 0x4f, 0xd1, 0x3c, 
	0xc8, 0xd3, 0x9c, 0xbd, 0x6e, 0x84, 0xf5, 0xbc, 0x62, 0x02, 0x7d, 0x3d, 
	0x4b, 0x30, 0x6e, 0xbd, 0x49, 0x66, 0xf4, 0x3c, 0xfd, 0x6f, 0x0c, 0xbd, 
	0xa9, 0x5a, 0xc5, 0xbb, 0x23, 0x46, 0x4b, 0xbd, 0xcf, 0x35, 0x27, 0xbd, 
	0x57, 0xb3, 0x27, 0xbb, 0xce, 0x2f, 0x8a, 0x3c, 0x87, 0x2d, 0xd5, 0xb9, 
	0x5e, 0x59, 0x45, 0xbb, 0x43, 0x03, 0x4e, 0xbd, 0xe4, 0x04, 0x70, 0x3d, 
	0xdd, 0xbf, 0x05, 0x3c, 0x5b, 0x7f, 0x06, 0xbd, 0x0a, 0x4c, 0xd5, 0xbc, 
	0x06, 0x5f, 0x27, 0x3d, 0x83, 0xaa, 0x84, 0xbd, 0x5c, 0x0d, 0x14, 0x3c, 
	0xcb, 0xb0, 0x69, 0xbb, 0xd6, 0xf7, 0x86, 0x3d, 0xed, 0x92, 0xb7, 0x3c, 
	0x41, 0xd3, 0x0a, 0xbd, 0x7d, 0x92, 0x22, 0xbd, 0x02, 0x01, 0xe9, 0x3c, 
	0x55, 0x21, 0x20, 0xbd, 0xae, 0x24, 0x6b, 0xbd, 0xfb, 0xdc, 0xab, 0xbc, 
	0xa1, 0x65, 0x01, 0x3d, 0x4a, 0x0d, 0x5e, 0x3c, 0x9d, 0xe2, 0x5e, 0xbd, 
	0xba, 0xe0, 0x05, 0xbe, 0xe9, 0xad, 0x94, 0x3c, 0x0e, 0x4d, 0x8f, 0xbd, 
	0x24, 0x07, 0x34, 0xbb, 0x1e, 0xd9, 0x9e, 0xbd, 0x57, 0x5b, 0x0f, 0xbd, 
	0x4b, 0xf4, 0xc4, 0xbc, 0x60, 0xf7, 0x37, 0x3c, 0x84, 0x37, 0x92, 0x3c, 
	0x67, 0xa5, 0x49, 0x3d, 0x35, 0x2c, 0x25, 0xbd, 0xd4, 0x94, 0x84, 0xbd, 
	0x22, 0x59, 0x55, 0x3d, 0xb9, 0xb3, 0x45, 0x3d, 0xba, 0xd8, 0xeb, 0xbc, 
	0x11, 0x87, 0xfa, 0xbc, 0x94, 0xb2, 0xef, 0xbd, 0x85, 0xe3, 0x32, 0x3d, 
	0x99, 0x9c, 0x60, 0xbd, 0x7a, 0xc8, 0x7c, 0x3c, 0x30, 0xee, 0x52, 0xbd, 
	0x1f, 0x0e, 0x7c, 0xbd, 0xab, 0xcc, 0xbb, 0xbd, 0x04, 0x66, 0x3a, 0x3d, 
	0x84, 0xb9, 0x1f, 0xbd, 0x9a, 0x72, 0x55, 0x3d, 0x20, 0x60, 0x33, 0x3d, 
	0x56, 0x16, 0x99, 0xbd, 0x02, 0x92, 0x83, 0x3c, 0xd9, 0x8b, 0x91, 0x3c, 
	0x64, 0x33, 0x2d, 0xbd, 0xeb, 0x81, 0xa7, 0x3b, 0x5d, 0x1a, 0xee, 0xbd, 
	0x72, 0xd7, 0x86, 0x3c, 0x3e, 0x22, 0xc2, 0xbd, 0xb9, 0x8c, 0xfa, 0x3c, 
	0x7b, 0x16, 0xeb, 0xbc, 0xcb, 0xa7, 0x4d, 0xbd, 0x9b, 0x7b, 0x48, 0x3c, 
	0x03, 0x41, 0x59, 0xba, 0x48, 0x10, 0x4a, 0xbc, 0x40, 0x73, 0x35, 0x3c, 
	0x29, 0x89, 0xef, 0x3d, 0x4e, 0xfe, 0x21, 0xbd, 0x70, 0xa5, 0x16, 0x3d, 
	0x22, 0x78, 0x8b, 0x3d, 0xee, 0x38, 0xa4, 0x3b, 0xe1, 0x50, 0x49, 0x3c, 
	0xb0, 0xda, 0x09, 0xbd, 0x00, 0x17, 0xf6, 0x3c, 0x44, 0xa8, 0xeb, 0xbb, 
	0xed, 0xf2, 0x5f, 0xbd, 0xe8, 0x75, 0xf8, 0x3c, 0x8e, 0x26, 0x70, 0xbd, 
	0xaa, 0x80, 0xb1, 0xbd, 0x28, 0xb3, 0x98, 0xbd, 0xee, 0x0b, 0x8d, 0xbd, 
	0xc6, 0xf2, 0x99, 0xbd, 0xbd, 0x41, 0x21, 0x3e, 0x51, 0x2f, 0xf4, 0xbd, 
	0x78, 0xa1, 0x0d, 0x3d, 0x73, 0xef, 0x49, 0x3d, 0x03, 0xd9, 0x32, 0xbd, 
	0xfe, 0xb8, 0xe7, 0xbc, 0xb7, 0x54, 0x1b, 0x3c, 0xea, 0xc1, 0x15, 0x3d, 
	0x3c, 0x1b, 0xaa, 0xbd, 0xa2, 0xa1, 0x4f, 0xbb, 0xb7, 0xd3, 0x89, 0xbd, 
	0x10, 0x65, 0x13, 0xbd, 0x21, 0xce, 0x56, 0xbc, 0x25, 0xaf, 0x95, 0xbd, 
	0x18, 0xeb, 0x48, 0xbd, 0x6d, 0x00, 0x20, 0x3d, 0x7d, 0x50, 0x80, 0x3d, 
	0xf3, 0x18, 0xf3, 0xbc, 0x17, 0x22, 0x7e, 0x3c, 0xf9, 0x71, 0x07, 0x3c, 
	0x8f, 0xd0, 0x8c, 0xbc, 0x84, 0x96, 0x11, 0x3c, 0x0a, 0x12, 0xb5, 0xbc, 
	0x60, 0x3f, 0x5f, 0x3c, 0x46, 0xd2, 0x62, 0xbd, 0x6b, 0x4e, 0xe9, 0xbc, 
	0x57, 0xc8, 0x4a, 0xbb, 0xa1, 0x3f, 0x5d, 0xbd, 0x23, 0xb0, 0xd9, 0xbc, 
	0x44, 0x77, 0xaf, 0xbc, 0xa6, 0x28, 0x38, 0xbd, 0x0f, 0x4a, 0xeb, 0x3c, 
	0x85, 0xb6, 0x51, 0xbc, 0x2e, 0x85, 0x62, 0x3d, 0xb1, 0x9a, 0x80, 0x3c, 
	0x82, 0xd5, 0x22, 0x3c, 0x2c, 0x9d, 0xba, 0xbb, 0x8b, 0x2d, 0x82, 0x3d, 
	0xc7, 0x10, 0xb7, 0x3b, 0x9f, 0x16, 0xbf, 0xbb, 0xa1, 0x41, 0x31, 0xbe, 
	0xd1, 0x9d, 0xf7, 0xbc, 0x04, 0x6f, 0x4e, 0x3d, 0x24, 0x8b, 0x84, 0x3d, 
	0x07, 0x8f, 0x48, 0xbd, 0x46, 0x61, 0xb0, 0xbd, 0xc8, 0x74, 0x27, 0x3c, 
	0xbe, 0x76, 0x3a, 0xbc, 0x21, 0xb7, 0x8c, 0xbd, 0x8b, 0xc8, 0xa9, 0x3c, 
	0x0d, 0x05, 0xb2, 0x3c, 0xc7, 0xc5, 0xcb, 0x3d, 0xe0, 0x08, 0xea, 0x3c, 
	0xe0, 0x61, 0x31, 0x3d, 0x87, 0xf5, 0x88, 0xba, 0x5c, 0x57, 0x78, 0x3b, 
	0xd1, 0xc7, 0x3b, 0xbe, 0xb1, 0xad, 0x21, 0xbc, 0x3d, 0xc7, 0xb8, 0xbc, 
	0x4d, 0xa9, 0x34, 0x3d, 0x4c, 0xf1, 0xc4, 0xbc, 0xf2, 0xf2, 0x8e, 0x3c, 
	0x92, 0x5a, 0x04, 0x3c, 0x3d, 0xd4, 0x5d, 0xbc, 0x88, 0x05, 0x2e, 0x3c, 
	0xc6, 0x55, 0x92, 0xbc, 0xa9, 0x94, 0xd7, 0x3c, 0xad, 0x9f, 0x32, 0x3d, 
	0x9a, 0x6a, 0x0e, 0x39, 0xad, 0x6a, 0x75, 0x3d, 0x56, 0xe5, 0x3f, 0xbd, 
	0x81, 0xdb, 0xee, 0x3b, 0x5c, 0x5c, 0xbe, 0xbd, 0xd2, 0x0c, 0x4a, 0xbc, 
	0x05, 0x48, 0x07, 0x3c, 0xfb, 0xe6, 0x03, 0xbd, 0xee, 0xe2, 0x8c, 0xbc, 
	0x57, 0x77, 0x90, 0x3c, 0x9a, 0x84, 0x29, 0xbe, 0x62, 0x61, 0x02, 0x3d, 
	0xcb, 0x57, 0xea, 0xbc, 0xd3, 0xbd, 0x3e, 0xbd, 0x01, 0x51, 0xa2, 0xbd, 
	0x26, 0x31, 0xf1, 0x3c, 0xef, 0x87, 0xaf, 0xbc, 0x61, 0xe8, 0x12, 0x3d, 
	0xcb, 0xc7, 0x9c, 0xbc, 0x17, 0x56, 0x37, 0x3d, 0xa2, 0xb0, 0x1c, 0x3c, 
	0xf9, 0x0a, 0x4b, 0xbd, 0xf4, 0x69, 0xbf, 0xbc, 0x96, 0x6e, 0x27, 0xbd, 
	0xb6, 0x75, 0x25, 0xbd, 0x7a, 0xc1, 0x4a, 0x3b, 0xb7, 0x45, 0x02, 0xbd, 
	0x8b, 0xd0, 0xb0, 0xbd, 0xb7, 0x35, 0x9f, 0x3d, 0xe6, 0x4c, 0xa7, 0xbd, 
	0x5b, 0x44, 0x8f, 0xbd, 0xc9, 0xab, 0x5c, 0x3d, 0x37, 0x2c, 0x82, 0x3c, 
	0x98, 0xba, 0xcd, 0xbc, 0xc0, 0x1c, 0x19, 0x3b, 0xdf, 0x8d, 0xf9, 0x3c, 
	0xdb, 0x7a, 0xfa, 0xbc, 0xc0, 0xa1, 0xf4, 0xbb, 0x2b, 0xec, 0x4e, 0x3d, 
	0xce, 0x40, 0xbb, 0xbc, 0xbd, 0xb0, 0xc6, 0xbb, 0x92, 0xcd, 0xb1, 0xbb, 
	0xa0, 0xee, 0x97, 0xbd, 0x15, 0x5e, 0xfc, 0xbc, 0x35, 0x06, 0x6e, 0x3e, 
	0xd1, 0xa2, 0xc6, 0x3c, 0x2f, 0x4c, 0x42, 0xbd, 0xc7, 0xca, 0x2e, 0xbd, 
	0xf5, 0x7c, 0x9a, 0xbc, 0x1c, 0x17, 0x6f, 0xbc, 0x87, 0x06, 0xc3, 0xbd, 
	0x85, 0x12, 0x3f, 0x3d, 0x05, 0x9f, 0x2e, 0x3d, 0x5d, 0xc7, 0x95, 0xbc, 
	0x8e, 0x99, 0x30, 0xbd, 0xbb, 0x37, 0x9c, 0x3c, 0x5b, 0x15, 0xf5, 0x3c, 
	0x02, 0xad, 0x80, 0xbd, 0x22, 0x7a, 0x07, 0x3d, 0x8d, 0xa8, 0xc7, 0x3c, 
	0xb0, 0x66, 0x93, 0xbd, 0x6b, 0xb6, 0x68, 0xbb, 0x2c, 0x2b, 0xa1, 0x3c, 
	0xd8, 0x08, 0x56, 0xbd, 0x3d, 0x1e, 0xd1, 0x3c, 0xf4, 0xf1, 0xe7, 0x3b, 
	0x8e, 0xb1, 0x75, 0x3c, 0x41, 0xf1, 0x94, 0x3c, 0x29, 0x36, 0x90, 0xbd, 
	0xcd, 0xa6, 0xd6, 0xbd, 0x02, 0x89, 0x9b, 0x3c, 0x9d, 0x28, 0xc3, 0xbd, 
	0x5b, 0x3c, 0x0b, 0x3d, 0x79, 0x82, 0xbc, 0xbd, 0xda, 0x00, 0xe2, 0x3d, 
	0x20, 0x7c, 0x32, 0xbd, 0x6a, 0xff, 0x8c, 0xbc, 0xe8, 0x5a, 0x3d, 0x3d, 
	0x48, 0xa8, 0xf7, 0x3c, 0x12, 0x93, 0x73, 0xbc, 0x02, 0x7f, 0x4d, 0x3c, 
	0x3e, 0xe5, 0x9c, 0x3d, 0xa2, 0x2e, 0x75, 0xbd, 0xdf, 0x71, 0x7f, 0xbc, 
	0x7c, 0x28, 0x06, 0xbe, 0x3c, 0x2e, 0xab, 0xbc, 0x1e, 0xe1, 0xd8, 0xbb, 
	0xa1, 0xf4, 0x59, 0xbd, 0x1e, 0xd2, 0x7b, 0x3d, 0xad, 0x0c, 0x05, 0xbe, 
	0x6e, 0x2e, 0x1f, 0xbc, 0xdb, 0x43, 0x03, 0x3c, 0x50, 0xb8, 0x08, 0xbe, 
	0x4c, 0xdb, 0xd6, 0xbd, 0xc9, 0x40, 0x73, 0xbd, 0x65, 0x05, 0x4c, 0xbd, 
	0xbb, 0x2a, 0x14, 0x3c, 0xd1, 0x64, 0xa4, 0x3d, 0x69, 0x5d, 0x33, 0xbd, 
	0x0b, 0x7a, 0xc2, 0x3c, 0x37, 0x87, 0x85, 0xbe, 0xa6, 0x1d, 0x52, 0xbd, 
	0x93, 0x5b, 0xff, 0x3c, 0xcf, 0xd9, 0xe5, 0xbc, 0x2d, 0x7a, 0xc9, 0x3c, 
	0xc1, 0x8e, 0xf1, 0x3c, 0x60, 0x52, 0x61, 0x3d, 0xf6, 0x20, 0x3d, 0xbd, 
	0xa1, 0x51, 0x95, 0xbd, 0xb5, 0x33, 0x15, 0xbe, 0x60, 0x8c, 0x40, 0xbc, 
	0x31, 0x63, 0x09, 0xbd, 0x5e, 0x6a, 0xde, 0xbc, 0xb4, 0x49, 0xab, 0x3c, 
	0x26, 0x7f, 0x5d, 0x3b, 0xc5, 0x72, 0x69, 0xbc, 0x96, 0xd2, 0xae, 0xbd, 
	0x8a, 0x20, 0x00, 0x3d, 0x63, 0x7c, 0xda, 0xbc, 0x09, 0x68, 0x6c, 0x3c, 
	0xed, 0x98, 0x7f, 0xbb, 0x98, 0x97, 0x40, 0x3d, 0xb0, 0x55, 0xdd, 0xbd, 
	0x2b, 0x7c, 0xa6, 0xbd, 0x3c, 0x8a, 0xe0, 0x3c, 0x59, 0x05, 0x45, 0x3c, 
	0xe9, 0x6f, 0x40, 0xbd, 0x68, 0xd3, 0x2a, 0x3c, 0x9c, 0x9e, 0x60, 0xbc, 
	0x10, 0x4c, 0xe9, 0x3a, 0x05, 0x12, 0x81, 0xbd, 0x45, 0x28, 0x02, 0x3d, 
	0xc1, 0x2b, 0x35, 0xbd, 0x81, 0x8b, 0xab, 0x3c, 0x79, 0xdf, 0x30, 0x3d, 
	0x06, 0x34, 0xc3, 0xbd, 0x05, 0x44, 0xd1, 0x3c, 0x5c, 0xe0, 0x71, 0xbd, 
	0xf4, 0x30, 0xe8, 0x3c, 0x8a, 0x16, 0xfe, 0x3c, 0x75, 0x18, 0x19, 0x3e, 
	0x4e, 0x36, 0x64, 0xbd, 0x3a, 0xf4, 0x89, 0xbd, 0xf6, 0xd6, 0xfb, 0xbc, 
	0x49, 0x9e, 0xb5, 0xba, 0xfe, 0x35, 0xaa, 0xbc, 0x8b, 0x77, 0x8c, 0xbd, 
	0x08, 0x8a, 0xea, 0x3c, 0xde, 0x06, 0x85, 0x3d, 0xb0, 0xed, 0x4e, 0x3d, 
	0x87, 0x3f, 0xd3, 0x3c, 0x26, 0xf7, 0x82, 0x3d, 0x0e, 0x81, 0xd1, 0xbc, 
	0xa3, 0x91, 0x8f, 0x3c, 0x6b, 0x47, 0xc3, 0xbd, 0xd3, 0xca, 0x9f, 0x3b, 
	0xfb, 0x4b, 0x19, 0x3e, 0xf7, 0xed, 0xd7, 0x3c, 0x85, 0x74, 0x07, 0xbd, 
	0xde, 0xc8, 0x75, 0xbd, 0x2f, 0xe2, 0x8f, 0x3c, 0x4b, 0x34, 0x5d, 0xbd, 
	0x0f, 0xb2, 0x4c, 0xbd, 0x0c, 0x2f, 0xf6, 0x3c, 0xf0, 0x93, 0xfe, 0x3c, 
	0xa7, 0xdb, 0xa3, 0xbd, 0x1d, 0xcb, 0xc5, 0xbd, 0xa3, 0xdb, 0x27, 0x3d, 
	0x87, 0x04, 0x34, 0xbd, 0x80, 0x3e, 0xcf, 0xbd, 0x38, 0x43, 0x44, 0x3d, 
	0xf0, 0xdb, 0x86, 0x3d, 0x6c, 0xf0, 0x9b, 0xbc, 0xa8, 0xcd, 0xa6, 0x3d, 
	0xc5, 0xf2, 0xb6, 0x3c, 0x5f, 0x86, 0x20, 0xbd, 0x43, 0x1f, 0x86, 0x3d, 
	0xc5, 0x0a, 0x37, 0x3d, 0x09, 0x13, 0x49, 0xbe, 0xad, 0x54, 0xc9, 0x3c, 
	0x68, 0xf3, 0x9a, 0xbd, 0xa2, 0x50, 0x06, 0xbe, 0x4f, 0x97, 0x8c, 0xbd, 
	0x0f, 0xf7, 0x34, 0x3c, 0xe2, 0x99, 0x2d, 0xbd, 0x2c, 0x1b, 0xb9, 0xbd, 
	0xb1, 0xdc, 0x9f, 0x3d, 0x36, 0x79, 0x25, 0xbc, 0xae, 0xf2, 0x72, 0x3b, 
	0xcc, 0xae, 0x2b, 0xba, 0x1c, 0xee, 0xd2, 0x3c, 0xe2, 0x08, 0x99, 0xbd, 
	0xde, 0x23, 0x08, 0x3d, 0xd7, 0x8e, 0xce, 0x3d, 0x20, 0x2f, 0x21, 0xbd, 
	0xa1, 0x63, 0x1a, 0xbc, 0x50, 0xab, 0x32, 0xbe, 0x68, 0xd7, 0x7c, 0xbc, 
	0x26, 0xf9, 0x5c, 0xbd, 0x50, 0xb9, 0xb7, 0xbb, 0x08, 0xdb, 0x73, 0xbc, 
	0xe0, 0x56, 0x23, 0xbb, 0x0c, 0x6e, 0x10, 0xbd, 0x6d, 0xa1, 0xab, 0x3d, 
	0xd2, 0x94, 0x79, 0xbd, 0x04, 0x3e, 0x66, 0xbd, 0x9a, 0x13, 0xaf, 0xbd, 
	0x47, 0xc1, 0x97, 0x3c, 0x69, 0xff, 0xff, 0x3c, 0xf1, 0x2b, 0x0e, 0x3e, 
	0x3c, 0x48, 0x9d, 0xbc, 0xbf, 0x4b, 0x1c, 0x3c, 0x29, 0x15, 0x4d, 0xbe, 
	0x21, 0x8d, 0x0b, 0xbe, 0xcc, 0xf0, 0xc7, 0x3c, 0x15, 0x63, 0xe0, 0x39, 
	0x5d, 0x4c, 0xa2, 0xbc, 0x3e, 0x0e, 0x1e, 0xbd, 0xbb, 0xff, 0x07, 0x3a, 
	0xc0, 0x2e, 0xd3, 0xbc, 0x2f, 0x7f, 0x37, 0xbd, 0x30, 0x0e, 0x8d, 0xbd, 
	0x32, 0x50, 0xba, 0xbd, 0x95, 0xe7, 0xb8, 0xbd, 0x58, 0xdc, 0xfa, 0xbb, 
	0xc8, 0x06, 0x6b, 0x3d, 0x6e, 0xa9, 0x5e, 0x3c, 0x7a, 0x49, 0x84, 0xbc, 
	0xf0, 0x74, 0xc1, 0xbd, 0xd1, 0x3f, 0x79, 0xbc, 0x42, 0x9d, 0xfc, 0x3c, 
	0x5e, 0x6c, 0x44, 0xbb, 0x29, 0x52, 0xda, 0xbc, 0x38, 0x5d, 0x02, 0x3d, 
	0x51, 0x5f, 0x88, 0xba, 0x8b, 0x72, 0xa8, 0x3d, 0x4f, 0x43, 0x79, 0xbb, 
	0xfb, 0x09, 0x04, 0x3d, 0x2c, 0x83, 0xa2, 0xbd, 0xae, 0xda, 0x20, 0xbd, 
	0x19, 0x68, 0xa4, 0xbc, 0x20, 0xa0, 0x75, 0x3c, 0x16, 0xb2, 0x8e, 0xbd, 
	0xf7, 0x57, 0x73, 0x3d, 0x04, 0xaf, 0xb9, 0x3b, 0x5e, 0x3f, 0x06, 0x3d, 
	0x76, 0x35, 0x48, 0x3d, 0x68, 0xad, 0x5b, 0xbd, 0xf3, 0x1e, 0x14, 0xbd, 
	0x2f, 0xee, 0xd8, 0xbc, 0x6b, 0x70, 0x5c, 0x3d, 0xc4, 0xd9, 0xd0, 0x3d, 
	0x6a, 0x2e, 0x2f, 0x3e, 0xc7, 0xb5, 0x95, 0xbd, 0x5f, 0xc3, 0x4f, 0xbd, 
	0x76, 0x29, 0x7f, 0xbd, 0x71, 0xb8, 0x19, 0xbd, 0x60, 0x71, 0x2b, 0x3d, 
	0xd4, 0x1d, 0x7f, 0xbd, 0x93, 0x99, 0xd7, 0x3b, 0xf5, 0x1c, 0xa5, 0x3d, 
	0x95, 0xda, 0x04, 0xbd, 0x40, 0x11, 0x4b, 0xbb, 0x0a, 0x2d, 0xe3, 0x3c, 
	0x19, 0x39, 0xed, 0x3b, 0x8b, 0x1c, 0xf1, 0x3c, 0x1f, 0x44, 0x46, 0xbd, 
	0xec, 0xd7, 0x56, 0xbd, 0xa3, 0x79, 0xb1, 0x3d, 0x6c, 0x0e, 0x89, 0x3c, 
	0x05, 0x10, 0xec, 0x3c, 0x77, 0xcd, 0xea, 0x3c, 0xca, 0x6e, 0x2d, 0x3d, 
	0xa5, 0xc9, 0xe6, 0x3b, 0x6b, 0xa6, 0x63, 0xbd, 0xac, 0x20, 0xdc, 0xbc, 
	0xba, 0x82, 0x24, 0x3d, 0x2d, 0x7c, 0x0b, 0x3c, 0xcb, 0xb6, 0x08, 0xbe, 
	0xce, 0x0b, 0x9b, 0x3d, 0x08, 0x2c, 0x96, 0xbd, 0xf5, 0x98, 0x06, 0xbd, 
	0x46, 0x93, 0x98, 0x3b, 0x77, 0x5e, 0xff, 0x3d, 0x7c, 0xe1, 0x34, 0xbd, 
	0xc5, 0xd1, 0xad, 0xbb, 0xd6, 0x0a, 0x21, 0xbd, 0x26, 0x46, 0x9e, 0x3c, 
	0xf7, 0x79, 0x9a, 0x3d, 0x44, 0xc9, 0x6f, 0x3c, 0xb9, 0x39, 0x6a, 0xbd, 
	0x20, 0xfb, 0xd4, 0xbc, 0x80, 0x29, 0xb4, 0xbc, 0xa8, 0xba, 0x3f, 0xbd, 
	0xea, 0x90, 0x8b, 0xbd, 0x03, 0x6f, 0xa7, 0x3c, 0xb5, 0x91, 0x0d, 0xba, 
	0xcf, 0x32, 0x8a, 0xbc, 0x37, 0x7f, 0xd1, 0x3a, 0x24, 0xad, 0x03, 0x3d, 
	0x70, 0x5d, 0x2f, 0xbd, 0x88, 0x74, 0x52, 0xbc, 0x9b, 0x0e, 0x99, 0xbb, 
	0x8a, 0x04, 0x20, 0xbd, 0x82, 0x07, 0x07, 0x3e, 0xda, 0x03, 0xb5, 0x3d, 
	0xbd, 0x25, 0xb2, 0x3d, 0x57, 0x46, 0x47, 0xbd, 0x17, 0x81, 0x48, 0xbc, 
	0xa1, 0xef, 0xc3, 0xbd, 0xd2, 0x5c, 0x61, 0x3b, 0xa1, 0x0b, 0x01, 0xbd, 
	0xf5, 0xf9, 0xb2, 0xbd, 0x14, 0xc9, 0xcf, 0xbb, 0x56, 0x28, 0xbb, 0x3c, 
	0x4f, 0x34, 0x8f, 0x3d, 0xc8, 0x63, 0xff, 0xbc, 0xb2, 0xc8, 0x92, 0x3c, 
	0x38, 0xf1, 0x72, 0xbd, 0xc0, 0x5a, 0xa4, 0xbd, 0x35, 0xb3, 0x30, 0xbb, 
	0x6d, 0xb9, 0x01, 0x3e, 0x50, 0xb0, 0x1c, 0xbe, 0xe9, 0x25, 0x97, 0xbc, 
	0x9b, 0x1a, 0x6e, 0xbd, 0xa6, 0x81, 0xbf, 0x3b, 0xcb, 0x15, 0xf2, 0x3a, 
	0x09, 0xa7, 0x34, 0x3d, 0xa8, 0xda, 0xc6, 0x3b, 0x9e, 0x97, 0xb8, 0xbc, 
	0x58, 0x75, 0x8e, 0xbd, 0x32, 0xf2, 0xa5, 0x3d, 0xe3, 0x5a, 0xbc, 0xbc, 
	0xab, 0xd3, 0x8b, 0xbd, 0xbb, 0xc2, 0xe9, 0xbd, 0x26, 0x67, 0x91, 0xbc, 
	0x16, 0x9f, 0x42, 0x3d, 0xc7, 0x7a, 0x1a, 0x3d, 0x51, 0x44, 0x95, 0xbd, 
	0x24, 0x38, 0x3b, 0xbd, 0x23, 0xb1, 0x1c, 0x3d, 0x95, 0x07, 0x1d, 0xbd, 
	0x0a, 0x83, 0x32, 0x3d, 0xe1, 0xbb, 0x0f, 0xbd, 0x6c, 0x8d, 0x07, 0xbd, 
	0xad, 0x87, 0x6e, 0xbd, 0xfa, 0x4e, 0x56, 0xbe, 0xfb, 0x99, 0xc0, 0x3d, 
	0x3a, 0x49, 0xb6, 0xbd, 0xb7, 0x41, 0x01, 0x3d, 0xc8, 0x7f, 0xfd, 0xbc, 
	0x6c, 0x28, 0x34, 0x3c, 0x15, 0x9c, 0x0e, 0x3d, 0x07, 0xa1, 0xb6, 0xbc, 
	0x54, 0x77, 0x8c, 0xbd, 0xb4, 0x35, 0x05, 0x3d, 0x0a, 0x76, 0x3c, 0xbd, 
	0x80, 0x69, 0xa1, 0x3d, 0x6f, 0xf2, 0x69, 0x3a, 0x48, 0x25, 0x34, 0xbb, 
	0xb3, 0xc0, 0xd1, 0xbc, 0x75, 0xb0, 0x2f, 0xbd, 0x14, 0xe9, 0xa8, 0xbd, 
	0xd9, 0x7f, 0xdb, 0xbc, 0x85, 0x1b, 0x39, 0x3d, 0x0a, 0xc6, 0x71, 0xbd, 
	0x5e, 0x54, 0x36, 0x3d, 0xc3, 0x62, 0x4b, 0xbd, 0x4a, 0x25, 0x29, 0xbd, 
	0x8b, 0xfc, 0xb7, 0xbc, 0x81, 0x51, 0x0c, 0xbd, 0xed, 0xab, 0xf7, 0x3b, 
	0xc2, 0x95, 0xaf, 0x3d, 0x31, 0xe1, 0x44, 0x3d, 0x00, 0x9a, 0xd7, 0xbc, 
	0x2f, 0x64, 0x3e, 0x3d, 0xfa, 0xb4, 0x1c, 0x3d, 0x3a, 0x7a, 0x0a, 0x3d, 
	0x07, 0x70, 0xa8, 0xbd, 0x4a, 0x7a, 0x8e, 0xbd, 0x6b, 0xf6, 0xb8, 0x3d, 
	0xaa, 0x54, 0xf2, 0xbc, 0x78, 0x8b, 0x98, 0x3d, 0x12, 0xef, 0x88, 0x3c, 
	0x0f, 0x77, 0x2c, 0x3d, 0x4f, 0xc3, 0xbd, 0x3c, 0xe1, 0xdd, 0x2d, 0x3a, 
	0xb7, 0x83, 0x6a, 0xbd, 0xfd, 0xb8, 0x09, 0x3d, 0x11, 0xc8, 0xcd, 0x3b, 
	0x34, 0x67, 0x57, 0xbd, 0x47, 0x03, 0x3f, 0x3d, 0xf7, 0x06, 0x4b, 0x3c, 
	0xe9, 0x01, 0x96, 0xbd, 0xdd, 0xf3, 0xb6, 0xbc, 0xc9, 0xf9, 0x99, 0x3d, 
	0x78, 0xa2, 0x9c, 0xbb, 0x12, 0xc5, 0x17, 0xbc, 0x4a, 0x56, 0xf4, 0xbc, 
	0x8e, 0x8b, 0x5c, 0xbd, 0x76, 0xda, 0x5f, 0x3d, 0x6b, 0x4d, 0xf9, 0xbc, 
	0xc9, 0x85, 0x76, 0x3d, 0xff, 0x1e, 0x61, 0xbd, 0xc1, 0xd6, 0x44, 0xbc, 
	0xa1, 0xe2, 0x6a, 0x3c, 0x14, 0xfa, 0x29, 0xbd, 0x3f, 0xcf, 0xc7, 0x3d, 
	0x80, 0x2e, 0xe5, 0x3c, 0xd4, 0x2a, 0x4d, 0xbd, 0xb1, 0xbc, 0xa4, 0xbd, 
	0x57, 0xd1, 0x2d, 0x3d, 0xf5, 0x59, 0x6c, 0x3c, 0xda, 0x1c, 0xbc, 0x3d, 
	0xd4, 0xa8, 0xb3, 0xbc, 0xcc, 0x34, 0x5b, 0x3d, 0x34, 0x43, 0x80, 0x3d, 
	0xab, 0xa6, 0x11, 0xba, 0xe9, 0xe2, 0xc4, 0x3d, 0xa2, 0xdd, 0x16, 0xbd, 
	0x91, 0xb3, 0x49, 0x3c, 0x83, 0x5a, 0xda, 0xbc, 0xad, 0xc0, 0x29, 0xbe, 
	0xcd, 0x61, 0xa2, 0xbd, 0x3d, 0x6d, 0x8f, 0xbd, 0x54, 0x53, 0x09, 0xbd, 
	0x88, 0x70, 0x29, 0xbe, 0x58, 0xb6, 0x90, 0x3d, 0xee, 0x50, 0x5f, 0x3c, 
	0xc2, 0x11, 0x09, 0xba, 0x2a, 0xe5, 0xfa, 0xbd, 0xf5, 0xf0, 0xd8, 0x3c, 
	0xf2, 0x7e, 0xe0, 0xbc, 0x1a, 0x93, 0xfa, 0xbc, 0xeb, 0x6d, 0xce, 0x3c, 
	0x09, 0xff, 0xd8, 0xbd, 0x59, 0xd4, 0x44, 0xbd, 0xb6, 0x1e, 0xe2, 0xbc, 
	0xc7, 0x67, 0xa3, 0xbd, 0x9c, 0xe6, 0x42, 0xbc, 0xdb, 0x0e, 0xaa, 0x3b, 
	0x7e, 0x5e, 0x84, 0x3d, 0x42, 0x06, 0x05, 0xbe, 0xa8, 0x51, 0x6d, 0x3d, 
	0x93, 0x99, 0x49, 0xbd, 0x95, 0xe5, 0x34, 0xbc, 0x9c, 0x1f, 0x8a, 0xbc, 
	0x73, 0x5c, 0x6e, 0x3d, 0x99, 0x20, 0x3b, 0x3d, 0xca, 0x55, 0x7f, 0xbd, 
	0x9b, 0x9d, 0x43, 0x3c, 0x7c, 0xb2, 0xa9, 0xbc, 0x22, 0x15, 0xed, 0xbc, 
	0xf6, 0x4f, 0x5f, 0x3d, 0x2f, 0x9c, 0xb5, 0x3c, 0x6a, 0x17, 0x23, 0xbd, 
	0x18, 0x06, 0x47, 0x3c, 0x36, 0x67, 0x27, 0x3d, 0x53, 0xe7, 0x40, 0xbe, 
	0x80, 0x79, 0x74, 0x3d, 0x12, 0x7e, 0x72, 0xbd, 0x57, 0xd8, 0x85, 0x3c, 
	0xfd, 0xc7, 0x0a, 0xbd, 0x01, 0x27, 0x0c, 0x3d, 0x0f, 0x97, 0x96, 0xbc, 
	0xf5, 0xfc, 0x25, 0xbd, 0x6d, 0x2d, 0x99, 0x3c, 0xc3, 0x53, 0xe2, 0xbc, 
	0x70, 0xeb, 0x7e, 0x3c, 0x12, 0x5c, 0x8d, 0x3d, 0x64, 0x88, 0x8a, 0x3d, 
	0x20, 0x45, 0x26, 0x3d, 0x04, 0x45, 0xd5, 0x3c, 0xf4, 0x5f, 0x20, 0xbd, 
	0xf4, 0xc0, 0x08, 0xbe, 0x54, 0x2b, 0xae, 0xbd, 0xd5, 0x64, 0xca, 0x3c, 
	0x22, 0xbd, 0xbc, 0x3c, 0xf5, 0x74, 0xe9, 0x3c, 0xfb, 0x53, 0x5d, 0x3d, 
	0x1d, 0xb9, 0x07, 0xbd, 0x1b, 0x39, 0x39, 0x3d, 0xfb, 0xed, 0x4a, 0x3d, 
	0x8e, 0xa3, 0x91, 0xbc, 0xe7, 0x3e, 0x2c, 0x3d, 0xa2, 0xeb, 0xbb, 0x3c, 
	0x4c, 0xd5, 0x88, 0xbd, 0xb4, 0xfe, 0x03, 0x3c, 0x7b, 0xd9, 0x2c, 0xbc, 
	0x39, 0xb5, 0xe1, 0x3d, 0xc9, 0x3e, 0x85, 0xbd, 0x60, 0xcc, 0x2d, 0xbd, 
	0x96, 0x1e, 0xf2, 0x3d, 0x1f, 0x17, 0x50, 0x3c, 0xb6, 0x85, 0x72, 0xbd, 
	0xfb, 0x5e, 0x15, 0xbb, 0xa2, 0xdc, 0x33, 0x3d, 0x15, 0x2c, 0x15, 0x3c, 
	0xf4, 0x4d, 0xdd, 0x3c, 0xec, 0xfa, 0xbc, 0xbc, 0x13, 0xeb, 0x2a, 0x3c, 
	0x69, 0x41, 0x50, 0x3d, 0xf8, 0xe2, 0x98, 0x3c, 0x85, 0xf6, 0xeb, 0xbc, 
	0x5a, 0x54, 0xb7, 0x3c, 0xdb, 0x1d, 0x2b, 0xbd, 0xd8, 0xcc, 0xda, 0x3b, 
	0x79, 0x2e, 0xee, 0xbb, 0x34, 0xdf, 0x7a, 0xbb, 0x2e, 0x69, 0x17, 0x3c, 
	0x68, 0xfc, 0x19, 0xbd, 0xea, 0xf1, 0xff, 0xbb, 0x82, 0xae, 0x1b, 0x3d, 
	0x58, 0xe8, 0xc1, 0x3a, 0xe7, 0xcf, 0xf1, 0xbb, 0x08, 0xdc, 0xe9, 0xbc, 
	0xbc, 0xa9, 0x10, 0x3d, 0x98, 0x2f, 0x87, 0xbd, 0x39, 0x92, 0xf8, 0x3d, 
	0x46, 0x99, 0xab, 0x3d, 0x30, 0x05, 0xeb, 0x3c, 0x17, 0x9c, 0x33, 0x3c, 
	0xae, 0x88, 0x0a, 0xbd, 0x6d, 0xf3, 0x18, 0x3d, 0xb4, 0xb3, 0x07, 0x3c, 
	0xb8, 0xa0, 0x1c, 0x3d, 0x33, 0xbd, 0x48, 0xbd, 0x84, 0x8a, 0x0c, 0x3c, 
	0x0a, 0xa3, 0x24, 0x3b, 0xad, 0x84, 0x74, 0xbd, 0x33, 0x8f, 0x10, 0xbd, 
	0xe2, 0x33, 0x90, 0xbc, 0x17, 0x6e, 0xad, 0xbd, 0xeb, 0xcc, 0x18, 0xbc, 
	0xc4, 0xf8, 0xb0, 0x3d, 0xe9, 0xe2, 0x89, 0x3d, 0x11, 0x19, 0x53, 0xbd, 
	0xa7, 0xe0, 0x4a, 0x3d, 0xaa, 0xae, 0x2b, 0xbd, 0x24, 0x2f, 0xa1, 0x3d, 
	0xd1, 0x52, 0x34, 0xbd, 0x09, 0x88, 0xa9, 0xbc, 0xa0, 0x22, 0xf2, 0x3c, 
	0x75, 0x34, 0x08, 0x3d, 0x8e, 0x81, 0x8b, 0x3d, 0xd0, 0x6f, 0xce, 0xbd, 
	0x4e, 0x11, 0xb7, 0x3b, 0x75, 0x00, 0x2e, 0xbd, 0x04, 0xe8, 0xff, 0xbd, 
	0x40, 0xdd, 0xbd, 0xbd, 0x1d, 0x48, 0xec, 0x3c, 0x8f, 0xeb, 0x62, 0x3d, 
	0x6d, 0x46, 0xe5, 0xbb, 0xbd, 0xec, 0xa9, 0xbb, 0x0c, 0x33, 0x30, 0xbd, 
	0x7d, 0x0a, 0x40, 0x3c, 0xa5, 0x41, 0xab, 0xba, 0xc8, 0xde, 0x10, 0x3d, 
	0x2f, 0x7a, 0xca, 0x3d, 0x62, 0xe2, 0x94, 0x3c, 0xdf, 0xd4, 0x90, 0x3d, 
	0x84, 0x95, 0x33, 0xbd, 0xe8, 0x2d, 0x1d, 0xbc, 0xc0, 0x82, 0xab, 0xbc, 
	0x6e, 0x5d, 0x1b, 0x3d, 0x3e, 0x7c, 0x7f, 0x3d, 0xcd, 0xf3, 0x3c, 0x3c, 
	0xf9, 0x37, 0x3d, 0x3d, 0x91, 0x6b, 0x07, 0x3d, 0xdb, 0x9d, 0xfe, 0x3b, 
	0x0d, 0x12, 0x3d, 0xbd, 0xe7, 0x0c, 0xf7, 0xbb, 0xae, 0x31, 0x46, 0xbd, 
	0xd9, 0xa4, 0x0d, 0x3d, 0xd4, 0x4f, 0x33, 0x3c, 0x54, 0x41, 0x8a, 0xbb, 
	0x44, 0x4c, 0x6c, 0x3c, 0x8d, 0x1f, 0x21, 0xbd, 0x18, 0x94, 0x78, 0xbc, 
	0x95, 0xe8, 0x6b, 0x3a, 0x91, 0x54, 0x3a, 0xba, 0x3a, 0x3f, 0xc8, 0xbc, 
	0x7a, 0x27, 0x0b, 0x3a, 0x5a, 0x66, 0xba, 0x3a, 0x51, 0x49, 0x42, 0x3c, 
	0xf4, 0xbd, 0x76, 0xbc, 0xd5, 0xab, 0x9f, 0x3c, 0x14, 0xee, 0x9f, 0x3c, 
	0xae, 0x92, 0x7e, 0x3d, 0xe3, 0x64, 0x13, 0xbd, 0xe4, 0x48, 0xcd, 0x3d, 
	0xd0, 0x28, 0x19, 0x3c, 0x2c, 0x08, 0x51, 0xbd, 0xdf, 0xfd, 0x8b, 0x3d, 
	0x08, 0x0e, 0x7f, 0x3c, 0xf7, 0x20, 0x83, 0x3b, 0x7c, 0x3d, 0x65, 0x3d, 
	0xca, 0x47, 0xdd, 0x3c, 0xad, 0x2c, 0x51, 0x3c, 0xa0, 0x93, 0xb5, 0xba, 
	0xde, 0x2d, 0xd8, 0xbc, 0xea, 0x10, 0xbe, 0xbd, 0x5e, 0x02, 0x29, 0x3d, 
	0xf8, 0x2a, 0x17, 0xbc, 0xc7, 0x4e, 0x31, 0x3d, 0xde, 0xfc, 0xe3, 0xbd, 
	0xd3, 0x17, 0xfe, 0x3c, 0xcb, 0x04, 0x6f, 0x3d, 0x42, 0x8b, 0xbd, 0xbb, 
	0xbb, 0x4d, 0x64, 0x3b, 0x54, 0x7a, 0x91, 0xbd, 0xb5, 0x98, 0x96, 0x3d, 
	0x0c, 0x3d, 0x05, 0x3d, 0xbd, 0x26, 0x6e, 0x3c, 0x62, 0xab, 0xaf, 0xbd, 
	0xcd, 0xd2, 0x83, 0xbd, 0x57, 0x8f, 0x17, 0xbd, 0x21, 0xbb, 0x82, 0xbd, 
	0x81, 0x7b, 0x3d, 0x3b, 0x67, 0xc5, 0xd8, 0xbb, 0x72, 0x02, 0x42, 0x3a, 
	0x9c, 0xa3, 0xba, 0xbd, 0xfc, 0xf3, 0x9c, 0xbd, 0xb8, 0x60, 0xe2, 0xbd, 
	0x03, 0x5c, 0x9a, 0xbc, 0x36, 0xde, 0x43, 0xbc, 0xc2, 0x6c, 0xe9, 0xbd, 
	0xc8, 0x7b, 0x05, 0xbc, 0xe8, 0xcf, 0xa0, 0xbb, 0xb6, 0x45, 0x86, 0x3c, 
	0xf8, 0x55, 0x1f, 0xbd, 0xc2, 0xcf, 0x42, 0xbd, 0xf8, 0x9b, 0x76, 0x3c, 
	0x83, 0xa5, 0x56, 0xbc, 0xb3, 0x1e, 0x50, 0xbd, 0x02, 0x44, 0x39, 0xbd, 
	0x20, 0x0f, 0x63, 0xbd, 0x9b, 0xdd, 0x84, 0xbd, 0xfe, 0x85, 0x6a, 0x3d, 
	0x7b, 0x5a, 0x7b, 0xbd, 0xa6, 0xe1, 0x4f, 0xbd, 0xf9, 0xf6, 0x1a, 0x3d, 
	0x2f, 0x87, 0xc6, 0xbd, 0x87, 0xf9, 0x8a, 0x3c, 0xcb, 0x98, 0x68, 0xbc, 
	0xc2, 0x1e, 0x1c, 0x3d, 0x90, 0x66, 0x61, 0xbd, 0x1d, 0x13, 0x2f, 0xbe, 
	0x87, 0x71, 0x81, 0xbd, 0x56, 0x9d, 0xb2, 0xbb, 0x42, 0x86, 0xd5, 0xbd, 
	0x0a, 0xb2, 0x0a, 0xbe, 0x00, 0x9e, 0x56, 0xbd, 0x4b, 0x2b, 0x99, 0xbc, 
	0x2c, 0xe3, 0x81, 0xbd, 0xab, 0xaf, 0xae, 0xbc, 0x91, 0x60, 0xb0, 0xbc, 
	0x13, 0x6e, 0x87, 0x3d, 0x0b, 0x4b, 0x19, 0xbe, 0x1a, 0x84, 0x1b, 0x3c, 
	0x95, 0x7f, 0xbe, 0xbd, 0xc6, 0xd0, 0x08, 0x3d, 0xc9, 0xa8, 0x93, 0x3c, 
	0xc7, 0x3f, 0xe1, 0xbd, 0x40, 0xfd, 0xe8, 0xbc, 0xfc, 0xb8, 0x93, 0x3c, 
	0xcf, 0x48, 0xc8, 0xbd, 0xd4, 0x18, 0xce, 0xbd, 0xf2, 0x3e, 0x8d, 0xbd, 
	0xd1, 0x2a, 0xa5, 0x3a, 0xef, 0xda, 0xdf, 0xbd, 0x9e, 0x37, 0xa7, 0xbd, 
	0xd7, 0x24, 0x80, 0x3d, 0x47, 0x68, 0xa9, 0x3c, 0xe9, 0x3b, 0xd6, 0xbd, 
	0xaa, 0x3d, 0x88, 0x3c, 0xc6, 0xb7, 0xcd, 0xbc, 0x08, 0x31, 0x24, 0x3d, 
	0xc1, 0x95, 0x07, 0x3c, 0x4f, 0xbb, 0xb4, 0xbd, 0x37, 0x67, 0x1f, 0xbb, 
	0xd3, 0x72, 0x8b, 0xbd, 0x39, 0x53, 0x49, 0xbc, 0x2d, 0x94, 0x37, 0xbd, 
	0x74, 0x0e, 0x3b, 0xbd, 0xf3, 0x59, 0x2d, 0x3c, 0x91, 0xeb, 0xaa, 0xbd, 
	0xc1, 0xac, 0x8e, 0xbd, 0x36, 0xd4, 0x13, 0x3d, 0x95, 0xf4, 0x5b, 0x3c, 
	0x0e, 0x6d, 0x57, 0x3d, 0xf3, 0x47, 0xb5, 0x3c, 0xfd, 0x58, 0x03, 0x3d, 
	0x8e, 0x72, 0x8d, 0x3c, 0xc0, 0x7c, 0xc2, 0x3c, 0xe0, 0x1b, 0xe5, 0xbc, 
	0x77, 0xaa, 0x0d, 0xbb, 0xed, 0x95, 0xad, 0xbd, 0x8a, 0x05, 0x7a, 0xbc, 
	0x94, 0x88, 0x8f, 0x3c, 0xb1, 0xc1, 0xeb, 0x3b, 0xee, 0x37, 0xa7, 0xbd, 
	0x82, 0x69, 0x7e, 0xbd, 0x5d, 0x4d, 0x46, 0x3a, 0x80, 0xde, 0x24, 0x3d, 
	0x06, 0x3b, 0x9e, 0x3c, 0x5a, 0x08, 0xca, 0xbd, 0xc4, 0x77, 0xae, 0x3d, 
	0xb6, 0x72, 0x4b, 0x3d, 0x50, 0x80, 0xb6, 0x3d, 0x10, 0xa6, 0xa6, 0x3b, 
	0xba, 0x40, 0xa1, 0x3d, 0xc3, 0xef, 0x21, 0xbc, 0x56, 0xee, 0x95, 0xbd, 
	0xd0, 0xe1, 0x72, 0xbc, 0x2e, 0xb4, 0x27, 0x3d, 0x96, 0x19, 0xd4, 0x3c, 
	0xfb, 0x4f, 0x48, 0xbd, 0x0e, 0x95, 0xc9, 0x3c, 0x67, 0x19, 0x5d, 0x3c, 
	0x33, 0x86, 0x97, 0xbc, 0x63, 0xa4, 0x4b, 0x3d, 0x5a, 0x99, 0x9e, 0x3a, 
	0xac, 0xe7, 0x97, 0x3c, 0x71, 0x83, 0xbf, 0x3c, 0xd7, 0x4f, 0x5d, 0xbd, 
	0xd0, 0x0d, 0x6b, 0xbd, 0x24, 0x65, 0x51, 0xbc, 0x4a, 0xbd, 0x9a, 0x3c, 
	0x1d, 0x6f, 0x1b, 0xbc, 0x0a, 0xe5, 0xca, 0xbc, 0xb1, 0xdd, 0x86, 0x3b, 
	0xf5, 0x5d, 0x9e, 0x3c, 0x0a, 0x33, 0xce, 0xbd, 0x73, 0x15, 0x31, 0x3d, 
	0x2b, 0x9e, 0xd7, 0xbd, 0x54, 0xb0, 0x3c, 0xbd, 0xd4, 0xad, 0x9e, 0xbc, 
	0xdb, 0x0b, 0x00, 0xbd, 0x21, 0x3d, 0xd6, 0x3c, 0xf1, 0x82, 0xa0, 0xbc, 
	0xab, 0x01, 0x85, 0x3c, 0x5b, 0x04, 0x26, 0x3d, 0xab, 0x99, 0xd4, 0xbc, 
	0xa0, 0xe6, 0x28, 0xbd, 0xb3, 0xa3, 0x88, 0xbd, 0xa7, 0x31, 0xbd, 0x3d, 
	0xd5, 0xc2, 0xbe, 0xbb, 0x65, 0x17, 0x85, 0xbd, 0xb2, 0x6a, 0xa4, 0x3b, 
	0xf1, 0xb1, 0x89, 0x3d, 0x63, 0xbb, 0x10, 0x3d, 0xf4, 0xac, 0x88, 0xbb, 
	0x27, 0xb9, 0xc6, 0x3c, 0xbc, 0x56, 0xb7, 0xbd, 0x93, 0x25, 0x50, 0x3d, 
	0x44, 0xcd, 0x11, 0xbd, 0x29, 0x5e, 0x5f, 0xbc, 0x64, 0xdf, 0x5f, 0xbd, 
	0x2f, 0x9e, 0xbb, 0xbd, 0x87, 0xe2, 0x27, 0xbe, 0x71, 0x97, 0xa0, 0x3d, 
	0xd1, 0xf0, 0x88, 0x3c, 0xe9, 0x41, 0x16, 0x3d, 0x7c, 0x06, 0x60, 0x3d, 
	0x9b, 0x5d, 0x21, 0x3c, 0xd6, 0x24, 0x32, 0xbd, 0x3f, 0xa8, 0xca, 0xbc, 
	0x8d, 0xd0, 0x0f, 0xbd, 0xc7, 0xba, 0xb2, 0x3c, 0x15, 0x78, 0x5c, 0xbd, 
	0xbf, 0xf1, 0xd5, 0x3d, 0x20, 0x79, 0x17, 0xbd, 0x61, 0x62, 0x81, 0xbc, 
	0xaf, 0x64, 0x09, 0xbd, 0x77, 0x3d, 0xfe, 0xbd, 0x13, 0x16, 0x09, 0xbd, 
	0x3f, 0x16, 0x93, 0x3c, 0xe3, 0x18, 0x27, 0xbd, 0x88, 0xe8, 0x16, 0x3d, 
	0x53, 0x21, 0x50, 0xb9, 0x9c, 0x8f, 0x5c, 0xbd, 0x56, 0xcf, 0xd4, 0x3c, 
	0xd2, 0xe1, 0xac, 0xbc, 0xf0, 0x47, 0x37, 0x3d, 0x15, 0x48, 0xa5, 0xbc, 
	0x33, 0xdc, 0x42, 0xbd, 0x9f, 0x8f, 0xed, 0x3c, 0x67, 0xc6, 0xcb, 0xbc, 
	0xc8, 0x18, 0x57, 0xbd, 0x2e, 0x1e, 0x1b, 0xbd, 0xf7, 0xb5, 0xaf, 0xbd, 
	0xf8, 0x04, 0x5e, 0x3c, 0x53, 0x25, 0xd1, 0x3c, 0x57, 0x2d, 0xb9, 0xbd, 
	0xeb, 0x1d, 0x3d, 0x3c, 0xa9, 0x27, 0x4a, 0xbb, 0xf6, 0x8f, 0xef, 0xbc, 
	0xc7, 0xc8, 0x1f, 0x3d, 0x16, 0xae, 0xae, 0xbd, 0x8f, 0x2a, 0x93, 0x3c, 
	0x7a, 0xc7, 0xdd, 0xbc, 0x00, 0xc7, 0x56, 0xbd, 0xcc, 0x7a, 0xe3, 0x3b, 
	0x37, 0xd7, 0x7b, 0x3c, 0x2b, 0x4d, 0x04, 0x3d, 0x97, 0x47, 0x3a, 0x3d, 
	0x81, 0x07, 0xcf, 0xbc, 0x0a, 0xa4, 0x67, 0x39, 0xc6, 0xf9, 0x1a, 0xbd, 
	0xb3, 0x21, 0xac, 0xbd, 0xce, 0x30, 0x9d, 0xbb, 0x8b, 0x56, 0x97, 0x3c, 
	0xf5, 0xdf, 0xac, 0xbd, 0x3e, 0xcc, 0xa0, 0xbd, 0xb7, 0xa9, 0x2c, 0xba, 
	0x17, 0x42, 0xf9, 0x3c, 0xde, 0xa5, 0xd3, 0x3d, 0x42, 0x3c, 0x9a, 0xbd, 
	0xbe, 0xc0, 0x01, 0xbd, 0x98, 0x26, 0x45, 0x3d, 0x09, 0x19, 0x73, 0x3d, 
	0xc4, 0x10, 0x6c, 0x3c, 0xe1, 0x62, 0xb2, 0x3d, 0xd0, 0x5b, 0xbd, 0x3c, 
	0x7d, 0x52, 0x19, 0x3c, 0xb4, 0x51, 0xdd, 0xbb, 0xbc, 0x40, 0x5d, 0x3c, 
	0xeb, 0x06, 0x4b, 0xbc, 0xf8, 0x5c, 0xf4, 0xbc, 0x5b, 0x89, 0xf4, 0x3c, 
	0xcf, 0x50, 0x90, 0x3d, 0x95, 0x8e, 0x3c, 0xbc, 0x28, 0x7f, 0xf3, 0xbc, 
	0xa0, 0x38, 0x34, 0x3d, 0x7f, 0x98, 0xbc, 0xbc, 0x67, 0x3d, 0x43, 0xbd, 
	0x68, 0x1a, 0xee, 0xbd, 0xeb, 0xd7, 0x57, 0xbb, 0xb4, 0xd3, 0x51, 0x3d, 
	0x75, 0xaa, 0x1e, 0x3c, 0xeb, 0x11, 0xf4, 0x3c, 0xf9, 0x6c, 0xbc, 0x3b, 
	0x8e, 0x7f, 0xc9, 0x3d, 0x34, 0xbe, 0x05, 0x3d, 0x45, 0xaa, 0x13, 0xbd, 
	0x67, 0x11, 0x1f, 0x3c, 0x5c, 0x9b, 0xfe, 0x3a, 0x3f, 0x12, 0xce, 0xbc, 
	0xdd, 0x42, 0x44, 0xbd, 0xdd, 0x73, 0x3e, 0xbd, 0xcc, 0x53, 0x26, 0xbc, 
	0x98, 0x18, 0x12, 0x3d, 0xb5, 0x3a, 0x3b, 0xbd, 0x28, 0xff, 0x14, 0x3d, 
	0x37, 0x56, 0x32, 0x3d, 0x4b, 0x8c, 0xe6, 0xbc, 0x49, 0x2c, 0xc8, 0xbb, 
	0x43, 0xd1, 0x85, 0x3c, 0xb8, 0x8c, 0x9d, 0xbb, 0x9e, 0x9d, 0x34, 0xbe, 
	0xc5, 0x56, 0xc5, 0xbd, 0x1f, 0x49, 0x15, 0xbd, 0x96, 0xc9, 0xf3, 0x3c, 
	0x64, 0x62, 0x39, 0xbc, 0xc6, 0xf3, 0x18, 0xbc, 0x25, 0x4e, 0x93, 0xbc, 
	0x75, 0x82, 0x58, 0x3d, 0xc4, 0xd8, 0xe0, 0xbc, 0xd9, 0xec, 0x31, 0xbe, 
	0xb4, 0xfd, 0x60, 0xbd, 0xd1, 0x2e, 0x36, 0xbc, 0x80, 0x75, 0xc0, 0xbd, 
	0xe2, 0x9b, 0x4f, 0x3d, 0xb1, 0x6e, 0x89, 0xbd, 0x76, 0xd0, 0xe8, 0x3d, 
	0x26, 0x33, 0xc2, 0x3d, 0x79, 0xce, 0x67, 0x3b, 0x62, 0x46, 0x82, 0xbd, 
	0x5c, 0xba, 0xd8, 0x3b, 0x4a, 0xce, 0xd2, 0xb9, 0xa8, 0xe9, 0x16, 0xbd, 
	0xa1, 0xcf, 0x1c, 0xbe, 0xdd, 0x5a, 0x93, 0x3d, 0xb9, 0x1d, 0xb8, 0x3c, 
	0x76, 0xf1, 0x05, 0xbd, 0x38, 0x24, 0x22, 0xbd, 0xc0, 0x2e, 0x9c, 0xbd, 
	0xa5, 0x98, 0x4a, 0x3c, 0x9f, 0x4b, 0xc7, 0xbd, 0x28, 0xcf, 0x21, 0x3d, 
	0xe1, 0xbc, 0x81, 0x3d, 0x10, 0xd1, 0xe0, 0xbd, 0x8c, 0x0b, 0x54, 0xbd, 
	0x6b, 0xc1, 0x5a, 0xbc, 0xdf, 0xcb, 0x0a, 0x3c, 0xc6, 0xa1, 0xf8, 0x3c, 
	0x67, 0x72, 0xac, 0xbd, 0x3d, 0xbe, 0x9e, 0xbd, 0x87, 0x0d, 0x86, 0xbb, 
	0x75, 0x2c, 0xcf, 0x3c, 0xc1, 0x03, 0x15, 0xbe, 0xd2, 0xde, 0x48, 0x3c, 
	0x82, 0xe8, 0x80, 0xbd, 0xc3, 0xb8, 0x74, 0x3d, 0xd7, 0xb5, 0x10, 0x3d, 
	0x87, 0x4b, 0x8d, 0xbd, 0x69, 0x2d, 0x9f, 0x3d, 0x6f, 0xce, 0x36, 0x3d, 
	0xa0, 0x8b, 0x45, 0xbd, 0x35, 0x51, 0xba, 0x3d, 0x1b, 0x79, 0x42, 0xbc, 
	0x2c, 0x90, 0x85, 0x3d, 0x37, 0x97, 0x68, 0xba, 0x1a, 0x26, 0xe5, 0xbb, 
	0x94, 0xc5, 0x49, 0x3b, 0x3a, 0x1a, 0x27, 0x3d, 0x33, 0xfd, 0xce, 0x3d, 
	0xe7, 0xc5, 0xa8, 0xbb, 0x10, 0xe7, 0x95, 0xbc, 0x8c, 0x98, 0x3c, 0x3d, 
	0xa5, 0x52, 0xc6, 0x3c, 0xae, 0xa9, 0xa4, 0x3c, 0x11, 0x1c, 0x51, 0xbd, 
	0x4b, 0x77, 0x13, 0xbd, 0xbc, 0xe2, 0xc7, 0xbd, 0x21, 0x9e, 0x43, 0xbb, 
	0x58, 0x48, 0x25, 0x3d, 0x0e, 0x27, 0x95, 0x3c, 0x35, 0xf9, 0x8d, 0x3d, 
	0x01, 0x7a, 0x39, 0x3d, 0xd7, 0xdd, 0xb2, 0xbc, 0xe3, 0x63, 0xcc, 0xbc, 
	0xb7, 0xf6, 0xb9, 0x3d, 0x97, 0x64, 0xa9, 0x3c, 0x67, 0x3b, 0x8f, 0x3c, 
	0x9b, 0x22, 0x26, 0xbd, 0x30, 0x35, 0x1e, 0x3d, 0x47, 0x8d, 0xb8, 0x3b, 
	0x85, 0x18, 0x07, 0xbd, 0x38, 0x6b, 0xe1, 0x3c, 0x4c, 0x9b, 0x81, 0xbd, 
	0x17, 0xae, 0x59, 0x3c, 0xa6, 0x89, 0x9f, 0x3c, 0xdd, 0x1f, 0xd6, 0xbc, 
	0x24, 0x79, 0x27, 0x3c, 0xd7, 0x8e, 0x3a, 0x3d, 0x82, 0x36, 0x7c, 0xbd, 
	0x81, 0x2b, 0x0c, 0xbc, 0xb8, 0x3f, 0x12, 0xbe, 0x80, 0xf4, 0x12, 0x3d, 
	0x9c, 0xd2, 0x3e, 0x3d, 0x3f, 0x99, 0x56, 0xbd, 0xd9, 0x49, 0x26, 0x3d, 
	0xe9, 0x1e, 0xb3, 0xbd, 0x5c, 0xaa, 0xff, 0x3c, 0xac, 0x84, 0xbc, 0xbc, 
	0xad, 0x8d, 0x1e, 0xbc, 0x91, 0x49, 0x1f, 0x3c, 0x51, 0x62, 0x61, 0xbc, 
	0xd3, 0x7b, 0x51, 0x3d, 0xeb, 0xa6, 0x75, 0x3b, 0x3e, 0xad, 0xcc, 0xbc, 
	0x06, 0x87, 0x0e, 0xbd, 0x43, 0x49, 0x90, 0x3b, 0x61, 0xa9, 0xb9, 0xbd, 
	0xbd, 0x47, 0xe9, 0xbb, 0x94, 0x0e, 0xa1, 0x3c, 0x15, 0x52, 0x08, 0xbd, 
	0xf1, 0xc1, 0x0c, 0xbb, 0x44, 0x1b, 0x6c, 0xbc, 0xfe, 0x30, 0x2f, 0xbd, 
	0x76, 0x2a, 0x13, 0xbe, 0x9e, 0x7b, 0xdc, 0xbd, 0x59, 0x52, 0x8f, 0xbd, 
	0xd7, 0xb6, 0xac, 0xbc, 0x16, 0x63, 0x14, 0x3b, 0x3c, 0xa7, 0x4a, 0xbd, 
	0xe8, 0xfa, 0x88, 0xbc, 0xca, 0xf6, 0x88, 0xbb, 0x22, 0x30, 0x5b, 0xbd, 
	0x76, 0xdd, 0xe9, 0xbc, 0xcd, 0x5f, 0xcb, 0xbd, 0x57, 0xee, 0x52, 0xbd, 
	0x40, 0xdc, 0x45, 0xbd, 0x89, 0xfc, 0xc0, 0x3c, 0x93, 0x35, 0x3b, 0xbc, 
	0xa2, 0x8f, 0xb9, 0x3c, 0x3d, 0x5a, 0xaa, 0xbd, 0xe6, 0x82, 0xb2, 0x3c, 
	0x14, 0x51, 0x23, 0x3c, 0x51, 0x4e, 0xdc, 0xbc, 0x37, 0xb1, 0x32, 0xbd, 
	0x7c, 0xbd, 0xba, 0xbc, 0x52, 0xf2, 0xf8, 0x3c, 0xeb, 0x9c, 0xd5, 0xbb, 
	0xd2, 0xc5, 0xd5, 0xbb, 0x33, 0xa1, 0x13, 0xbe, 0xe7, 0x1f, 0xc2, 0xbd, 
	0x38, 0x8f, 0xb0, 0xbc, 0xde, 0xea, 0xc2, 0x3c, 0x17, 0xb6, 0xdd, 0xbc, 
	0x55, 0x82, 0xf9, 0x3c, 0x5d, 0x16, 0xb5, 0x3c, 0x88, 0xcf, 0x32, 0xbd, 
	0x47, 0xfa, 0xef, 0xbc, 0xb9, 0x9d, 0x32, 0x3d, 0xf9, 0x17, 0xa6, 0x3c, 
	0x2d, 0x27, 0x6b, 0xbc, 0x7a, 0xf0, 0x35, 0xbd, 0x41, 0x23, 0x99, 0xbd, 
	0x16, 0x18, 0x16, 0xbc, 0xc4, 0x2f, 0xc7, 0xbd, 0x90, 0x26, 0xcb, 0xbd, 
	0x4d, 0x7a, 0xc5, 0xbc, 0x54, 0x28, 0xad, 0xbb, 0x79, 0x1b, 0xe2, 0xbc, 
	0xaa, 0x0d, 0xfd, 0x3c, 0xb0, 0x7a, 0x96, 0xbd, 0x4b, 0x14, 0x17, 0xbc, 
	0x4c, 0x42, 0x45, 0x3c, 0x2c, 0xf2, 0x21, 0xbe, 0x28, 0xa0, 0xb7, 0x3d, 
	0xee, 0x12, 0x3f, 0xbd, 0x79, 0x11, 0x0b, 0x3c, 0x99, 0x94, 0x49, 0x3d, 
	0x9a, 0xe3, 0x73, 0xbd, 0x60, 0x61, 0x29, 0xbd, 0x40, 0x96, 0x68, 0x3c, 
	0xe9, 0x62, 0x06, 0x3e, 0xe1, 0x58, 0x76, 0xbd, 0x2e, 0x7c, 0x7d, 0xbc, 
	0x23, 0x9c, 0x04, 0x3c, 0x77, 0x41, 0x19, 0xbd, 0x44, 0xa1, 0x89, 0x3d, 
	0x5a, 0x26, 0xe9, 0xbd, 0x46, 0x93, 0xd5, 0xba, 0xa8, 0xef, 0xd9, 0xbd, 
	0x8e, 0x0f, 0x44, 0x3d, 0x9a, 0x45, 0x4d, 0xbc, 0x28, 0x88, 0xb6, 0x3c, 
	0x90, 0x39, 0x07, 0x3d, 0xc7, 0x1c, 0x50, 0x3d, 0x39, 0x11, 0x98, 0xbd, 
	0xbb, 0xe3, 0x30, 0xbd, 0x84, 0xbf, 0xb9, 0x3d, 0x35, 0x48, 0x1b, 0x3d, 
	0x04, 0x07, 0x2b, 0x3d, 0x98, 0xeb, 0x0a, 0xbd, 0x7b, 0x27, 0x23, 0x3d, 
	0xf5, 0x2e, 0x2e, 0xbd, 0xbb, 0x58, 0x69, 0xbd, 0x64, 0x71, 0xbf, 0x3c, 
	0x0b, 0xc9, 0x74, 0xbd, 0xca, 0x30, 0x0f, 0xbd, 0xd7, 0xe2, 0x04, 0xbd, 
	0xf6, 0x9e, 0x3b, 0xbd, 0x83, 0xce, 0xe9, 0xbc, 0x42, 0x51, 0x96, 0xbb, 
	0x9a, 0x72, 0x56, 0xbd, 0xce, 0xeb, 0xfb, 0xbb, 0x10, 0xe2, 0x42, 0xbd, 
	0x83, 0xf6, 0x48, 0xbd, 0x4f, 0x4c, 0xa6, 0xbc, 0xd3, 0x05, 0xbc, 0x3b, 
	0x0c, 0xfd, 0x35, 0x3d, 0x04, 0xac, 0xae, 0xbd, 0xf4, 0x40, 0xfc, 0x3c, 
	0x06, 0xcc, 0x43, 0x3d, 0x88, 0xf4, 0x42, 0x3d, 0xd1, 0x52, 0x84, 0x3b, 
	0x12, 0xb0, 0x1b, 0xbc, 0x87, 0x3f, 0x3f, 0x3d, 0x47, 0x84, 0x8d, 0xbd, 
	0x74, 0x71, 0x0a, 0xbd, 0xf2, 0x71, 0x0a, 0x3c, 0xe6, 0x9c, 0xec, 0xb9, 
	0xab, 0x84, 0x37, 0x3d, 0x94, 0x52, 0xd2, 0x3c, 0x11, 0xa4, 0x04, 0x3d, 
	0x16, 0x86, 0x75, 0x3c, 0x8c, 0x76, 0xac, 0xbd, 0xf9, 0xe2, 0x33, 0xbc, 
	0xb4, 0xb8, 0x4f, 0xb9, 0x84, 0x35, 0x96, 0xbc, 0xb9, 0x58, 0x22, 0xbd, 
	0x30, 0xf6, 0xf2, 0x3c, 0xa5, 0xc1, 0x80, 0x3d, 0x5d, 0xca, 0x1e, 0xbd, 
	0x07, 0x45, 0xb6, 0xbd, 0x53, 0xa1, 0x04, 0xbe, 0xc2, 0xf0, 0x0b, 0x3c, 
	0x16, 0x68, 0x3e, 0xbc, 0xdf, 0xf5, 0x97, 0x3d, 0xfe, 0x45, 0x2e, 0xbd, 
	0x21, 0x35, 0x0a, 0xbd, 0x60, 0x3f, 0x20, 0x3c, 0xb9, 0x9d, 0x52, 0xbd, 
	0x56, 0xcb, 0x8f, 0x3b, 0x1e, 0x0d, 0x04, 0xbc, 0x2f, 0x47, 0xaa, 0x3d, 
	0xe3, 0x70, 0xba, 0xbd, 0x61, 0x0c, 0x47, 0xbd, 0x0c, 0xf3, 0xad, 0x3d, 
	0x8f, 0x0f, 0x49, 0xbc, 0x74, 0xec, 0xee, 0xbd, 0x93, 0xa9, 0x39, 0x3d, 
	0x17, 0x2d, 0xc7, 0xbc, 0x94, 0x63, 0x9d, 0xbd, 0xc2, 0xb6, 0x35, 0x3d, 
	0x5a, 0x6f, 0x3e, 0xbd, 0x51, 0xab, 0x48, 0x3c, 0x6f, 0xad, 0x15, 0x3d, 
	0x67, 0xc2, 0x8b, 0x3c, 0xdd, 0x5f, 0x0c, 0x3d, 0xfa, 0xdb, 0xe6, 0x3c, 
	0xce, 0xa2, 0x9b, 0x3c, 0x3c, 0xa9, 0x03, 0xbd, 0xa0, 0x04, 0x8a, 0x3c, 
	0xc0, 0x60, 0x01, 0x3d, 0xb0, 0xa1, 0x71, 0xbb, 0x9d, 0xec, 0xb5, 0xbd, 
	0xf3, 0x0f, 0xd2, 0xbd, 0x0f, 0x07, 0x32, 0xbb, 0x50, 0x8a, 0xf1, 0xbc, 
	0xf9, 0x14, 0x28, 0xbd, 0x0f, 0xb7, 0x7f, 0x3d, 0x75, 0x1f, 0xe0, 0x3c, 
	0x79, 0x6a, 0xa7, 0x3b, 0x58, 0xf8, 0xe6, 0x3c, 0x0e, 0x98, 0x89, 0xbd, 
	0xa2, 0x8c, 0x8f, 0x3c, 0x8b, 0x87, 0x9c, 0x3d, 0x9b, 0xe1, 0x88, 0xbd, 
	0x35, 0x35, 0xa9, 0x3c, 0x2e, 0xcd, 0x8a, 0xbc, 0x15, 0xa5, 0x48, 0xbd, 
	0x50, 0x1c, 0x70, 0xbd, 0xaf, 0xe2, 0x4f, 0x3b, 0xc5, 0x82, 0x2b, 0x3c, 
	0x62, 0x38, 0x7b, 0x3d, 0x25, 0xa5, 0x88, 0x3d, 0x67, 0x48, 0xe3, 0xbc, 
	0x77, 0x87, 0x79, 0xbc, 0x64, 0x02, 0x45, 0x3a, 0x25, 0x3e, 0x35, 0x3d, 
	0x68, 0x8f, 0x4e, 0xbd, 0x70, 0x08, 0x3a, 0x3d, 0xf2, 0xd3, 0x80, 0x3d, 
	0xb0, 0x23, 0xdc, 0xbb, 0xc7, 0xdc, 0xc4, 0x3c, 0x2d, 0xba, 0x5a, 0x3d, 
	0x8d, 0xab, 0xd2, 0xbc, 0x87, 0x19, 0x91, 0x3c, 0x76, 0xd4, 0x9b, 0x3c, 
	0xb2, 0xf0, 0x96, 0xbd, 0x4e, 0x91, 0xa6, 0xbc, 0x0e, 0x7e, 0x88, 0xbd, 
	0xfb, 0x47, 0x62, 0xbc, 0x0b, 0xd0, 0x0b, 0x3d, 0x54, 0x7b, 0x89, 0xbd, 
	0xea, 0x02, 0x16, 0xbd, 0x08, 0xfd, 0x07, 0x3d, 0xba, 0xc9, 0x26, 0xbc, 
	0x1a, 0xe1, 0xa5, 0xbd, 0xf6, 0xbe, 0x84, 0xbd, 0xb1, 0x9b, 0xc0, 0xbd, 
	0xd5, 0xd7, 0xae, 0xbc, 0x49, 0xde, 0xf8, 0xbc, 0x25, 0x8e, 0x41, 0xbd, 
	0xa7, 0x95, 0xaa, 0xbc, 0x0c, 0x6b, 0x0a, 0xbd, 0xb9, 0x71, 0x14, 0xbd, 
	0xe2, 0x8c, 0x33, 0x3d, 0xd2, 0x30, 0xf7, 0xbc, 0x87, 0xad, 0xcf, 0xbc, 
	0x15, 0x6a, 0x65, 0xbd, 0x06, 0xb1, 0xe5, 0xbb, 0x03, 0x6e, 0xa4, 0xbd, 
	0xeb, 0xf5, 0x2b, 0x3d, 0x73, 0x28, 0x47, 0x3d, 0xca, 0xad, 0x93, 0xbb, 
	0x98, 0x81, 0x80, 0xbd, 0x70, 0x9b, 0x14, 0x3c, 0xdd, 0xf2, 0x6a, 0xbc, 
	0x02, 0xec, 0xb9, 0xbc, 0x5c, 0x8b, 0x4e, 0x3d, 0xe6, 0xcd, 0x05, 0x3b, 
	0x43, 0xdd, 0x3d, 0x3b, 0x6f, 0x1f, 0x48, 0x3d, 0x17, 0x81, 0xa0, 0xbc, 
	0x05, 0xbd, 0x06, 0x3d, 0x39, 0x9a, 0xba, 0xbd, 0x1f, 0x52, 0x14, 0x3d, 
	0xfd, 0x58, 0x27, 0xbb, 0x7e, 0xbe, 0xc6, 0xba, 0x74, 0x9c, 0x3b, 0x3d, 
	0x2c, 0xef, 0x2b, 0xbd, 0xa9, 0x2d, 0xe9, 0x3c, 0x07, 0x0a, 0x88, 0xbd, 
	0xae, 0x02, 0xfc, 0xbc, 0x01, 0x8a, 0x4a, 0xbd, 0x81, 0x2c, 0xc3, 0xbd, 
	0x33, 0x96, 0xb1, 0xbd, 0xde, 0x5d, 0xdd, 0xbc, 0xeb, 0x92, 0x37, 0x3d, 
	0x89, 0x08, 0x17, 0x3d, 0xbb, 0x9a, 0x2f, 0x3d, 0x7e, 0xbe, 0xc4, 0xbd, 
	0xed, 0xf6, 0xa0, 0xbc, 0x25, 0x1a, 0xe2, 0x3b, 0x08, 0x14, 0x72, 0xbc, 
	0x28, 0x51, 0xa2, 0x3d, 0x2c, 0x90, 0x36, 0xbd, 0x10, 0x76, 0x49, 0x3c, 
	0x35, 0x72, 0xd6, 0xbd, 0xfa, 0x50, 0x8c, 0xbc, 0x8a, 0xa6, 0xee, 0xbc, 
	0x62, 0xbb, 0xdc, 0xbd, 0xf4, 0x48, 0x90, 0xbd, 0x4d, 0xab, 0x6b, 0xbd, 
	0x53, 0xb4, 0x74, 0x3d, 0x42, 0xf2, 0x22, 0x3d, 0x50, 0x21, 0x93, 0x3b, 
	0x36, 0xd1, 0xe1, 0xbd, 0xad, 0xcf, 0x24, 0xbd, 0x23, 0xf6, 0xbf, 0xbc, 
	0x66, 0x83, 0xb3, 0x3c, 0x75, 0x49, 0x12, 0x3d, 0xbc, 0x85, 0x7d, 0x3c, 
	0x91, 0xe0, 0x49, 0x3c, 0x06, 0x37, 0x33, 0xbd, 0x5e, 0x12, 0xa9, 0x3c, 
	0xe8, 0xba, 0x24, 0xbd, 0xd0, 0xb2, 0x55, 0xbd, 0x06, 0x6b, 0x95, 0xbd, 
	0x9a, 0xda, 0x85, 0x3c, 0xd1, 0xd8, 0x78, 0x3d, 0x8b, 0xb6, 0xe2, 0xbc, 
	0x68, 0x7e, 0xa0, 0x3d, 0x98, 0x2f, 0xc9, 0xbd, 0x80, 0x5e, 0x7e, 0xbd, 
	0x68, 0xf1, 0xfc, 0xbd, 0xc4, 0x9f, 0x4f, 0x3d, 0x95, 0x56, 0x68, 0x3d, 
	0x65, 0x0a, 0x34, 0xbd, 0x75, 0x87, 0xf7, 0xbb, 0xdf, 0x96, 0x54, 0xbd, 
	0xb3, 0x41, 0x44, 0xbd, 0xdc, 0xec, 0xeb, 0xbc, 0xbb, 0x50, 0x12, 0x3d, 
	0x04, 0xde, 0x67, 0x3c, 0x98, 0x7a, 0x2c, 0x3d, 0xb1, 0xf0, 0x4d, 0xbd, 
	0x9d, 0x04, 0x24, 0xbd, 0x02, 0x0a, 0x99, 0xbd, 0x13, 0x02, 0x8d, 0xbd, 
	0x32, 0xb9, 0x4d, 0x3c, 0x6b, 0xb3, 0x03, 0xbe, 0xbd, 0x0d, 0x66, 0xbd, 
	0x0a, 0x45, 0xb7, 0xbd, 0x46, 0x90, 0xa1, 0x3c, 0x74, 0xbb, 0x30, 0xbc, 
	0xa3, 0x78, 0xac, 0xbc, 0x33, 0x2e, 0x81, 0xbd, 0x9a, 0xb1, 0x55, 0xbc, 
	0xc6, 0x1e, 0x4f, 0xbd, 0x26, 0x39, 0xc7, 0xbc, 0x2a, 0xc8, 0x02, 0xbd, 
	0xa6, 0xd0, 0x0e, 0xbe, 0x05, 0x83, 0x79, 0xbd, 0x8f, 0x98, 0x36, 0xbd, 
	0x24, 0x9a, 0x51, 0xbd, 0x7d, 0x57, 0x7e, 0x3d, 0xcb, 0x8d, 0x78, 0x3d, 
	0x84, 0x45, 0xb3, 0x3c, 0x5e, 0x78, 0xcc, 0xbd, 0x2b, 0x0d, 0xca, 0xbc, 
	0x8f, 0x63, 0x1f, 0xbd, 0xfd, 0xec, 0x2d, 0xbc, 0x13, 0x9a, 0xd8, 0x3c, 
	0x1c, 0xf1, 0xb5, 0xbc, 0xe3, 0x02, 0x49, 0xbd, 0xca, 0xa4, 0x88, 0xbd, 
	0x79, 0xc8, 0x60, 0x3b, 0x7a, 0xe7, 0x37, 0xbd, 0x0b, 0x2f, 0xbf, 0xbc, 
	0xf7, 0xe7, 0x09, 0x3c, 0x6a, 0x66, 0x19, 0xbd, 0x65, 0xc8, 0x6c, 0x3c, 
	0xff, 0x57, 0xc1, 0x3d, 0x68, 0xba, 0x9d, 0xbd, 0x56, 0x18, 0x43, 0x3d, 
	0xb8, 0xa1, 0x8a, 0x3d, 0xf1, 0xba, 0x7b, 0xbc, 0x01, 0x8e, 0x0d, 0xbc, 
	0xe3, 0x8d, 0x5a, 0x3d, 0xe9, 0xa3, 0x2e, 0x3c, 0x02, 0xcc, 0x8b, 0x3c, 
	0x9b, 0xcc, 0xb0, 0x3b, 0x04, 0x82, 0xb5, 0xbc, 0x23, 0x06, 0xb9, 0x3c, 
	0x79, 0x9a, 0x36, 0x3d, 0x6c, 0x0f, 0x0a, 0x3d, 0x2d, 0xdf, 0x8e, 0xbd, 
	0xc9, 0x40, 0x46, 0x3d, 0x36, 0x87, 0xb6, 0x3d, 0x90, 0xd7, 0x81, 0xbc, 
	0xf8, 0x64, 0x19, 0xbc, 0x5e, 0x27, 0x2f, 0xbc, 0xe3, 0x73, 0x59, 0x3b, 
	0x8b, 0xed, 0x86, 0xbb, 0x6b, 0xf5, 0xc1, 0x3d, 0x2a, 0xe4, 0x43, 0x3d, 
	0xd5, 0x14, 0x0a, 0x3d, 0x9d, 0x44, 0x8c, 0xbc, 0x08, 0x25, 0xcf, 0xbc, 
	0x5c, 0x2b, 0xcf, 0x3a, 0x9c, 0xee, 0xda, 0x3c, 0x4d, 0x57, 0xe3, 0x3c, 
	0xbe, 0x11, 0x0a, 0xbd, 0xb4, 0x09, 0x9d, 0xbc, 0x4f, 0x35, 0x6e, 0x3d, 
	0x77, 0x57, 0xd8, 0x3c, 0x3b, 0x41, 0x28, 0xbd, 0xfa, 0x65, 0x27, 0x3d, 
	0xc2, 0xae, 0xe8, 0x3c, 0x93, 0xc8, 0x97, 0xbc, 0x64, 0x78, 0x6a, 0x3d, 
	0x02, 0xc7, 0x8f, 0x3d, 0xf7, 0x89, 0xf1, 0xbc, 0x06, 0x74, 0xdb, 0xbc, 
	0x27, 0xf6, 0x53, 0xbd, 0x72, 0xf4, 0xa0, 0x3c, 0xa6, 0x1b, 0xb6, 0xbc, 
	0xb9, 0x1e, 0x3e, 0x3d, 0x0c, 0x23, 0x3e, 0xbd, 0xc1, 0xa7, 0xb3, 0xbc, 
	0x79, 0x3c, 0x12, 0x3d, 0x86, 0x78, 0xf1, 0x3c, 0x2b, 0xe3, 0x12, 0xbd, 
	0x91, 0xb9, 0x8f, 0xbb, 0x9c, 0x2d, 0xf8, 0x3c, 0x9c, 0xf3, 0x66, 0xbc, 
	0x9b, 0xd0, 0x33, 0x3d, 0x4a, 0x4a, 0x2d, 0x3a, 0x24, 0x4e, 0x7c, 0xbd, 
	0x0a, 0xc7, 0x2f, 0xbc, 0x25, 0x0e, 0x0b, 0xbc, 0x8a, 0x78, 0xe7, 0xbc, 
	0xc1, 0xf7, 0xb6, 0x3c, 0x39, 0x21, 0xf3, 0x3b, 0xbf, 0x0f, 0xb5, 0xbd, 
	0x4c, 0x31, 0x53, 0xbd, 0x41, 0x4d, 0x9a, 0x3c, 0x8c, 0xfe, 0x42, 0x3d, 
	0x7e, 0x51, 0x07, 0xbc, 0xb9, 0x6e, 0x26, 0x3d, 0x08, 0x34, 0x1d, 0xbc, 
	0x3c, 0x1d, 0xa2, 0x3b, 0x68, 0x16, 0x89, 0x3b, 0x14, 0x28, 0xc4, 0xbc, 
	0xb6, 0x87, 0x07, 0x3c, 0xbb, 0x5c, 0x84, 0xbc, 0xc6, 0x99, 0x9a, 0xbc, 
	0x08, 0xa9, 0x88, 0xbd, 0xec, 0xd6, 0xd3, 0x3c, 0xe5, 0xfa, 0xb1, 0x3d, 
	0x77, 0xa7, 0x5f, 0xbd, 0x99, 0x00, 0xc3, 0xbc, 0x79, 0xe6, 0x97, 0x3c, 
	0x1a, 0x43, 0xb6, 0xba, 0xff, 0xa8, 0xbb, 0xbd, 0xa3, 0xac, 0x7b, 0xbd, 
	0x03, 0x54, 0x16, 0x3d, 0x1b, 0x47, 0x12, 0xbd, 0x7a, 0x5e, 0x80, 0xbd, 
	0x7e, 0x5a, 0xa4, 0x3c, 0xc0, 0x8e, 0x39, 0xbd, 0xbe, 0x29, 0x14, 0xbd, 
	0xa1, 0xb0, 0x29, 0xbd, 0x7c, 0xe8, 0x3e, 0x3c, 0x04, 0xec, 0x56, 0x3d, 
	0xf8, 0x51, 0x80, 0xbd, 0x75, 0x76, 0x9f, 0x3b, 0xd4, 0x96, 0x20, 0xbc, 
	0x99, 0x26, 0xe0, 0xbc, 0x2e, 0x49, 0xec, 0x3c, 0x5d, 0x7a, 0x83, 0x3b, 
	0x3c, 0xa0, 0xb8, 0xba, 0xe5, 0x28, 0x11, 0xbd, 0xab, 0xe2, 0xa0, 0xbd, 
	0x8c, 0x4d, 0xc7, 0x3c, 0xb4, 0xa5, 0xfd, 0x3c, 0x5a, 0xf6, 0xa8, 0x3d, 
	0x65, 0x67, 0x22, 0xbd, 0x13, 0x98, 0xc6, 0xbb, 0x87, 0xa7, 0x57, 0xbc, 
	0x98, 0x68, 0xaf, 0x3c, 0x55, 0x1c, 0x85, 0xbd, 0x41, 0x53, 0x99, 0x3c, 
	0xd0, 0xd0, 0xf8, 0xbc, 0x35, 0x05, 0x41, 0xbd, 0xfe, 0x2c, 0x3a, 0xba, 
	0x17, 0xbb, 0x23, 0x3d, 0x7f, 0x96, 0x33, 0x3d, 0xbc, 0xc6, 0xb4, 0xbd, 
	0xcf, 0xb7, 0xcd, 0x3c, 0xb3, 0x58, 0xb7, 0xb9, 0x6d, 0x9f, 0xf4, 0x3c, 
	0xcf, 0xbb, 0x70, 0x3c, 0x56, 0xf2, 0xd0, 0xbc, 0x07, 0xc3, 0xb4, 0xbb, 
	0x0e, 0xf7, 0x40, 0xbc, 0x18, 0xd9, 0x45, 0xbd, 0x10, 0xfb, 0x41, 0xbd, 
	0xa0, 0xf7, 0xb1, 0x3c, 0x65, 0x88, 0x33, 0xbd, 0x0e, 0x7d, 0x2e, 0xbd, 
	0xbb, 0xba, 0x13, 0x3d, 0x0b, 0xe7, 0x4b, 0x3d, 0x87, 0x62, 0x46, 0x3c, 
	0x38, 0x62, 0xdd, 0xbc, 0x5c, 0xb9, 0x0e, 0xbc, 0x67, 0xf0, 0x38, 0x3d, 
	0x7f, 0x37, 0xaa, 0x3c, 0x15, 0x6e, 0x3e, 0x3d, 0x2d, 0xa2, 0x40, 0xbc, 
	0xd0, 0xa9, 0x98, 0x3c, 0xf6, 0x24, 0x66, 0xbc, 0x02, 0x4d, 0x1b, 0xbd, 
	0x3d, 0x92, 0xf8, 0xbb, 0xfa, 0xf7, 0x00, 0x3d, 0x5f, 0x5b, 0x25, 0xbd, 
	0x0f, 0xd0, 0x77, 0xbc, 0x1c, 0x47, 0x31, 0x3d, 0xb9, 0xb6, 0x63, 0x3d, 
	0x77, 0x84, 0xad, 0x3c, 0xe8, 0x90, 0x12, 0x3d, 0x3e, 0x73, 0x5a, 0xbc, 
	0xb9, 0x7a, 0x26, 0xbc, 0x7f, 0x5f, 0xf1, 0x3c, 0x39, 0xa1, 0x0c, 0x3e, 
	0xe7, 0x73, 0xbd, 0x3c, 0xac, 0x79, 0x42, 0x3d, 0x09, 0x47, 0x27, 0xbb, 
	0xf6, 0x13, 0x81, 0xbc, 0x9c, 0xbe, 0x0e, 0x3d, 0x5b, 0x29, 0x6a, 0x3d, 
	0x4f, 0x09, 0xb9, 0xbc, 0x90, 0x1b, 0x8a, 0xbc, 0xf2, 0x42, 0x1e, 0x3d, 
	0x7a, 0x5f, 0x8f, 0x3d, 0x7b, 0xff, 0x87, 0xbb, 0x9a, 0x5a, 0xc1, 0x3c, 
	0x84, 0x49, 0x03, 0xbc, 0x1f, 0xd4, 0x1e, 0xbd, 0x0c, 0x38, 0xf1, 0x3c, 
	0xad, 0xe4, 0xf9, 0x3d, 0x3b, 0x69, 0x63, 0x3c, 0x6c, 0x2a, 0x17, 0x3c, 
	0x65, 0xe9, 0xf6, 0x3a, 0xee, 0xdd, 0x13, 0xbd, 0xe8, 0xad, 0x86, 0x3c, 
	0xee, 0x7c, 0x22, 0x3d, 0x37, 0x02, 0xa4, 0xbc, 0xea, 0x72, 0xd0, 0xbc, 
	0x08, 0x5d, 0x9f, 0x3b, 0x3c, 0xaf, 0xef, 0x3c, 0x36, 0x2c, 0x69, 0x3c, 
	0xce, 0x59, 0xac, 0xbc, 0x44, 0xe5, 0x1e, 0x3c, 0x4b, 0x05, 0x55, 0x3c, 
	0xf8, 0x03, 0xe1, 0x3b, 0x01, 0x94, 0x22, 0x3d, 0xf9, 0x15, 0xe8, 0x3b, 
	0x5b, 0xa9, 0x16, 0x3d, 0xcd, 0x12, 0x9b, 0x3c, 0xbe, 0x60, 0x0e, 0xbd, 
	0x73, 0xcb, 0x90, 0x3c, 0x44, 0x37, 0x04, 0xbd, 0x0a, 0xff, 0x2f, 0x3c, 
	0x72, 0x1d, 0x96, 0xbd, 0xba, 0xec, 0xf5, 0x3b, 0x95, 0x42, 0xc4, 0xbb, 
	0xe8, 0xcb, 0x88, 0x3d, 0xd0, 0xcc, 0x6e, 0xbc, 0xdc, 0xd8, 0x34, 0xbc, 
	0x40, 0x00, 0x27, 0x3d, 0xd4, 0x9d, 0xa4, 0xbc, 0xdf, 0x0b, 0x38, 0x3d, 
	0x29, 0x64, 0x9e, 0xbd, 0x41, 0x4e, 0x4d, 0xbc, 0xed, 0xe6, 0xc0, 0x3c, 
	0x0d, 0x42, 0x14, 0x3d, 0x86, 0x20, 0xf1, 0xbc, 0xb2, 0xda, 0xa8, 0x3b, 
	0x83, 0xd5, 0x88, 0x3d, 0x10, 0xa4, 0xbc, 0x3c, 0xfc, 0x18, 0x34, 0x3d, 
	0xe5, 0xad, 0x05, 0xbd, 0xc4, 0x84, 0x8d, 0x3d, 0x83, 0x73, 0x2e, 0xbe, 
	0x65, 0x5c, 0x2a, 0xbd, 0xed, 0x39, 0x92, 0xbb, 0x14, 0xb1, 0x35, 0xba, 
	0x15, 0x80, 0x54, 0xbc, 0x43, 0xba, 0x93, 0xbb, 0xef, 0xb1, 0x1b, 0x3c, 
	0x29, 0xd5, 0xce, 0x3c, 0x53, 0x9d, 0x7d, 0x3d, 0x63, 0x8d, 0x7a, 0xbc, 
	0xc4, 0x42, 0x83, 0x3c, 0x10, 0x37, 0x38, 0x3c, 0xb0, 0xc0, 0x48, 0x3d, 
	0x7e, 0xb1, 0xcf, 0x3c, 0x6e, 0x0c, 0x1d, 0x3d, 0x2f, 0x38, 0x0d, 0x3d, 
	0xb0, 0xc6, 0x0e, 0xbe, 0x31, 0x4f, 0x04, 0x3d, 0x5e, 0x5f, 0x35, 0xbd, 
	0x52, 0x1c, 0x17, 0x3d, 0x50, 0xdf, 0x7c, 0x3c, 0xc4, 0x55, 0x70, 0xbb, 
	0xd5, 0xfd, 0x4c, 0x3c, 0x12, 0xa9, 0x38, 0x3c, 0xb5, 0x29, 0x33, 0xbd, 
	0x6e, 0x44, 0x19, 0x3d, 0xd4, 0x3c, 0x9c, 0x3d, 0x95, 0x01, 0x89, 0x3c, 
	0xd2, 0xc5, 0x35, 0x3b, 0x5f, 0x51, 0x1d, 0xbd, 0x78, 0x3d, 0xac, 0xbc, 
	0xed, 0xa3, 0x85, 0x3c, 0xc5, 0x03, 0x33, 0xbd, 0x30, 0x00, 0xe1, 0xbc, 
	0x07, 0xb0, 0xaa, 0xbd, 0x7b, 0xef, 0x4a, 0xbd, 0xd1, 0xb4, 0x0c, 0xbd, 
	0xe2, 0xf1, 0x96, 0x3c, 0x4e, 0x65, 0x2c, 0x38, 0x7d, 0xe3, 0xee, 0xbb, 
	0x91, 0x42, 0x5c, 0x3d, 0x53, 0x2d, 0x27, 0xbc, 0x7d, 0xa1, 0xa4, 0xbc, 
	0x61, 0xde, 0x1e, 0xbd, 0x8b, 0x46, 0x2b, 0x3d, 0x1c, 0x25, 0x8c, 0xbd, 
	0xb6, 0xe3, 0x90, 0x3c, 0x50, 0x8b, 0x5e, 0x3c, 0x97, 0x3d, 0xc6, 0xbc, 
	0x4f, 0xe5, 0x9b, 0xbd, 0x1a, 0x84, 0x98, 0xbc, 0x72, 0x1b, 0x9c, 0xbd, 
	0x52, 0xe2, 0x49, 0xbc, 0x6c, 0xe5, 0x38, 0xbd, 0x08, 0x99, 0x10, 0xbc, 
	0xea, 0x5b, 0x9d, 0x3c, 0x01, 0xd6, 0x03, 0xbd, 0x81, 0x25, 0x06, 0xbd, 
	0xb5, 0xb2, 0x4b, 0x3c, 0xe6, 0x23, 0xc8, 0x3c, 0x4a, 0xe1, 0x8d, 0x3d, 
	0xb3, 0xd1, 0x49, 0xbd, 0x95, 0x98, 0x58, 0x3c, 0x9d, 0xa2, 0x97, 0x3c, 
	0x12, 0xa7, 0x34, 0x3c, 0xc0, 0xc9, 0x06, 0xbd, 0x3f, 0xc6, 0x1b, 0xbd, 
	0x4d, 0xc0, 0x94, 0xbb, 0x84, 0xca, 0x5a, 0xbd, 0x5a, 0xd3, 0x0f, 0x3c, 
	0xc7, 0x27, 0xcf, 0xba, 0x96, 0xfc, 0xea, 0xbb, 0xce, 0x58, 0xf1, 0xbc, 
	0xdf, 0x80, 0x0f, 0x3c, 0x92, 0x6f, 0xbb, 0xb9, 0x4a, 0x32, 0xa4, 0xbc, 
	0xb2, 0x16, 0xb1, 0x3d, 0x7e, 0x6c, 0xf9, 0xba, 0xf5, 0x38, 0x98, 0x3b, 
	0x52, 0x6c, 0xa4, 0x3c, 0x98, 0xbf, 0xc0, 0x3c, 0xf8, 0x70, 0x3a, 0x3c, 
	0xc6, 0x86, 0x36, 0x3c, 0xf4, 0x5b, 0xdf, 0x3c, 0x62, 0x5d, 0x32, 0xbc, 
	0xea, 0x2d, 0x00, 0xbc, 0xe4, 0xf4, 0xd9, 0xba, 0xd9, 0x82, 0xb4, 0x39, 
	0xa3, 0xe8, 0x6a, 0xbd, 0x54, 0xa7, 0x79, 0xbc, 0x71, 0x4b, 0xd8, 0xba, 
	0x5c, 0x2c, 0x05, 0xbd, 0x9a, 0x8a, 0x1c, 0xbd, 0xcf, 0x8f, 0xc8, 0x3d, 
	0xe6, 0x30, 0x1c, 0x3d, 0x0a, 0x81, 0x55, 0x3c, 0xaa, 0xe7, 0x19, 0x3d, 
	0x44, 0x80, 0x83, 0xbd, 0x1a, 0x26, 0x80, 0x3b, 0x62, 0x53, 0x11, 0xbd, 
	0xd9, 0xff, 0xd6, 0x39, 0xc3, 0x0a, 0x99, 0x3c, 0x79, 0x5a, 0x8c, 0xbc, 
	0x1c, 0xaa, 0xd1, 0xbc, 0xba, 0xa2, 0x22, 0xbb, 0xcb, 0x46, 0x10, 0xbd, 
	0x5c, 0x15, 0x85, 0xbc, 0x3a, 0x49, 0x82, 0xbc, 0x02, 0xf8, 0x3f, 0x3c, 
	0x2a, 0x6d, 0xd7, 0x3c, 0x25, 0x56, 0xcd, 0xbd, 0xfe, 0x57, 0x56, 0xbd, 
	0x78, 0x05, 0x35, 0x3c, 0x61, 0xce, 0x28, 0xbb, 0x1d, 0x0e, 0xd9, 0x3c, 
	0x51, 0x1f, 0x62, 0x3d, 0x4c, 0xfe, 0x5e, 0xbd, 0x7c, 0x7d, 0x6a, 0x3a, 
	0xdd, 0xa8, 0x5b, 0x3c, 0x79, 0xd2, 0x01, 0x3d, 0x70, 0x9e, 0xe5, 0x3c, 
	0x88, 0x48, 0x1b, 0x3b, 0x91, 0xcf, 0xa7, 0x3c, 0xe0, 0xed, 0x23, 0x3d, 
	0x06, 0xae, 0xa4, 0x3d, 0xe2, 0xa0, 0x6e, 0x3b, 0x99, 0x7d, 0x15, 0x3d, 
	0xc3, 0x26, 0x88, 0x3c, 0x77, 0xaf, 0xe5, 0xbd, 0x2a, 0x85, 0x8b, 0x3d, 
	0xb2, 0xa4, 0x9d, 0xbc, 0x5d, 0xe4, 0x25, 0x3d, 0xb1, 0xb9, 0x84, 0x3c, 
	0x7b, 0xc7, 0xf8, 0x3b, 0x47, 0x9f, 0xc5, 0xbb, 0xcb, 0xbc, 0x79, 0x3d, 
	0x7d, 0x7b, 0x93, 0xbd, 0x2b, 0xc8, 0x58, 0x3c, 0x9a, 0x19, 0x20, 0x3d, 
	0x43, 0xf6, 0xbf, 0xbc, 0x25, 0xab, 0x80, 0x3d, 0xe3, 0xd8, 0x95, 0xbc, 
	0x95, 0x7a, 0x64, 0xbc, 0x89, 0x23, 0x40, 0xbc, 0xef, 0x20, 0x90, 0x3a, 
	0x0f, 0x36, 0xaf, 0xbb, 0x70, 0x8f, 0xf8, 0xbb, 0xdd, 0x1a, 0xf6, 0xbc, 
	0x28, 0x2a, 0x3f, 0xbd, 0x60, 0x88, 0xd0, 0xbc, 0xb4, 0xb1, 0x98, 0x3d, 
	0xcf, 0xe7, 0x1b, 0x3d, 0x97, 0x57, 0xad, 0xbc, 0x07, 0x7d, 0x25, 0xbb, 
	0xcb, 0x51, 0x83, 0x3c, 0xad, 0xad, 0x61, 0x3c, 0xe6, 0x92, 0xc7, 0x3d, 
	0x91, 0x8e, 0x54, 0xbd, 0x5d, 0x9a, 0x85, 0x3d, 0xa6, 0x75, 0x8b, 0x3c, 
	0x6f, 0xc5, 0x61, 0xbc, 0xb1, 0x9d, 0x5e, 0x3c, 0x16, 0x62, 0xa5, 0x3c, 
	0x23, 0x5e, 0x29, 0x3c, 0xe8, 0xa1, 0x27, 0xba, 0x4b, 0xa3, 0xbc, 0xbc, 
	0x59, 0xd3, 0x2e, 0x3d, 0xe4, 0x38, 0x0c, 0x3d, 0x7e, 0x17, 0x76, 0xbd, 
	0x33, 0xcc, 0x3c, 0xbc, 0xee, 0x24, 0x24, 0x3d, 0x9e, 0x32, 0xbe, 0x3d, 
	0xd8, 0xed, 0xe6, 0x3c, 0xc1, 0xe4, 0x2a, 0xbd, 0xa6, 0x6c, 0xd9, 0x3b, 
	0x58, 0x46, 0x2c, 0xbd, 0xc2, 0x32, 0x90, 0xba, 0xd1, 0x58, 0x3b, 0xbb, 
	0x6f, 0x22, 0xf0, 0x3c, 0xae, 0xe6, 0x05, 0x3d, 0xda, 0x6a, 0xdf, 0xbd, 
	0xed, 0x6f, 0xd0, 0xbc, 0xbf, 0xde, 0x86, 0xbc, 0xce, 0x3d, 0x0e, 0x3d, 
	0x0d, 0xed, 0x88, 0xbd, 0xd7, 0x59, 0x20, 0xbd, 0x7a, 0x32, 0x4c, 0xbc, 
	0x35, 0x94, 0xb1, 0xbd, 0x33, 0xf0, 0xa4, 0x3d, 0x64, 0x58, 0x40, 0x3d, 
	0x05, 0xc6, 0x5b, 0xbc, 0xe6, 0x0d, 0x48, 0x3d, 0x8f, 0x19, 0x09, 0xbc, 
	0xb4, 0x2f, 0x65, 0x3d, 0xeb, 0x23, 0xc4, 0x3c, 0x3d, 0xbc, 0xf8, 0x3c, 
	0x2e, 0xa7, 0x82, 0xbc, 0x8f, 0x70, 0xb5, 0xbc, 0x1b, 0xc0, 0xc4, 0xbc, 
	0x30, 0x37, 0xa4, 0xbd, 0xa3, 0x1e, 0x05, 0xbd, 0x7c, 0xed, 0xcd, 0x3c, 
	0xf6, 0xd3, 0x6a, 0xbc, 0xe9, 0x39, 0x7f, 0x3d, 0x5a, 0x80, 0x74, 0xbc, 
	0xf9, 0xfb, 0x64, 0x3d, 0x8a, 0xd6, 0x95, 0xbd, 0x40, 0x15, 0x00, 0xbd, 
	0x91, 0x4e, 0x61, 0x3d, 0x91, 0x47, 0xaa, 0xbd, 0x64, 0x3e, 0x9b, 0x3b, 
	0x2c, 0x26, 0x02, 0xbd, 0x32, 0xdc, 0xb8, 0xb9, 0x6e, 0xc8, 0x4e, 0x3c, 
	0x78, 0x0b, 0xc9, 0x3c, 0x52, 0xba, 0x13, 0x3d, 0xe6, 0xa7, 0xb3, 0xbb, 
	0x5d, 0x1e, 0x78, 0xbb, 0x7a, 0x3f, 0x40, 0x3d, 0xe9, 0x88, 0x46, 0xbd, 
	0x5c, 0x4c, 0x21, 0x3c, 0x5d, 0xe0, 0x63, 0x3b, 0xde, 0x74, 0xbc, 0xbd, 
	0x45, 0xee, 0x90, 0xbc, 0x3c, 0x14, 0x13, 0xbc, 0x4b, 0x81, 0x8e, 0x3d, 
	0xa3, 0xd1, 0xd0, 0x3c, 0x17, 0xe8, 0xdd, 0x3c, 0x44, 0xf3, 0x7f, 0xbd, 
	0x4a, 0x36, 0x02, 0x3d, 0xb2, 0xa4, 0xb9, 0xbc, 0x57, 0x48, 0x6b, 0x3d, 
	0x01, 0xbc, 0x20, 0x3d, 0x5d, 0x75, 0xd9, 0xbc, 0x1d, 0x55, 0x07, 0x3d, 
	0x77, 0xb0, 0x73, 0x3c, 0x51, 0x04, 0x8e, 0x3d, 0xef, 0x97, 0x77, 0xbd, 
	0x32, 0xfc, 0x5a, 0x39, 0x28, 0x90, 0x92, 0xbd, 0xd8, 0x3d, 0xd0, 0xbd, 
	0x36, 0x71, 0x89, 0x3d, 0x21, 0x8d, 0x9c, 0xbd, 0xe7, 0x9a, 0x8e, 0x3b, 
	0xa9, 0x7e, 0xf5, 0x3c, 0x31, 0x66, 0x07, 0xbc, 0x6b, 0x08, 0x5a, 0x3c, 
	0x98, 0x01, 0x2a, 0x3d, 0xa6, 0x85, 0x8b, 0x3c, 0x3e, 0xcc, 0xeb, 0x3c, 
	0x28, 0xb2, 0x35, 0x3d, 0xcd, 0x0c, 0x2d, 0xbd, 0x2a, 0x5e, 0xc8, 0xbb, 
	0x22, 0x6b, 0x62, 0x3d, 0x79, 0x6f, 0x56, 0xbc, 0xd9, 0x7f, 0x63, 0x3d, 
	0xf3, 0x5d, 0x8d, 0x3c, 0xf6, 0x5b, 0x81, 0x3d, 0x93, 0x70, 0x62, 0xbd, 
	0xcf, 0xeb, 0x14, 0xbd, 0xcf, 0xfe, 0xe7, 0xbc, 0x07, 0xd5, 0xb0, 0xbb, 
	0xfa, 0x3d, 0xb2, 0x3c, 0x86, 0xd8, 0x0b, 0x3c, 0x3b, 0xed, 0x28, 0x3d, 
	0xab, 0xcc, 0x85, 0x3d, 0x63, 0x69, 0x70, 0x3d, 0x87, 0xaf, 0xd7, 0xbc, 
	0x42, 0xde, 0x6c, 0x3c, 0xe9, 0x3a, 0xff, 0xbb, 0xcd, 0x93, 0x2b, 0x3e, 
	0xe8, 0x5e, 0xaa, 0x3c, 0x8a, 0x15, 0xee, 0xbc, 0x8f, 0x35, 0xf8, 0x3b, 
	0x70, 0x13, 0xf8, 0x3c, 0x5f, 0xbf, 0xc6, 0xbd, 0x96, 0xc5, 0xb4, 0xbd, 
	0xda, 0xbf, 0x22, 0xbd, 0x04, 0x04, 0x40, 0x3d, 0x2d, 0x5e, 0x5c, 0x3d, 
	0x70, 0x9e, 0x1f, 0xbb, 0x8d, 0xed, 0x03, 0x3d, 0x72, 0x79, 0x3f, 0x3c, 
	0x9f, 0x5d, 0x34, 0x3d, 0xf1, 0xed, 0x07, 0xbc, 0x6e, 0xce, 0x72, 0xba, 
	0xc4, 0x27, 0x9b, 0xbb, 0x9e, 0x5f, 0x21, 0xbd, 0xca, 0xc0, 0x76, 0xbd, 
	0xb0, 0xc7, 0x8f, 0x3c, 0xc0, 0x81, 0xa0, 0x3c, 0x56, 0xe1, 0x04, 0x3c, 
	0x0b, 0xde, 0x09, 0xbd, 0xc6, 0x38, 0xd0, 0xbc, 0xe5, 0xc6, 0xff, 0x3b, 
	0x24, 0xff, 0x46, 0x3d, 0xed, 0xe8, 0x95, 0xbc, 0x21, 0x46, 0x6b, 0xb9, 
	0x08, 0x47, 0xc7, 0x3c, 0x95, 0x86, 0xa2, 0xbd, 0x20, 0x37, 0x86, 0x3d, 
	0x6d, 0x48, 0x3b, 0xbd, 0xd4, 0x30, 0x35, 0xbc, 0x70, 0x67, 0x1d, 0x3d, 
	0xa0, 0xd4, 0xe6, 0xbc, 0xe1, 0x0b, 0xad, 0x3d, 0x34, 0x20, 0x5c, 0xbc, 
	0x6d, 0x50, 0xbf, 0xbc, 0x09, 0x24, 0xcd, 0x3d, 0x52, 0xeb, 0x2a, 0xbd, 
	0x6e, 0xef, 0x7f, 0xbd, 0x62, 0xc0, 0x48, 0xbc, 0xcb, 0x28, 0xd1, 0xbb, 
	0x54, 0xf6, 0xa9, 0x3b, 0x5a, 0x90, 0xc1, 0x3c, 0x1e, 0xd9, 0xb2, 0x3c, 
	0x2f, 0x93, 0x9b, 0x3b, 0xb5, 0x5a, 0xf0, 0xbc, 0xf5, 0xaa, 0xde, 0xbd, 
	0x24, 0xc2, 0xe9, 0xbc, 0xbe, 0x42, 0x82, 0x3c, 0x55, 0x82, 0xc2, 0x3c, 
	0x89, 0xb0, 0x8d, 0xbc, 0xa9, 0x10, 0x02, 0xbc, 0xe5, 0x9f, 0xaa, 0x3b, 
	0xa7, 0x73, 0x58, 0x3d, 0xb1, 0xf2, 0x1f, 0x3d, 0x10, 0x76, 0x94, 0x3d, 
	0x60, 0xc0, 0x5f, 0xbc, 0x5b, 0x29, 0x7c, 0xbc, 0xca, 0xd8, 0x07, 0xbd, 
	0x69, 0xb3, 0xb4, 0xbd, 0x58, 0xe5, 0x9f, 0x3b, 0xb0, 0xc0, 0x1f, 0x3d, 
	0x1b, 0x0a, 0x21, 0xbd, 0x2e, 0x92, 0x06, 0xbc, 0x37, 0x05, 0x18, 0xbc, 
	0xab, 0x19, 0x92, 0x3c, 0x47, 0x8e, 0x52, 0x3c, 0x0a, 0xcd, 0x0c, 0xbc, 
	0x0b, 0x27, 0xb0, 0x3c, 0x27, 0x11, 0x72, 0x3d, 0xcc, 0x29, 0xc8, 0xbc, 
	0x34, 0x6a, 0x44, 0x3d, 0x47, 0xb4, 0x6f, 0x3d, 0x44, 0x9a, 0x38, 0xbd, 
	0xad, 0x4d, 0xb6, 0x3c, 0x48, 0x7b, 0x82, 0xbb, 0x24, 0x2f, 0x37, 0x3d, 
	0x38, 0xfc, 0xa3, 0xbd, 0x4a, 0x02, 0x3f, 0x3c, 0x05, 0xf2, 0xae, 0xbc, 
	0x68, 0x90, 0x05, 0xbc, 0x06, 0x76, 0xc6, 0xbc, 0x18, 0x72, 0x80, 0xbd, 
	0xfc, 0x25, 0x69, 0x3d, 0x2b, 0x36, 0x02, 0xbd, 0x17, 0xed, 0x97, 0x3b, 
	0xd7, 0xc0, 0xb5, 0x3b, 0x83, 0x8e, 0x0b, 0x3d, 0xe6, 0x6f, 0x04, 0xbd, 
	0xb8, 0x05, 0x2c, 0xbd, 0x70, 0x2e, 0x0c, 0xbc, 0xcf, 0x72, 0xb1, 0x3c, 
	0x50, 0xe8, 0x82, 0x3c, 0x28, 0x4e, 0x46, 0xba, 0x6e, 0x4d, 0x4b, 0x3d, 
	0x4c, 0x77, 0x80, 0xbc, 0x9b, 0xce, 0x69, 0xbe, 0x46, 0x65, 0x24, 0xbd, 
	0x34, 0x82, 0x82, 0xbd, 0x8b, 0x3a, 0x28, 0xbb, 0xba, 0x7f, 0xc4, 0xbd, 
	0x1d, 0x76, 0xfe, 0xbc, 0x85, 0x23, 0xbc, 0x3c, 0xe4, 0x9c, 0xab, 0x3c, 
	0x55, 0xee, 0x0d, 0x3c, 0x74, 0x72, 0x2a, 0xbc, 0x38, 0xd7, 0x93, 0x3d, 
	0x45, 0x0d, 0xf4, 0xbc, 0x3c, 0x94, 0x06, 0x3d, 0xf3, 0x6d, 0x6b, 0xbd, 
	0xd9, 0xe2, 0xdc, 0xbc, 0xed, 0xf3, 0x9d, 0x3c, 0x68, 0x40, 0x82, 0x3c, 
	0xc3, 0xc0, 0x14, 0x3d, 0x92, 0xa5, 0xc9, 0x3c, 0x60, 0x93, 0x62, 0xbd, 
	0xdd, 0x5a, 0x57, 0x3d, 0xbc, 0x84, 0xee, 0xbc, 0xb4, 0xe4, 0xa5, 0x3a, 
	0xc6, 0x90, 0x02, 0x3d, 0x98, 0x22, 0x68, 0xbd, 0x05, 0xba, 0xa3, 0xbd, 
	0x1d, 0x17, 0x31, 0xbd, 0xb2, 0xca, 0xf6, 0xbc, 0x89, 0x25, 0x3b, 0x3c, 
	0xe3, 0x3b, 0xe9, 0xbc, 0x80, 0xfb, 0xc7, 0xbd, 0x52, 0xaf, 0xbf, 0x3c, 
	0x07, 0x80, 0xf9, 0x3b, 0xc1, 0x78, 0x11, 0xbd, 0x49, 0x02, 0x98, 0x3a, 
	0x81, 0xac, 0xaf, 0x3c, 0xdb, 0x83, 0x2b, 0xbc, 0x76, 0x1c, 0x85, 0xbc, 
	0x0a, 0xdb, 0x03, 0xbc, 0xbd, 0x77, 0x9a, 0x3d, 0x60, 0x8c, 0xb6, 0xbd, 
	0x30, 0x24, 0x48, 0x3b, 0x64, 0xd3, 0x35, 0x3c, 0x79, 0xc2, 0x61, 0x3d, 
	0x73, 0xbe, 0x5a, 0x3d, 0x59, 0xad, 0x99, 0xbd, 0x32, 0xe6, 0x39, 0xbc, 
	0x2f, 0xd4, 0xae, 0x3b, 0x07, 0x85, 0xe1, 0xbb, 0x95, 0x8c, 0xd6, 0x39, 
	0x42, 0xd9, 0x8c, 0xbc, 0xe3, 0xde, 0x21, 0x3d, 0x74, 0xc2, 0x2a, 0x3d, 
	0xa5, 0x74, 0xfe, 0xbb, 0xce, 0x50, 0xd8, 0xbc, 0x22, 0x97, 0x40, 0x3d, 
	0xd1, 0xc3, 0x4c, 0x3d, 0x1e, 0x87, 0x51, 0xbd, 0x19, 0xcf, 0xd8, 0xbb, 
	0xa7, 0xff, 0x58, 0xbc, 0x60, 0xb8, 0xb3, 0x3b, 0xe8, 0x32, 0xab, 0xbd, 
	0x4f, 0x67, 0xe0, 0xbb, 0xd2, 0xc4, 0xfd, 0x3b, 0x3e, 0xc1, 0x67, 0xbd, 
	0xa9, 0xf7, 0x91, 0xbb, 0x63, 0xff, 0x84, 0x3a, 0x4f, 0x45, 0x00, 0xbc, 
	0x7d, 0x04, 0x26, 0xbd, 0x4c, 0xf8, 0x4d, 0x3d, 0x74, 0x03, 0x11, 0xbd, 
	0x37, 0x1d, 0x49, 0x3d, 0xfc, 0x55, 0xe0, 0xbb, 0x9d, 0x2d, 0x3a, 0xbd, 
	0x47, 0x52, 0xcc, 0xbb, 0xbe, 0x59, 0xf3, 0xbc, 0xe5, 0x58, 0x7c, 0xbc, 
	0x51, 0x23, 0xe0, 0x3c, 0xd2, 0xae, 0xb1, 0xbb, 0x0e, 0xf7, 0xee, 0x3c, 
	0xd6, 0xbd, 0x2f, 0xbd, 0xec, 0xc5, 0x84, 0x3d, 0x1e, 0x02, 0xf8, 0xbc, 
	0x91, 0x87, 0x3a, 0x3a, 0x00, 0x31, 0x25, 0x3c, 0xcc, 0x1d, 0xad, 0x3c, 
	0x17, 0xee, 0x07, 0xbd, 0x30, 0x8f, 0xf8, 0x3c, 0xfc, 0x29, 0xa0, 0xbc, 
	0xc3, 0xf3, 0x13, 0xbd, 0x85, 0x7e, 0xad, 0xbc, 0x9c, 0xa8, 0x46, 0x3d, 
	0x12, 0xed, 0xae, 0xbc, 0x81, 0x22, 0xc1, 0xbd, 0xc4, 0x07, 0x7d, 0xbd, 
	0x8c, 0x55, 0x68, 0xb9, 0x3f, 0x2a, 0x63, 0xbc, 0x06, 0x91, 0x8d, 0x3c, 
	0x28, 0x85, 0x6c, 0xba, 0xd4, 0xec, 0x53, 0xbb, 0x0d, 0x39, 0x9b, 0xbd, 
	0x42, 0xa0, 0xde, 0x3c, 0x04, 0xe2, 0xdb, 0xbd, 0x99, 0x70, 0xa2, 0x3c, 
	0x7c, 0x50, 0x01, 0xbc, 0xb8, 0x9f, 0x3c, 0xbc, 0xea, 0xd0, 0x30, 0xbb, 
	0x3f, 0x6a, 0xc2, 0x3b, 0xa8, 0x4e, 0x0a, 0xbd, 0x9a, 0x5b, 0x93, 0x3b, 
	0x75, 0xb4, 0x93, 0xbd, 0xca, 0x5e, 0xf0, 0xbd, 0xcc, 0xde, 0x9a, 0xbd, 
	0x7f, 0xb7, 0x0f, 0xbd, 0x57, 0x95, 0xdf, 0xb9, 0x32, 0xc5, 0x01, 0x3c, 
	0x8f, 0x1d, 0x9d, 0xbd, 0x59, 0x64, 0xff, 0x3c, 0xe9, 0x63, 0xab, 0x3c, 
	0x14, 0x05, 0x03, 0x3c, 0xfc, 0x56, 0x1b, 0x3d, 0x13, 0x91, 0x14, 0x3d, 
	0x62, 0x85, 0x9c, 0x3d, 0x49, 0x2c, 0x5f, 0x3c, 0xb6, 0xee, 0xe8, 0x3c, 
	0x08, 0xe6, 0x92, 0xbc, 0x7a, 0xcc, 0x94, 0xbd, 0x44, 0xdb, 0xd3, 0x3b, 
	0xfd, 0xaf, 0x8d, 0xbb, 0x91, 0x05, 0x8a, 0x3c, 0x78, 0x0e, 0xda, 0x3b, 
	0xc0, 0x4e, 0x25, 0x3d, 0x9e, 0xe0, 0x3d, 0x3c, 0xe8, 0x46, 0x50, 0x3d, 
	0xb3, 0x51, 0x9e, 0x3d, 0xcf, 0xf4, 0x83, 0x3c, 0xa8, 0xa7, 0x10, 0xbc, 
	0x42, 0x70, 0x0c, 0x3d, 0x26, 0x46, 0xd4, 0x3c, 0xa0, 0x65, 0xdd, 0xbd, 
	0xce, 0x3b, 0x8d, 0x3d, 0x11, 0xea, 0x15, 0xbd, 0x31, 0x1b, 0x31, 0x3c, 
	0xcb, 0xde, 0x9e, 0xbc, 0x5f, 0x09, 0xd8, 0xbc, 0x67, 0x13, 0xe0, 0xbc, 
	0x88, 0xcc, 0xf9, 0xbc, 0xa7, 0xfb, 0xc3, 0xbc, 0xb7, 0x03, 0x96, 0xbc, 
	0x41, 0x5e, 0x1a, 0x3d, 0xe5, 0x51, 0xfa, 0xbc, 0x9f, 0x64, 0x44, 0x3b, 
	0xa8, 0x5c, 0x40, 0xbc, 0x52, 0xb8, 0x09, 0x3b, 0xaf, 0xf1, 0x00, 0x3c, 
	0xcc, 0x7b, 0xc2, 0xbb, 0xfc, 0x91, 0x8a, 0xbb, 0x4e, 0xeb, 0x84, 0xbd, 
	0xe6, 0xd2, 0x4a, 0xbc, 0x0f, 0x16, 0x8d, 0x3b, 0x7a, 0x83, 0x08, 0x3b, 
	0x38, 0xe2, 0x88, 0x3b, 0x10, 0xda, 0x3b, 0x3c, 0x13, 0xf6, 0x60, 0xbb, 
	0x8e, 0x1a, 0x8e, 0xbd, 0x18, 0xd5, 0x38, 0xbb, 0x6d, 0xad, 0x1d, 0xbe, 
	0x0b, 0x18, 0x29, 0x3d, 0xa3, 0x00, 0xf6, 0xbc, 0x4b, 0x15, 0x3b, 0xbd, 
	0x1b, 0x91, 0x99, 0xbc, 0x8d, 0x63, 0x93, 0x3c, 0x8b, 0x70, 0xdc, 0xbd, 
	0xa4, 0x23, 0xce, 0xba, 0x4e, 0xd5, 0x0f, 0x3d, 0xb8, 0xd6, 0xa2, 0x3a, 
	0x4d, 0x64, 0xea, 0xbc, 0xac, 0x38, 0x1a, 0xbc, 0x1a, 0xe9, 0xb1, 0x3b, 
	0xf0, 0x8f, 0xff, 0xb9, 0x37, 0xb0, 0x44, 0xbd, 0x47, 0x47, 0xf1, 0x3c, 
	0x98, 0x2a, 0x31, 0xbd, 0x22, 0xe7, 0xcf, 0xbc, 0xea, 0x90, 0x86, 0x3b, 
	0x77, 0x90, 0x43, 0x3a, 0x7b, 0x69, 0x20, 0x3d, 0xac, 0xe4, 0x85, 0xbd, 
	0xf4, 0x8b, 0x07, 0xbe, 0x4c, 0x59, 0x13, 0xbd, 0xe3, 0x9d, 0x5b, 0xbd, 
	0xef, 0x15, 0x05, 0xbd, 0xaa, 0xd1, 0x2b, 0x3c, 0x84, 0xba, 0x17, 0x3c, 
	0x6f, 0x17, 0x09, 0xbc, 0x2d, 0xde, 0xd7, 0x3c, 0x4a, 0x7f, 0xa6, 0x39, 
	0x12, 0xa5, 0x5f, 0x3d, 0x78, 0x68, 0x15, 0xbd, 0x46, 0x6c, 0xb0, 0xbb, 
	0x7f, 0xe7, 0xc2, 0x3c, 0x29, 0x91, 0x8f, 0xbd, 0x22, 0x55, 0x9c, 0x3c, 
	0x5b, 0xff, 0x39, 0xbd, 0xc3, 0xf4, 0xbd, 0xbd, 0x6a, 0x61, 0x3e, 0x3d, 
	0x24, 0xc2, 0xe7, 0xbc, 0x21, 0xe2, 0xfe, 0xbd, 0x03, 0x3d, 0xcc, 0x3c, 
	0xc7, 0xa9, 0xbe, 0x3c, 0x5c, 0x6d, 0x2c, 0xbd, 0x6b, 0x84, 0x0b, 0xbd, 
	0x99, 0x78, 0x16, 0xbd, 0x2b, 0xbc, 0x44, 0xbc, 0x6b, 0x84, 0xd6, 0xbd, 
	0x42, 0x1d, 0xd5, 0xbc, 0xef, 0xad, 0x90, 0xbd, 0x43, 0x7a, 0xc1, 0xbd, 
	0x60, 0x55, 0x6b, 0x3c, 0xdc, 0x23, 0x1c, 0xbd, 0x71, 0x63, 0xc7, 0xbd, 
	0x5d, 0x7c, 0xbe, 0xbd, 0xdb, 0x85, 0xba, 0xbc, 0x2b, 0x4b, 0x84, 0xbd, 
	0x19, 0xfb, 0xef, 0xbb, 0x27, 0xc8, 0x2e, 0x3c, 0x36, 0xea, 0x2d, 0xbd, 
	0xc2, 0x24, 0xf5, 0xbb, 0xcc, 0xc4, 0xe0, 0xbb, 0x35, 0xc3, 0x22, 0x3c, 
	0x6a, 0x53, 0xda, 0x3c, 0xce, 0xea, 0x0a, 0xbd, 0x79, 0xd1, 0x86, 0xbd, 
	0x9d, 0x61, 0x99, 0xbd, 0x0d, 0x64, 0x99, 0x3d, 0x2d, 0xfd, 0xcd, 0xbd, 
	0x4d, 0x0d, 0x37, 0xbd, 0x46, 0x8c, 0x26, 0xbe, 0x92, 0x99, 0x2a, 0x3d, 
	0x9e, 0x77, 0x2e, 0xbd, 0x76, 0x30, 0x49, 0xbd, 0xed, 0x28, 0xdd, 0xb7, 
	0xc1, 0x84, 0xcc, 0xbd, 0x82, 0xa0, 0x6b, 0x3c, 0xef, 0x2a, 0xa1, 0xb7, 
	0x88, 0x21, 0x05, 0x3c, 0x48, 0xe3, 0x6e, 0xbc, 0x0e, 0x5a, 0x23, 0x3c, 
	0xb7, 0x55, 0x7d, 0xbc, 0xdd, 0x38, 0x9a, 0xbd, 0x41, 0x35, 0x12, 0x3d, 
	0x47, 0x46, 0xa5, 0xbb, 0x0c, 0x9d, 0x5f, 0xbc, 0x7d, 0x4e, 0x79, 0xbd, 
	0xa5, 0xf7, 0x35, 0xbc, 0x33, 0x72, 0x99, 0xbd, 0x99, 0x2e, 0x98, 0xbd, 
	0x39, 0x4c, 0x28, 0x3b, 0x6c, 0xba, 0xc3, 0xbd, 0x22, 0xd1, 0xd1, 0x3c, 
	0x98, 0x13, 0x04, 0x3d, 0xe4, 0xff, 0x5b, 0xbb, 0x60, 0xde, 0xa3, 0xbd, 
	0x2e, 0xab, 0x61, 0xbd, 0x41, 0x64, 0x66, 0xbd, 0x7a, 0x1d, 0x77, 0xbc, 
	0x8a, 0x0d, 0x11, 0x3d, 0xad, 0x2b, 0xcf, 0x3b, 0x81, 0xa4, 0xe7, 0x3a, 
	0x80, 0xdf, 0x2e, 0xbd, 0xe5, 0x30, 0x17, 0x3d, 0xbb, 0x85, 0xd0, 0xbd, 
	0x85, 0x39, 0xfb, 0xbb, 0xa0, 0x9b, 0x17, 0x3c, 0x2e, 0x73, 0x23, 0xbd, 
	0x28, 0xbd, 0x45, 0x3d, 0xe5, 0x90, 0x42, 0xbc, 0x17, 0x10, 0x63, 0xbc, 
	0x52, 0x98, 0x85, 0xbd, 0xb4, 0xea, 0x02, 0x3c, 0x8c, 0xbc, 0xd3, 0xbc, 
	0x09, 0x18, 0x50, 0xbd, 0x76, 0xa4, 0xfd, 0x3c, 0xc3, 0x64, 0xe8, 0x3c, 
	0xef, 0xe2, 0x34, 0xbd, 0x04, 0xfc, 0x26, 0xbc, 0xe6, 0x94, 0xeb, 0x3b, 
	0xb3, 0x8a, 0xbc, 0x3d, 0xf4, 0x81, 0x95, 0xbd, 0x72, 0xc6, 0xe8, 0x3c, 
	0x0c, 0x74, 0x62, 0x3c, 0x26, 0x9a, 0xcc, 0xbc, 0x2e, 0x5b, 0x0e, 0x3c, 
	0x44, 0x80, 0x72, 0x3c, 0xb5, 0xee, 0x15, 0xbd, 0x2a, 0xd9, 0xff, 0xff, 
	0x04, 0x00, 0x00, 0x00, 0x08, 0x00, 0x00, 0x00, 0xff, 0xff, 0xff, 0xff, 
	0x10, 0x03, 0x00, 0x00, 0x3e, 0xd9, 0xff, 0xff, 0x04, 0x00, 0x00, 0x00, 
	0x10, 0x00, 0x00, 0x00, 0x48, 0x2d, 0x77, 0x3e, 0xa1, 0x19, 0x84, 0xbd, 
	0x62, 0x1c, 0xd2, 0x3d, 0x8e, 0xe2, 0x77, 0xbe, 0x5a, 0xd9, 0xff, 0xff, 
	0x04, 0x00, 0x00, 0x00, 0x00, 0x24, 0x00, 0x00, 0x55, 0xc0, 0xc3, 0x3c, 
	0x6d, 0x2e, 0xf8, 0x3b, 0x05, 0x14, 0x13, 0xbd, 0x03, 0x72, 0x89, 0x3b, 
	0x6e, 0x80, 0xd7, 0xbd, 0xab, 0x26, 0xb3, 0xbc, 0xf0, 0x9f, 0xfd, 0x3c, 
	0x0e, 0xc2, 0x77, 0xbc, 0x14, 0xfc, 0x2b, 0xbb, 0xa6, 0x7f, 0xaa, 0xbd, 
	0xb3, 0xab, 0x76, 0xbd, 0xbd, 0x87, 0x19, 0xbd, 0x1b, 0x00, 0xc3, 0xbd, 
	0x69, 0x22, 0x82, 0xbd, 0x3b, 0x1a, 0x21, 0x3b, 0xb4, 0x5d, 0xb7, 0x3b, 
	0xaa, 0x23, 0x8d, 0xbc, 0x67, 0x80, 0x0c, 0x3c, 0x0c, 0xdb, 0x5f, 0xbd, 
	0x0e, 0xb9, 0x77, 0x3c, 0x44, 0xcb, 0x93, 0xbd, 0x9c, 0xe6, 0x59, 0x3b, 
	0xe1, 0xf1, 0x84, 0xbd, 0x7c, 0xb5, 0xad, 0xbd, 0x04, 0x27, 0x9b, 0xbb, 
	0x1a, 0xdf, 0xcb, 0xbd, 0xe4, 0xb7, 0xbc, 0xbd, 0x4f, 0x4b, 0xe5, 0xbd, 
	0x02, 0xf3, 0xe2, 0xbd, 0x36, 0xec, 0x89, 0xbc, 0x9e, 0xc7, 0xe6, 0x3b, 
	0x9c, 0x23, 0x44, 0xbb, 0x62, 0x12, 0xe1, 0xbc, 0x38, 0xf7, 0x7c, 0x3d, 
	0xdd, 0x0f, 0xde, 0xbc, 0xe2, 0x51, 0x54, 0x3d, 0xfa, 0xa1, 0x00, 0xbc, 
	0x5c, 0x2a, 0x9e, 0x3c, 0xdb, 0x73, 0xfd, 0xbd, 0x3a, 0x8f, 0xb4, 0xbd, 
	0xc0, 0xba, 0x59, 0x39, 0xa3, 0x57, 0x41, 0xbd, 0x4c, 0xb6, 0x13, 0xbd, 
	0x16, 0xd5, 0xf5, 0xbd, 0x98, 0x92, 0x9e, 0xbd, 0xa4, 0xd4, 0xaa, 0xbd, 
	0xf5, 0x08, 0x42, 0x3c, 0xa3, 0xe5, 0x2e, 0x3b, 0x40, 0xbf, 0x60, 0xba, 
	0x45, 0xa9, 0x9b, 0x3b, 0xd7, 0x9e, 0x92, 0x3c, 0x4b, 0x7f, 0x48, 0xbd, 
	0xb0, 0x32, 0x0a, 0xbe, 0x62, 0x92, 0x04, 0x3a, 0xbf, 0x38, 0x1c, 0xbd, 
	0x9a, 0x06, 0xc2, 0x3c, 0x04, 0x70, 0xbe, 0xb9, 0x19, 0xd7, 0x0b, 0xbc, 
	0x43, 0xcc, 0x96, 0xbd, 0x1b, 0xe3, 0x6a, 0x3d, 0xc2, 0x84, 0xc0, 0xbd, 
	0xae, 0xaf, 0x18, 0xbd, 0x85, 0xac, 0x77, 0x3b, 0x62, 0x86, 0x34, 0x3a, 
	0x8e, 0xa8, 0x3f, 0xbc, 0x65, 0xb1, 0x32, 0x3c, 0x1d, 0x01, 0x7e, 0xbc, 
	0xef, 0x90, 0x3b, 0x3d, 0x00, 0x14, 0xc5, 0xbc, 0x24, 0x35, 0xc1, 0x3b, 
	0x52, 0x18, 0x44, 0xbd, 0xba, 0x34, 0x40, 0x3b, 0xc0, 0xd0, 0x4a, 0x3b, 
	0xb3, 0xdf, 0x65, 0xbc, 0x59, 0x22, 0x4f, 0xbd, 0xbe, 0x07, 0xb0, 0x3a, 
	0x62, 0xd9, 0x1e, 0xbd, 0x84, 0xa3, 0x99, 0xbd, 0xec, 0x15, 0x42, 0xbc, 
	0x8d, 0xea, 0x97, 0xba, 0xfb, 0x95, 0x90, 0xba, 0xd4, 0x2d, 0x4e, 0x3b, 
	0x7b, 0xfd, 0x95, 0x3c, 0x9f, 0xbe, 0x0d, 0x3d, 0x06, 0x0d, 0x87, 0xbd, 
	0x13, 0x9b, 0x8d, 0x3c, 0x4b, 0x4c, 0x07, 0xbd, 0x00, 0x5d, 0x11, 0x3c, 
	0x4e, 0x52, 0x45, 0xbb, 0x5c, 0x50, 0xd0, 0x3c, 0xf4, 0x0e, 0x5a, 0xbd, 
	0xed, 0xda, 0xe0, 0xbc, 0x16, 0x47, 0x02, 0x3c, 0xab, 0x7d, 0x03, 0xbe, 
	0xec, 0xe1, 0xda, 0xba, 0x88, 0xc8, 0x0c, 0xbb, 0xc6, 0x6e, 0x47, 0xbb, 
	0x40, 0x5c, 0xa5, 0xbd, 0xf2, 0x16, 0xc7, 0x3c, 0xfe, 0xe0, 0x45, 0x3a, 
	0x02, 0x95, 0x05, 0xbe, 0xeb, 0x20, 0x9b, 0x3b, 0xcf, 0x3a, 0x9d, 0xbd, 
	0xc2, 0xf0, 0x47, 0x3c, 0x50, 0x64, 0x13, 0x3a, 0xa4, 0xbd, 0x6a, 0x3d, 
	0x5f, 0xce, 0x5d, 0xbd, 0x52, 0x64, 0x28, 0x3d, 0x62, 0x00, 0xcd, 0x3c, 
	0x83, 0xbf, 0x24, 0x3c, 0xbf, 0x98, 0x1d, 0x3c, 0xc1, 0xba, 0x87, 0xbb, 
	0x6d, 0xd0, 0x8a, 0x3c, 0x2d, 0xf3, 0x4c, 0xbc, 0x93, 0xd7, 0xd8, 0x3c, 
	0x4c, 0xbf, 0x96, 0x3d, 0x74, 0x7d, 0xa5, 0xbc, 0x9a, 0x09, 0x50, 0x3c, 
	0x4f, 0x65, 0x02, 0xbd, 0xbd, 0x96, 0x34, 0x3d, 0xea, 0x34, 0xd1, 0x3a, 
	0xe0, 0x2f, 0x91, 0x3d, 0x5d, 0x70, 0x15, 0xbd, 0xb3, 0xc1, 0xe1, 0x3c, 
	0xd0, 0x9a, 0x94, 0x3c, 0x98, 0x1d, 0x69, 0x3b, 0x37, 0xf2, 0x80, 0xbb, 
	0x5f, 0xf5, 0x3b, 0xbb, 0x14, 0x3e, 0xda, 0x3b, 0x0d, 0x6f, 0x2b, 0x3b, 
	0xd0, 0x51, 0x66, 0x3d, 0x35, 0x75, 0xf5, 0x3c, 0x8f, 0xa6, 0x25, 0x3d, 
	0xd6, 0x4f, 0x1e, 0x3b, 0x81, 0xd1, 0xb8, 0x3c, 0x7b, 0x35, 0x84, 0x3d, 
	0x4d, 0x7a, 0x63, 0x39, 0xe4, 0x07, 0x07, 0x3d, 0xe5, 0xf9, 0x79, 0xbd, 
	0x79, 0x6e, 0x18, 0x3d, 0xd3, 0x70, 0x44, 0xbc, 0x87, 0x1b, 0x43, 0x3c, 
	0xb7, 0xf2, 0xaa, 0xbb, 0x8e, 0x97, 0x9a, 0xba, 0xfe, 0xb4, 0x4d, 0xbc, 
	0xac, 0xcf, 0x39, 0x3d, 0xa7, 0x16, 0xd4, 0xbd, 0xec, 0x46, 0x28, 0xbd, 
	0x5d, 0xe8, 0x5c, 0xbd, 0xbc, 0x3a, 0xc1, 0xbc, 0x5a, 0x59, 0xe7, 0xbd, 
	0x2f, 0x1b, 0xe8, 0xbd, 0x9f, 0x4b, 0xed, 0xbb, 0x20, 0x54, 0x4f, 0xbc, 
	0x31, 0xd2, 0x78, 0xbd, 0x8c, 0xdd, 0xcc, 0xbd, 0xa3, 0x6c, 0xac, 0xbb, 
	0xc1, 0x33, 0x35, 0xbc, 0xb1, 0x67, 0x3a, 0xbc, 0xa0, 0x17, 0x62, 0xbb, 
	0x3a, 0xe6, 0xe7, 0x3b, 0xfd, 0x40, 0xc4, 0xba, 0x48, 0xd2, 0x9c, 0x3d, 
	0xe2, 0x0f, 0x72, 0xbd, 0x70, 0xfd, 0x1b, 0xbd, 0x07, 0xe1, 0xbc, 0x3b, 
	0xe1, 0x25, 0x79, 0x3b, 0xe5, 0xcb, 0x0a, 0x3d, 0x4f, 0x88, 0x66, 0x3b, 
	0xec, 0xd1, 0x8d, 0x3d, 0x12, 0xab, 0x68, 0xbd, 0x1b, 0x80, 0x41, 0x3d, 
	0x23, 0xb0, 0xe2, 0xbc, 0x64, 0xd6, 0x3b, 0x3c, 0x34, 0x34, 0x3a, 0x3b, 
	0x63, 0x9e, 0x25, 0x3a, 0x33, 0xa7, 0xbe, 0x3c, 0x76, 0xcf, 0x52, 0xbd, 
	0x62, 0x2d, 0x16, 0x3d, 0x03, 0xb6, 0x09, 0xbe, 0xad, 0x7e, 0x7b, 0xbd, 
	0x45, 0x05, 0x9e, 0x3c, 0x09, 0x9b, 0x41, 0xbd, 0xee, 0xa7, 0x4d, 0x3d, 
	0x64, 0xbb, 0xb7, 0x3b, 0xf7, 0x11, 0x86, 0x3d, 0x51, 0x01, 0xb8, 0xbc, 
	0x77, 0x0b, 0x33, 0x3d, 0x4b, 0xe2, 0xdb, 0x3c, 0xcd, 0xb0, 0xc0, 0xbc, 
	0x05, 0x44, 0x31, 0xbb, 0x27, 0xe0, 0x59, 0x39, 0x01, 0x9a, 0x00, 0x3c, 
	0x81, 0x40, 0x94, 0xbd, 0x77, 0x69, 0xdb, 0xbc, 0x16, 0x86, 0xbb, 0x3d, 
	0x6f, 0x4d, 0xaa, 0xbd, 0x1d, 0x67, 0x5c, 0xbc, 0xae, 0xf5, 0xd9, 0xbd, 
	0xa4, 0x1c, 0xa6, 0xbd, 0x7b, 0x8b, 0x5b, 0xbb, 0x97, 0x12, 0x19, 0xbd, 
	0xf2, 0x1f, 0xb5, 0x3c, 0xf5, 0x6d, 0xb9, 0xbd, 0x50, 0x73, 0x81, 0x3c, 
	0xae, 0x00, 0x5a, 0xbd, 0x39, 0x1f, 0x8e, 0xbc, 0xed, 0x55, 0xb3, 0xbb, 
	0xfe, 0x60, 0xac, 0x3c, 0xf9, 0xd7, 0xfe, 0x3c, 0x2e, 0x1d, 0xf6, 0x3c, 
	0xa2, 0xee, 0x3b, 0x3d, 0x8a, 0x1c, 0x5f, 0xbd, 0x97, 0x08, 0x00, 0x3b, 
	0x76, 0x70, 0x82, 0x3c, 0x7a, 0x17, 0xf6, 0xbb, 0xf4, 0x06, 0xad, 0x3b, 
	0x14, 0x6e, 0x3d, 0x3d, 0xce, 0x9a, 0x05, 0x3c, 0x79, 0x3a, 0xda, 0x3c, 
	0x1d, 0x6f, 0x80, 0x3d, 0x88, 0xde, 0x6c, 0xbc, 0xda, 0x01, 0xc8, 0x3a, 
	0xc9, 0x4d, 0x86, 0xb8, 0xd3, 0x3c, 0x61, 0xbb, 0x57, 0x10, 0x8f, 0xbc, 
	0x1c, 0x62, 0xca, 0x3c, 0x94, 0xd7, 0x89, 0xbd, 0x6a, 0xe3, 0x07, 0x3a, 
	0x3b, 0x09, 0x94, 0x3c, 0x23, 0x3f, 0x1d, 0x3d, 0x46, 0xa2, 0xc8, 0x3a, 
	0x88, 0x38, 0x80, 0x38, 0x15, 0x5e, 0xdf, 0x3c, 0xc9, 0xd1, 0x40, 0xbd, 
	0x67, 0xaa, 0x67, 0x3d, 0x5d, 0xaa, 0x09, 0x3b, 0x78, 0x16, 0xdd, 0xbd, 
	0x00, 0xf9, 0xca, 0xba, 0xdf, 0x7b, 0x7f, 0xb9, 0xba, 0xc7, 0x62, 0xbc, 
	0xca, 0xbc, 0xe6, 0x3c, 0x4e, 0xfd, 0x06, 0xbd, 0xc3, 0x52, 0xa1, 0x3c, 
	0x9a, 0xb8, 0x32, 0xbd, 0x48, 0xe0, 0x7e, 0xbc, 0xf3, 0x63, 0x85, 0xbd, 
	0xf4, 0x5a, 0x52, 0x3c, 0xff, 0x88, 0xbc, 0x3a, 0x35, 0x14, 0x0f, 0x3b, 
	0xab, 0x66, 0x1a, 0x3d, 0xb9, 0xf5, 0xb9, 0x3b, 0xf1, 0x4e, 0x99, 0x3d, 
	0xfc, 0xbe, 0x2e, 0xbc, 0x90, 0xba, 0x8b, 0x3b, 0x81, 0x3d, 0xc0, 0x3a, 
	0x12, 0xc3, 0x84, 0xbc, 0x1e, 0x5d, 0xb9, 0xbc, 0x95, 0xa5, 0x35, 0xbd, 
	0xc4, 0x85, 0x16, 0xbc, 0x4e, 0x25, 0x24, 0xbd, 0x26, 0x98, 0x39, 0xba, 
	0x86, 0xeb, 0x91, 0x3b, 0x41, 0x6f, 0x2b, 0xbd, 0xce, 0x02, 0x84, 0x3a, 
	0x1f, 0x5f, 0x51, 0xbd, 0xf6, 0xc6, 0x00, 0xbd, 0xa1, 0x10, 0x9a, 0xbc, 
	0x3e, 0x28, 0x5e, 0x3d, 0xf6, 0xba, 0xf3, 0xbc, 0x9a, 0x92, 0xa4, 0x3b, 
	0x89, 0x51, 0x24, 0xbb, 0x00, 0x3d, 0x0c, 0x3c, 0x90, 0xd5, 0xe1, 0xbc, 
	0xba, 0xce, 0x9b, 0x3c, 0x40, 0xd7, 0xb8, 0xbd, 0xa8, 0x3e, 0x78, 0x3c, 
	0xb8, 0x8c, 0x84, 0x3c, 0x9f, 0x62, 0xbc, 0x3d, 0x8f, 0x7a, 0xc2, 0xbc, 
	0x6e, 0x92, 0x76, 0xbb, 0x6f, 0x2f, 0x54, 0xbd, 0x2a, 0x0f, 0x65, 0xbd, 
	0xd4, 0xfa, 0xa8, 0xbc, 0x3e, 0x2b, 0x58, 0x3c, 0xc5, 0x39, 0x22, 0xbc, 
	0xb8, 0xa8, 0x13, 0xba, 0xa7, 0x3d, 0x58, 0xbb, 0xe0, 0x37, 0x66, 0xbb, 
	0x91, 0x01, 0x66, 0xbb, 0x58, 0x54, 0xbc, 0xbd, 0x6f, 0x5a, 0x12, 0x3b, 
	0x76, 0xd0, 0x0f, 0x3d, 0xa6, 0x33, 0xe0, 0x39, 0x61, 0x06, 0x85, 0xbd, 
	0x9c, 0x2d, 0x9e, 0xbc, 0x30, 0x9a, 0x4f, 0xbb, 0x58, 0xa3, 0x12, 0xbb, 
	0x00, 0xa3, 0xd4, 0x3b, 0xd6, 0x6b, 0x16, 0xbe, 0x43, 0x14, 0x99, 0x3d, 
	0x61, 0xc0, 0x8c, 0xbd, 0xf5, 0x05, 0xc6, 0xbb, 0x79, 0x74, 0xd1, 0x3b, 
	0xd7, 0xbc, 0xc5, 0x3a, 0xae, 0x16, 0xe3, 0x3c, 0x53, 0x40, 0x43, 0xbd, 
	0x02, 0xe6, 0xcd, 0x3c, 0x42, 0x5d, 0x14, 0x3d, 0x93, 0x8f, 0x02, 0x39, 
	0x84, 0xcd, 0xbd, 0xbc, 0xa7, 0x83, 0x07, 0x3b, 0x5d, 0x7f, 0x97, 0xba, 
	0x9e, 0xde, 0xa2, 0x3a, 0xb7, 0x7a, 0xf4, 0xbc, 0xe2, 0x6d, 0x78, 0xbd, 
	0xdd, 0x24, 0xb4, 0x3c, 0xfb, 0x4a, 0x28, 0x3d, 0x79, 0x5b, 0x0c, 0x3d, 
	0x67, 0x37, 0x02, 0x3b, 0x04, 0xdc, 0xf6, 0x3c, 0x5b, 0x9b, 0xea, 0x3c, 
	0x26, 0xfe, 0x58, 0x3c, 0x96, 0x35, 0x46, 0x3b, 0xc7, 0xd2, 0x09, 0xbd, 
	0x17, 0x8d, 0xcf, 0x3c, 0x7f, 0x5a, 0x05, 0xbc, 0x73, 0x56, 0x9c, 0x3d, 
	0x66, 0x95, 0x04, 0x3c, 0x7d, 0xea, 0x4c, 0x3d, 0x38, 0x43, 0xe9, 0x3c, 
	0x09, 0xe2, 0xa0, 0xbc, 0xba, 0xbd, 0xcd, 0x3c, 0xcc, 0xf4, 0xa3, 0xbd, 
	0x08, 0x5d, 0x12, 0x3a, 0xbe, 0x3a, 0x3a, 0x3b, 0xfa, 0x1e, 0xe9, 0xbb, 
	0x9f, 0xd1, 0x54, 0xbd, 0x62, 0xca, 0xb8, 0xbd, 0x39, 0x38, 0x94, 0x3d, 
	0x98, 0x07, 0x3d, 0xbd, 0xd2, 0xe0, 0x2c, 0x3c, 0x2b, 0xe7, 0x6f, 0xbd, 
	0x23, 0x15, 0x83, 0xbc, 0xe9, 0x18, 0xa0, 0xb9, 0x91, 0x8b, 0x77, 0xbc, 
	0x09, 0xfb, 0x8d, 0x3b, 0xc8, 0x11, 0x53, 0xbd, 0xa1, 0x8b, 0x89, 0xbb, 
	0x54, 0x06, 0xb9, 0xbd, 0x84, 0x18, 0x97, 0x3a, 0xff, 0xcd, 0xc3, 0x3a, 
	0x61, 0x22, 0xef, 0x3b, 0xff, 0x0a, 0xab, 0x3c, 0x82, 0xdd, 0x46, 0xbd, 
	0xe4, 0x8d, 0x83, 0x3a, 0xbf, 0x27, 0x9c, 0xbc, 0xff, 0xf1, 0x7a, 0x3c, 
	0x7b, 0x58, 0x96, 0x3b, 0xcb, 0xc5, 0x4c, 0xbd, 0x3a, 0xbb, 0x68, 0x3b, 
	0x8b, 0x24, 0x59, 0xbc, 0x1a, 0x90, 0x16, 0xbd, 0xe2, 0xae, 0x91, 0xbc, 
	0xcc, 0x65, 0xaa, 0x3c, 0x11, 0xf6, 0xc9, 0xbb, 0x51, 0x03, 0xa5, 0x3c, 
	0xe0, 0x06, 0x7c, 0x3a, 0x26, 0x97, 0x81, 0x3b, 0x04, 0xff, 0xd0, 0xba, 
	0xbb, 0x29, 0x4a, 0x3c, 0x87, 0x99, 0xa1, 0x3b, 0xec, 0xcb, 0xca, 0xbc, 
	0xf3, 0x3c, 0xa4, 0x3c, 0x5b, 0xae, 0x96, 0xbc, 0x88, 0xb0, 0x27, 0x3d, 
	0x17, 0xb5, 0x49, 0x3b, 0x3d, 0x80, 0x4f, 0x3d, 0x01, 0x8c, 0x90, 0x3c, 
	0x03, 0xf8, 0xb0, 0x3c, 0x90, 0xaf, 0x95, 0x3c, 0x6d, 0x76, 0x9d, 0xbd, 
	0x61, 0x8b, 0x33, 0xbc, 0xf6, 0xa6, 0x8e, 0x39, 0xaf, 0x5e, 0x28, 0x3c, 
	0xec, 0xd4, 0xd2, 0x3d, 0xf7, 0x1a, 0xda, 0xbd, 0xd1, 0xe2, 0x52, 0x3d, 
	0x4b, 0xf4, 0x4f, 0x3c, 0x2f, 0x5d, 0xa5, 0x3b, 0xf3, 0x10, 0x3a, 0xbe, 
	0xa6, 0x33, 0xb4, 0x3c, 0xf7, 0x42, 0xa6, 0xbb, 0x2b, 0x4c, 0xa9, 0xbc, 
	0x71, 0x99, 0x13, 0xbd, 0xca, 0x28, 0x06, 0xbd, 0x7e, 0xc9, 0x1d, 0xbd, 
	0x1d, 0xcb, 0x66, 0xbd, 0x93, 0x3b, 0xaa, 0xbb, 0x34, 0x2f, 0x89, 0xb7, 
	0x15, 0x80, 0x3b, 0x3c, 0x47, 0x9c, 0x1e, 0x3d, 0x2e, 0x01, 0xa6, 0xbd, 
	0xa5, 0x08, 0xef, 0xbc, 0xfe, 0x54, 0xb3, 0x3c, 0xa7, 0xb6, 0xfe, 0x3b, 
	0x87, 0xa1, 0xc7, 0xbc, 0x4a, 0x33, 0x6b, 0xbd, 0x52, 0x69, 0xbd, 0xbb, 
	0x54, 0x5d, 0x66, 0xbd, 0x48, 0xc1, 0xb6, 0xbd, 0x87, 0x09, 0xbd, 0xbd, 
	0xaa, 0x47, 0xa4, 0xbb, 0x7d, 0xf9, 0x58, 0x3c, 0x7b, 0x36, 0xc5, 0xbb, 
	0x9c, 0x20, 0x9a, 0x3a, 0x39, 0x0c, 0x07, 0x3c, 0x07, 0x15, 0x21, 0x3c, 
	0xcc, 0x1a, 0xe2, 0xbb, 0x6e, 0x57, 0xee, 0xbc, 0x94, 0xdb, 0x69, 0xbd, 
	0x55, 0x2f, 0xc8, 0x3c, 0xe7, 0x4f, 0x5e, 0x3c, 0xb2, 0x4c, 0x83, 0x3c, 
	0xe0, 0x7d, 0x09, 0xbb, 0xe6, 0x02, 0x04, 0x3d, 0x1e, 0xcd, 0xbc, 0xbd, 
	0x8d, 0xd4, 0x8c, 0xbd, 0xe7, 0x30, 0xef, 0xbc, 0x4d, 0x6f, 0x95, 0xbd, 
	0xa4, 0x87, 0xa6, 0x3b, 0x54, 0x51, 0xb8, 0xba, 0x56, 0x1d, 0xe7, 0x3b, 
	0x01, 0x4c, 0x0e, 0xbc, 0x7f, 0x4f, 0x7a, 0xbd, 0x5d, 0x6a, 0x69, 0xbd, 
	0x02, 0x88, 0x2f, 0x3d, 0x7f, 0xe9, 0x58, 0xbb, 0xfc, 0xd7, 0x7f, 0x3c, 
	0xe7, 0x73, 0xf7, 0xbb, 0x86, 0x9a, 0xd7, 0xb9, 0xb0, 0x94, 0xd6, 0xbc, 
	0x39, 0x7c, 0x81, 0xbd, 0x16, 0x53, 0x45, 0xbd, 0xc6, 0x8e, 0x1c, 0xbc, 
	0x24, 0xc5, 0x3e, 0xbc, 0x45, 0xef, 0xd5, 0x39, 0x1a, 0x0c, 0xec, 0xba, 
	0x72, 0x90, 0x04, 0x3d, 0x23, 0x75, 0x13, 0x3d, 0xcd, 0x14, 0x10, 0xbd, 
	0x2a, 0x9c, 0x8a, 0xbd, 0xce, 0xe9, 0x18, 0xbb, 0x1f, 0x95, 0x44, 0xbc, 
	0x13, 0x05, 0x9a, 0xbc, 0x12, 0x17, 0x70, 0xbc, 0x1f, 0x57, 0x21, 0xba, 
	0x8e, 0xd7, 0x51, 0xba, 0x23, 0xf6, 0xc8, 0xbc, 0x6a, 0xb7, 0x32, 0xbc, 
	0xc4, 0x21, 0xa6, 0xbb, 0xcf, 0x80, 0xd7, 0x3c, 0x13, 0x71, 0x38, 0x3c, 
	0x9d, 0x45, 0x1a, 0xbb, 0xc5, 0xa9, 0x2a, 0x3c, 0x04, 0x47, 0x0a, 0x3c, 
	0x27, 0x4d, 0x2a, 0x3d, 0x08, 0x32, 0x02, 0xbc, 0x28, 0xe0, 0x80, 0xbc, 
	0xb7, 0x84, 0xca, 0x3c, 0xf6, 0x9f, 0x0a, 0xbd, 0x1f, 0x97, 0xa0, 0x39, 
	0x25, 0x4f, 0x06, 0xbb, 0xab, 0x5b, 0x13, 0xbc, 0xe6, 0x5a, 0x66, 0x3d, 
	0x43, 0x64, 0x2a, 0xbd, 0x2a, 0x36, 0x4a, 0xbc, 0x5d, 0xed, 0x90, 0x3c, 
	0x7c, 0x2d, 0xd8, 0x3b, 0xbb, 0xa9, 0x1f, 0x3b, 0x92, 0xbe, 0x53, 0x3c, 
	0x81, 0x27, 0x07, 0xbc, 0x39, 0x67, 0xd0, 0xbd, 0x87, 0xc0, 0xec, 0x3d, 
	0xb1, 0x49, 0x0a, 0xbc, 0xd2, 0x44, 0xf0, 0x3b, 0xde, 0x44, 0x3d, 0xbc, 
	0x0f, 0x74, 0x53, 0x3a, 0xcd, 0xe7, 0xb4, 0xbb, 0x93, 0x02, 0x03, 0xbc, 
	0x98, 0x23, 0xe7, 0x3d, 0xd6, 0xe2, 0x2b, 0xbc, 0xac, 0x51, 0x0c, 0xbb, 
	0xf4, 0x15, 0x8a, 0xbd, 0xed, 0x56, 0x68, 0x3b, 0xa4, 0xf8, 0x44, 0x39, 
	0xb4, 0x4e, 0x8e, 0x3c, 0x98, 0xb9, 0x62, 0xbd, 0x11, 0x3a, 0x96, 0xbc, 
	0xb8, 0xe2, 0xde, 0x3d, 0x21, 0xb0, 0x60, 0xbd, 0x87, 0x4d, 0xad, 0x3c, 
	0xc4, 0x58, 0x05, 0xbd, 0xa0, 0x1f, 0x24, 0x3c, 0xe1, 0x17, 0xdf, 0x3a, 
	0xae, 0xcf, 0x59, 0xbc, 0xb8, 0x13, 0xd9, 0x3d, 0x6b, 0xf8, 0xc6, 0xbc, 
	0xfb, 0x81, 0xe1, 0xbc, 0xb6, 0xa4, 0xfd, 0x3b, 0xa6, 0x4e, 0x54, 0x3c, 
	0xec, 0xe4, 0xca, 0x3a, 0xb4, 0x42, 0x90, 0x3c, 0xd2, 0x26, 0x3d, 0xbd, 
	0x8d, 0x3c, 0xdb, 0xbc, 0x88, 0xa0, 0xa6, 0x3d, 0x81, 0x2a, 0xf6, 0xbc, 
	0x72, 0x44, 0x40, 0x3c, 0x53, 0xa8, 0xaf, 0xbc, 0x4e, 0x55, 0x19, 0x3b, 
	0xce, 0x57, 0xb4, 0xbb, 0xfe, 0x84, 0xa1, 0xbc, 0x0f, 0x3c, 0x9c, 0x3d, 
	0xa3, 0xe2, 0x14, 0xbc, 0xc1, 0x44, 0xeb, 0xbc, 0x16, 0xef, 0x66, 0xbd, 
	0xde, 0x28, 0xf9, 0x3b, 0xe9, 0x8c, 0xcc, 0x3a, 0x17, 0x5d, 0xde, 0x3b, 
	0x05, 0xba, 0x21, 0xbd, 0x27, 0x4f, 0x3e, 0xbb, 0x90, 0xef, 0xa0, 0xbd, 
	0xb3, 0x1e, 0xb1, 0xbc, 0x19, 0x5b, 0x9d, 0xbc, 0x20, 0x68, 0xbe, 0xbd, 
	0x3c, 0x92, 0x2f, 0x3a, 0x29, 0x56, 0x65, 0xbb, 0xc7, 0xbb, 0x9d, 0x3c, 
	0x0e, 0x0b, 0x92, 0xbc, 0x45, 0x11, 0xe9, 0xbc, 0xd0, 0x0e, 0x3c, 0x3d, 
	0x08, 0xe7, 0xcb, 0xbc, 0x38, 0x75, 0x76, 0x3a, 0xb1, 0x84, 0x61, 0xbb, 
	0xa1, 0x29, 0x94, 0xbb, 0x2b, 0x87, 0x86, 0xbc, 0xfd, 0xe0, 0x4a, 0xbc, 
	0x98, 0xc2, 0xfa, 0xbd, 0xa6, 0x6d, 0x02, 0x3c, 0x8a, 0x1c, 0x89, 0xbb, 
	0x2f, 0x1a, 0x22, 0x3d, 0xa2, 0x05, 0x7f, 0x3c, 0x1c, 0x05, 0xbe, 0xba, 
	0xff, 0xbe, 0xbd, 0xbc, 0x4a, 0x5f, 0xf4, 0xbc, 0x58, 0x73, 0x11, 0xbb, 
	0xc5, 0xfb, 0x7f, 0x3c, 0xeb, 0x12, 0x5a, 0xbc, 0xcb, 0xba, 0x53, 0xbb, 
	0x3f, 0x44, 0x07, 0xbc, 0x4c, 0x6a, 0x99, 0x3c, 0xed, 0xa5, 0x5b, 0xbc, 
	0xc5, 0x6d, 0xc3, 0xbc, 0x69, 0xb0, 0x57, 0xbd, 0xdb, 0x11, 0x22, 0xbd, 
	0x1e, 0x23, 0xc5, 0x3b, 0x05, 0x7a, 0x29, 0xbc, 0x0a, 0x63, 0xc6, 0x3b, 
	0x17, 0x96, 0xef, 0xba, 0xe5, 0xb8, 0x75, 0xbc, 0x40, 0xa6, 0x3f, 0xbd, 
	0x7d, 0x18, 0x91, 0xbc, 0x88, 0x8b, 0xae, 0xbd, 0xbc, 0x7e, 0x98, 0x3c, 
	0x9d, 0x47, 0xe8, 0x3a, 0x6d, 0x26, 0x26, 0xbb, 0xb8, 0xdb, 0x94, 0x3b, 
	0x42, 0x77, 0xab, 0x3c, 0xfe, 0x8f, 0x61, 0x3d, 0xf5, 0xa8, 0xe6, 0x3c, 
	0xf7, 0xe8, 0xbb, 0xba, 0x67, 0x1f, 0xf2, 0x3c, 0xc2, 0xf2, 0x93, 0x3c, 
	0x9d, 0x17, 0x49, 0xbd, 0xb0, 0x00, 0x7d, 0x39, 0x2c, 0xba, 0xb8, 0xbd, 
	0x32, 0x8e, 0x6f, 0x3d, 0xf0, 0xd3, 0xa2, 0xbd, 0x15, 0xed, 0x2c, 0x3c, 
	0x5b, 0x48, 0x62, 0x3c, 0x3e, 0xf3, 0x9d, 0xbb, 0x05, 0xa2, 0xbf, 0xba, 
	0xe0, 0x8c, 0x07, 0xbc, 0x2b, 0xcd, 0xf8, 0x3c, 0x15, 0xa4, 0x43, 0xbd, 
	0x90, 0x4c, 0x8f, 0x3c, 0xc3, 0xf3, 0x86, 0x3d, 0x3a, 0xf8, 0x01, 0x3d, 
	0x40, 0x94, 0x2e, 0x3c, 0xbd, 0x20, 0xff, 0xbd, 0x62, 0x40, 0xbe, 0xbb, 
	0x66, 0x04, 0x28, 0x3c, 0x83, 0x7f, 0xab, 0x3d, 0x91, 0x3d, 0x4c, 0xbd, 
	0xfd, 0x18, 0x41, 0x3d, 0x7a, 0xc2, 0x14, 0x3d, 0x7a, 0xdd, 0x8e, 0xbb, 
	0x0c, 0xcc, 0x9f, 0x3b, 0x27, 0x18, 0x8b, 0xba, 0xe3, 0x0d, 0x33, 0x3d, 
	0x2e, 0x0e, 0x6a, 0x3c, 0x68, 0x58, 0xf1, 0x3b, 0xc2, 0x93, 0x59, 0x3d, 
	0x1d, 0x1c, 0x3f, 0x3d, 0x87, 0xed, 0x01, 0x3d, 0xe3, 0x3d, 0x23, 0x3c, 
	0xd9, 0x22, 0x2a, 0x3c, 0xce, 0xfc, 0x99, 0x3c, 0x84, 0xfa, 0x9a, 0xbc, 
	0x6c, 0xb2, 0x37, 0xbd, 0x63, 0x35, 0x58, 0xbd, 0xa9, 0x28, 0x4a, 0x3c, 
	0x93, 0x63, 0x29, 0x3a, 0xa3, 0x82, 0x93, 0x3b, 0x20, 0x45, 0x03, 0x3d, 
	0x8d, 0x31, 0xb5, 0xbb, 0x0d, 0xe4, 0x07, 0xbd, 0xb0, 0x7b, 0x34, 0x3d, 
	0xda, 0xef, 0x88, 0xbc, 0x84, 0xfe, 0x6f, 0x3c, 0xcd, 0x9f, 0x46, 0x3d, 
	0x3b, 0x6c, 0x89, 0xbc, 0x51, 0xac, 0xad, 0xb7, 0x39, 0x55, 0xec, 0xbd, 
	0x6d, 0x3c, 0xe5, 0x3c, 0xce, 0xf7, 0xc1, 0xbc, 0x5b, 0x92, 0x0a, 0xbd, 
	0x88, 0x6f, 0x3d, 0x3d, 0x75, 0xdc, 0xd4, 0x3b, 0x56, 0xed, 0xbd, 0x3b, 
	0x39, 0x61, 0x0b, 0x3d, 0xa7, 0x22, 0x38, 0x3d, 0xc5, 0x27, 0xbe, 0xbd, 
	0x65, 0xd8, 0xfb, 0xbb, 0xd2, 0x25, 0xa5, 0xbc, 0x7a, 0xb7, 0x01, 0x3d, 
	0x2e, 0x81, 0x8e, 0x3b, 0x4f, 0xcf, 0xd3, 0xbd, 0x8b, 0x9f, 0xd1, 0x3a, 
	0xba, 0x3d, 0x56, 0xbc, 0x93, 0x2d, 0xe9, 0x3c, 0x73, 0x48, 0x86, 0xbd, 
	0x3b, 0x33, 0x4c, 0x3d, 0xb0, 0x96, 0x09, 0x3d, 0x03, 0x3b, 0xac, 0x3c, 
	0x0c, 0x56, 0x1f, 0x3b, 0x4f, 0x6b, 0x4c, 0xbb, 0x5f, 0xc2, 0x61, 0x3c, 
	0x69, 0x9f, 0x0b, 0x3d, 0x5e, 0x43, 0x42, 0xbc, 0xbc, 0xbc, 0x27, 0x3c, 
	0x99, 0x08, 0xe9, 0x3c, 0xfb, 0x36, 0xfc, 0xbc, 0x63, 0x8f, 0x99, 0x3c, 
	0x52, 0x01, 0x1a, 0x3b, 0xf7, 0x1e, 0x3d, 0x3d, 0xb7, 0xa1, 0xb8, 0x3c, 
	0x2e, 0x57, 0xc2, 0xbd, 0x9b, 0x67, 0xeb, 0x3c, 0x2e, 0x5c, 0x89, 0x3b, 
	0x07, 0x79, 0x34, 0x3c, 0xf2, 0x09, 0x8e, 0xb8, 0xe3, 0x50, 0x1e, 0x3d, 
	0x86, 0x6d, 0x6f, 0xbd, 0x5b, 0xfe, 0xe8, 0xbc, 0xef, 0x90, 0xe7, 0x3c, 
	0x43, 0x45, 0x12, 0xbd, 0xfb, 0xea, 0xf7, 0xb8, 0xd5, 0x05, 0xb7, 0x3c, 
	0x6f, 0x4b, 0xbe, 0x3c, 0xb3, 0x0f, 0x9b, 0xbb, 0xe8, 0x9f, 0xca, 0xbd, 
	0x7d, 0x66, 0x6f, 0x3b, 0x47, 0xb0, 0x9b, 0xbc, 0xad, 0x73, 0x1f, 0xbd, 
	0x46, 0x23, 0x56, 0xbd, 0x88, 0xfe, 0x49, 0xba, 0x99, 0xcb, 0x99, 0xba, 
	0x2c, 0xbe, 0x24, 0xbc, 0xef, 0x14, 0x3f, 0xbd, 0x85, 0x2a, 0xdf, 0xbd, 
	0xe2, 0xf7, 0x18, 0xbc, 0x97, 0xa3, 0xa4, 0xbc, 0x70, 0x98, 0x2c, 0x3d, 
	0x0c, 0x2b, 0xf9, 0x3c, 0x2c, 0x13, 0xf7, 0xbd, 0xa2, 0xd0, 0xbf, 0xbb, 
	0xaa, 0x22, 0x02, 0xbd, 0x55, 0xeb, 0xa1, 0x3c, 0x79, 0x98, 0x8e, 0x3c, 
	0x2e, 0xa8, 0x95, 0x3d, 0x4b, 0x49, 0x51, 0x3c, 0x92, 0x85, 0x7b, 0x3a, 
	0xd6, 0x75, 0x97, 0xba, 0x94, 0x4e, 0x06, 0xbc, 0x73, 0x32, 0x00, 0x3c, 
	0x02, 0xf2, 0x0a, 0x3d, 0x1f, 0xc0, 0x0c, 0xbd, 0x20, 0xca, 0x5c, 0xbd, 
	0x5b, 0x46, 0xd1, 0x3c, 0x89, 0xaa, 0xd6, 0xbc, 0xed, 0x95, 0x24, 0x3c, 
	0xed, 0x45, 0x27, 0x3c, 0x0b, 0x5b, 0x6a, 0x3d, 0xdd, 0x70, 0x50, 0x3c, 
	0x31, 0x33, 0x92, 0x3d, 0xc2, 0x36, 0xa7, 0x3d, 0x12, 0xb8, 0x56, 0x3d, 
	0x30, 0x38, 0x36, 0x3c, 0xf1, 0x80, 0x9c, 0x3b, 0x92, 0x91, 0xfa, 0xbb, 
	0x9e, 0x6a, 0x35, 0x3d, 0xdb, 0x0c, 0xa3, 0xbc, 0xa3, 0xc4, 0xb7, 0xbd, 
	0x43, 0x69, 0x33, 0xbb, 0x6f, 0x44, 0x98, 0xbc, 0xa0, 0x64, 0x11, 0xbd, 
	0xb7, 0x0f, 0x7f, 0x3a, 0x2c, 0x1d, 0x17, 0x3a, 0xba, 0x50, 0xb0, 0xbb, 
	0x60, 0x2e, 0xcc, 0xbc, 0x5c, 0xc9, 0x96, 0xbe, 0x38, 0xde, 0x00, 0xba, 
	0xe3, 0xa3, 0x56, 0xbd, 0xc0, 0x82, 0x6f, 0x3c, 0x26, 0x7d, 0x5e, 0x3b, 
	0x35, 0xc9, 0xee, 0x3c, 0xc6, 0x2f, 0x8c, 0xbc, 0xfc, 0xc4, 0x1b, 0xbc, 
	0xe7, 0x6a, 0x11, 0xbe, 0xe7, 0xc1, 0xcb, 0x3c, 0x25, 0x22, 0x57, 0xbc, 
	0x41, 0xcd, 0xfd, 0xbc, 0x09, 0x18, 0xea, 0x3c, 0x92, 0xe0, 0xbc, 0xba, 
	0x98, 0x5a, 0x5f, 0x3c, 0x86, 0x99, 0xf5, 0xbc, 0xa6, 0xac, 0x33, 0xbe, 
	0xd4, 0xec, 0xad, 0xbd, 0x0f, 0x53, 0x9b, 0x3b, 0x02, 0x14, 0x88, 0xbb, 
	0x35, 0xef, 0x9a, 0xbb, 0xfa, 0x80, 0x50, 0x3b, 0xb8, 0x42, 0xd6, 0xbc, 
	0xc1, 0xa8, 0x43, 0x3c, 0x95, 0x6e, 0x0b, 0xbe, 0x03, 0x55, 0x32, 0xbd, 
	0x69, 0x3a, 0x01, 0xbd, 0x8e, 0x37, 0x49, 0xbd, 0xb3, 0xd1, 0x3e, 0x3c, 
	0x6a, 0x8d, 0x34, 0xbb, 0x1f, 0x5e, 0x48, 0xbd, 0xc4, 0x69, 0x1f, 0xbd, 
